#version: 0.2
Ġ Ġ
ĠĠ ĠĠ
> <
ĠĠ Ġ
ĠĠĠĠ ĠĠĠ
s e
i n
r e
ĠĠĠĠ ĠĠĠĠ
Ġ t
o n
o r
) <
a t
d e
Ġ =
s t
Ġ a
l e
: <
Ġ i
e r
l f
se lf
Ġ #
č Ċ
h e
Ġ '
Ġ c
m e
ĠĠĠĠ ĠĠĠĠĠĠĠ
Ġ 0
a l
Ġ f
a r
Ġ self
t e
Ġ p
Ġt he
Ġ re
Ġ n
" "
Ġ o
u r
Ġ e
i on
n d
Ġ s
Ġ L
c t
Ġ -
in g
r a
i t
0 0
Ġ b
Ġ in
) :<
- -
c e
r o
m p
n t
Ġi f
l a
p e
s s
c o
Ġ de
Ġ w
g e
l o
Ġ d
ĠĠĠĠĠĠĠĠ ĠĠĠĠĠĠĠ
u t
Ġ- >
a me
. _
Ġ m
ur n
t urn
u e
I N
E R
Ġ S
i le
Ġi s
. <
l i
o t
A L
Ġre turn
Ġ (
, <
Ġ _
Ġ C
# #
ĠĠĠĠĠĠĠĠ ĠĠĠĠĠĠĠĠ
"" "
Ġde f
E T
a n
p t
on e
T ER
Ġ T
r i
Ġt o
c k
A T
a d
u n
Ġ "
ET TER
ĠL ETTER
v e
Ġ' \
I T
Ġ D
Ġf or
or t
n ame
d i
Ġ N
at e
t h
i l
in e
Ġc o
-- --
u l
r or
Ġ A
m a
Ġ st
v al
c h
' ,
Ġ """
at a
Ġo f
_ _
a s
i s
Ġa nd
Ġe x
se t
Ġn ot
k e
( )<
AT IN
ĠL ATIN
( '
ge t
u p
l ine
in t
e x
Ġ 1
> #
Ġt h
mp ort
( )
r ror
la ss
se r
E rror
v er
y pe
Ġb e
de r
ĠN one
] <
at h
ct ion
f i
val ue
o d
Ġ I
Ġ ra
f ile
ul t
ro m
g s
Ġ h
## ##
e l
t er
Ġ +
me nt
i se
) )<
i z
Ġc on
a b
O N
u m
Ġ W
ĠĠĠĠĠĠĠĠ ĠĠĠĠĠĠĠĠĠĠĠ
al l
AL L
( "
b j
e n
A P
ĠS M
e d
Ġ F
co de
pt ion
= =
ĠSM ALL
Ġa s
i d
Ġ R
de f
Ġf ile
" ,
' )<
Ġ or
it h
at ion
Ġd i
Ġ B
I G
Ġ [
or m
Ġa r
ĠC AP
c on
IT AL
ĠCAP ITAL
re s
Ġ P
Ġ u
a p
o de
f f
e ct
Ġ= =
a ck
o s
n s
a se
Ġ le
iz e
Ġ E
t o
Ġra ise
Ġ %
Ġe l
t ra
i g
---- ----
te d
L E
c i
R A
p ath
o l
i me
e t
Ġel se
q u
e s
b u
R E
li st
Ġ <
Ġ lo
c lass
r y
Ġa n
Ġ me
p re
Ġ value
r ing
) ,
Ġn ame
Ġ""" <
d ata
Ġd ata
Ġ *
p ut
Ġ O
I C
Ġb y
x t
Ġ g
Ġ M
' ,<
f orm
y s
l y
a ge
IT H
Ġ line
Ġw ith
ar t
e st
ĠW ITH
bj ect
o w
r int
a nd
Ġ se
mp le
Ġi mport
Ġ 2
u re
" )<
te xt
Ġ y
Ġ_ _
Ġa l
> >
IN G
i ve
i st
o u
an ce
a m
r ue
o p
e w
di r
re ad
Ġm a
ĠĠĠĠ Ġ
Ġi t
Ġ U
' <
t a
f o
2 5
O R
Ġs o
ab le
li b
a der
Ġ on
[ '
p l
N D
o ut
Ġ V
f rom
u le
Ġo s
Ġre s
i c
d ing
Ġth at
s h
ce pt
i mport
la b
Ġ G
' ]
._ _
pe nd
p y
ser t
Ġp ro
t ype
N one
s c
te st
A R
ar gs
te s
se d
er ror
od ule
Ġ H
#### ####
ct or
Ġe n
""" <
Ġf rom
u b
a c
ke y
__ (
i r
Ġ get
Ġc h
Ġar g
Ġ he
st ance
p er
ex t
' :
p ro
ĠT he
Ġt ry
Ġw h
d s
a ult
ar y
s o
n o
b er
re ss
al se
th er
Ġ set
Ġp re
u ment
Ġo bject
s ion
ĠD O
R e
Ġle n
Ġco de
== ==
c s
u st
at t
ap pend
Ġa re
I L
f e
* *
Ġ r
Ġ l
Ġ un
Ġd o
i p
q ue
lab el
ri te
as sert
m at
ĠĠĠĠĠĠĠĠ ĠĠĠĠĠĠĠĠĠĠĠĠĠĠĠ
w or
Ġex cept
c ur
E S
Ġc lass
Ġf un
re d
Ġt ra
m ma
) ,<
I S
p a
m o
Ġ v
th od
Ġ x
p ar
Ġth is
co l
Ġw e
mma nd
Ġ list
in d
Ġst ring
it er
Ġ X
m s
co mp
ar n
Ġp ar
li f
in it
H T
I ON
Ġp a
ĠĠĠĠĠĠĠĠĠĠĠĠĠĠĠĠ ĠĠĠĠĠĠĠĠ
d d
co ding
h o
p la
Ġt est
pe n
re nt
c l
Ġo ther
Ġco mp
ĠB O
st r
IG HT
Ġ {
ING S
lo w
U T
c a
Ġe lif
ce ss
c re
ra me
] )<
he ck
s ize
Ġres ult
t ime
RA W
u nt
ver sion
ĠD RAW
ĠBO X
ĠDRAW INGS
ĠĠĠĠ ĠĠ
il l
Ġn um
Ġp rint
le n
m d
p ort
qu al
E D
Ġn p
de d
ra y
. """<
i te
Ġt ype
0 3
h t
Ġb u
b ack
Ġ k
0 1
ĠT rue
j o
Ġn ew
ur ce
-------- --------
ĠA ND
I n
ut il
= '
Ġ 3
ss age
IG N
v i
ad d
Ġs ys
n e
a ve
il d
ĠR e
m al
E N
Ġo ut
U B
Ġw he
Ġc an
E F
[ :
ate d
Ġarg ument
t y
0 4
al ue
Ġo ption
Ġp ath
p rint
att r
th on
fi x
st ring
ĠI f
ĠS IGN
ode l
o m
Ġ >
) .
jo in
( ):<
Ġ key
ma ge
w rite
re am
E qual
Ġ >>
Ġt ime
] ,
" <
. .
Ġm odule
i m
assert Equal
R O
up le
UB LE
p o
ĠDO UBLE
in stance
ig n
ar g
on g
ction s
ci mal
di ct
at or
ĠD e
in fo
ul d
ar i
' t
Ġ>> >
/ /
ch ar
Ġh as
ON T
' s
a k
alue Error
tra in
pe ci
Ġ la
Ġn e
ĠF alse
i f
o ption
n er
Ġs up
e c
Ġa dd
ce ption
le d
RE E
er s
form at
lo ck
n ce
p os
Ġ( '
de x
( <
se s
util s
it ion
Ġal l
h is
at ure
Ġme thod
Ġw ill
ke n
pl it
Ġis instance
IL L
pla ce
Ġp o
Ġnum ber
i fi
Ġre ad
Ġdef ault
ĠĠĠĠĠĠĠĠĠĠĠĠĠĠĠĠ ĠĠĠĠĠĠĠĠĠĠĠĠĠĠĠĠ
Ġst r
D e
st ri
lo se
w a
la gs
H A
all y
at ch
ma p
Ġc ur
m in
error s
ou nd
b y
li c
a ct
c al
ff er
Ġpa ss
ĠV alueError
C K
lo t
Q U
l l
= "
sc ri
' :<
######## ########
Ġs ub
ar ray
b o
ot h
and le
Ġ :
st e
' )
ro u
8 5
Ġu se
( [
co der
i ch
y thon
Ġco l
f a
Ġc all
S t
b ase
id th
ro up
fi g
p i
o pt
ĠT his
V E
Ġch ar
Ġm o
d ate
i el
T rue
Ġ j
Ġ at
u s
00 1
Ġ- -
Ġco mmand
val id
in k
tra ns
i b
U L
d a
Ġ[ ]<
a mple
S T
Ġ !
Ġby tes
a pe
Y R
ve nt
ar d
Ġu sed
ctor y
00 0
Ġ 4
m odule
s ing
Ġ! =
o bj
u ct
Ġin t
Ġar gs
6 4
f un
i al
e nt
Ġdi re
in put
Ġ label
Ġin put
ĠE x
ĠI n
Ġcon text
Ġ up
n ot
Ġ z
te n
D E
Ġn o
at ter
n ge
file name
I P
ĠA C
p r
ĠC YR
ILL IC
ĠCYR ILLIC
Ġ @
o c
o bject
m b
ve l
n um
Ġ+ =
Ġ K
pe c
ER T
t in
arn ing
ho uld
u mp
Ġm ust
U S
Ġfun ction
g er
in al
s plit
ĠG REE
ĠGREE K
Ġp l
ma x
re ak
Ġt ext
de nt
pl t
Ġc al
C on
Ġs ize
art s
i x
t le
I Z
] .
00 7
O T
a nt
00 4
2 2
Ġm s
Ġa c
ow n
==== ====
Ġwh ich
1 0
Ġw or
Ġlo g
ĠL EF
00 5
ĠLEF T
00 3
te nt
pa ce
ra p
ro ot
Ġs h
ĠR IGHT
lo b
ck et
Ġh ave
ir st
Ġe nd
f rame
u res
00 9
ri bu
Ġcur rent
n ew
U M
Ġs k
Ġm ode
lib r
Ġme ssage
def ault
00 6
Ġb ut
IG IT
Ġs hould
Ġc md
Ġan y
Ġp os
o f
r c
comp ile
Ġhe ader
ame ter
g ist
" ,<
Ġfor mat
wor k
Ġs peci
00 8
qu i
ta in
: '
UT E
oth er
d f
cre ment
Ġg ive
Ġout put
Ġc heck
Re turn
1 2
Ġfile name
bu g
Ġdi st
Ġ Y
ĠD IGIT
ĠRe turn
p lot
ri x
Ġf irst
ge ner
s ub
to col
cl u
me n
ma in
I R
} <
Ġ `
Ġwhe n
ur tle
A C
v ar
L O
s k
00 2
Ġms g
ĠĠĠĠĠĠĠĠĠĠĠĠĠĠĠĠ ĠĠĠĠĠĠĠĠĠĠĠ
f or
ar get
IC AL
' ):<
t ro
() )<
Ġso urce
n et
Ġma x
ĠP ython
ĠDe cimal
I A
Ġ' .
ype Error
Ġen coding
ns ion
Ġwh ile
bu ffer
ĠV ERT
ĠVERT ICAL
o k
m odel
Ġex p
Ġf e
re e
** **
c all
w e
Ġgive n
S E
en code
F alse
Ġf a
Ġb ase
ro w
wor d
Ġ one
ser ver
ig ht
ode c
ap p
iel d
Ġt uple
ce s
tro l
st all
li m
85 9
men ted
i mage
AT ION
8 859
b ut
un k
( (
e mp
lo ad
Ġb reak
) .<
c heck
Ġin ter
ac he
w idth
e k
st ate
it y
ack age
e nd
Ġ 5
AR K
ĠĠĠĠĠĠĠĠ ĠĠ
Ġra nge
Ġc re
l p
ĠAC UTE
2 0
C T
Ġtra in
r un
c md
ĠS t
ĠH OR
O L
Ġ |
se nt
25 5
Ġa p
res ult
EN T
ONT AL
IZ ONTAL
ĠHOR IZONTAL
mo ve
Ġline s
ol d
mple mented
E x
or ted
Ġo pen
di st
Ġo pt
' .
Ġon ly
M E
it s
ca le
T est
Ġ version
crement al
co mmand
() ,
Ġfile s
ES IS
Ġs y
nd om
Ġd is
Ġdo es
c lose
Ġw a
Ġr un
ul l
() .
Ġst art
l ong
n p
pro cess
he ader
ĠL IGHT
ine d
9 9
in dex
ifi er
r iter
at form
line s
' ))<
Ġa b
Ġin stance
trans form
lo g
rou nd
co unt
Ġc l
Ġm at
S C
Ġname s
n c
3 2
Ġf rame
p on
ac y
u se
type s
Ġp i
ĠU P
b e
A N
at ive
an ge
k w
ation s
'] )<
ms g
Ġi te
Ġma y
fo re
a re
de code
f it
Ġ Z
' ]<
lob al
Ġdo c
con fig
ar ch
fun c
g th
Ġ error
bu ild
) )
c or
e p
i es
Ġ" <
ribu te
m ode
lo at
x F
Ġc or
( _
on t
Ġthe ta
Ġfun c
Ġdire ctory
+ +
st d
Ġen code
nt er
t t
ump y
con trol
ING LE
que st
f ter
w ith
IN E
ra m
ĠS INGLE
ĠM ARK
m l
fi el
Ġvalue s
Ġs u
Ġu ser
m on
te nsion
m ber
Ġcon tain
x B
le arn
Ġ .
la s
ĠN ot
) :
ĠT ypeError
Ġ< =
W N
x C
clu de
Ġin it
Ġco unt
U N
r it
Ġw as
a ke
cur acy
cl s
option s
a ch
Ġ IN
ĠD E
25 6
s ign
co m
Ġp d
lab le
Ġsk learn
o pen
U R
me thod
ĠS E
A D
ec ut
atter n
c ation
so urce
L A
[ -
Ġ gener
co re
Ġcomp ile
Ġp er
Ġin to
Ġ* *
en coding
Ġargument s
Ġla st
OR M
Ġspeci fi
u ff
Ġ \
f lags
IR C
Ġcode cs
P E
Ġ' <
Ġs c
t he
lo op
par am
n g
f t
x D
ver t
Ġpar ameter
po int
g ht
ĠO S
B IC
value s
Ġtra ns
f d
g roup
w o
pre fix
0 2
I mplemented
[: ,
st at
ite m
U P
] )
u al
Ġst ream
l d
v a
ĠA RA
ĠARA BIC
Ġ QU
Ġde scri
P O
x b
at ures
x E
Ġc ase
Ġfe ature
M A
Ġto ken
Ġex tra
con text
er r
con d
t uple
Ġo ver
ĠD IA
e ar
Ġf ol
ER ESIS
ĠDIA ERESIS
Ġ val
Ġm odel
Ġst ack
Ġdist utils
but ion
Ġex ception
dir s
mat rix
S S
o te
ĠNot Implemented
ĠĠĠĠĠĠĠĠĠĠĠĠĠĠĠĠ ĠĠĠĠĠĠĠĠĠĠĠĠĠĠĠ
mple ment
F ile
I D
re place
Ġlo op
a ise
s ys
u ser
x A
.. .
te mp
libr ary
Ġde l
Ġw rite
Ġthe n
Ġo p
Ġpre di
Ġu sing
LE X
Ġn umpy
E n
d oc
Ġ server
u sh
RO L
Ġcon tin
F LEX
le ase
UM FLEX
IRC UMFLEX
P ro
re pr
ĠC ONT
ĠC IRCUMFLEX
ou s
ĠU n
ĠDO WN
le ment
ĠO F
ten ded
C odec
I O
Ġde code
Ġ[ '
f ind
se p
ra w
Ġchar act
Ġ errors
pe d
Ġ> =
g h
v ir
Ġo bj
by tes
Ġf lags
Ġi ter
Ġpl t
ma il
que nce
ĠCONT ROL
ar k
Ġn on
ste m
s y
Ġf in
> ##
i de
ce back
par se
vir on
Ġ' %
Ġth read
E X
a st
la y
ut ure
la g
---------------- ----------------
> _
c ate
ĠT H
Ġ /
Ġp art
lo sed
Ġh o
ON E
Ġcal led
Ġv ari
de bug
it test
Ġex c
ind ow
o ff
t able
Ġn ext
li ke
name s
ib le
Ġa ction
o mp
le r
Ġdi r
Ġadd ress
Ġpo int
Ġma ke
Ġsup port
file s
e y
v o
st art
Ġin te
sh ape
Ġ 8
Ġt urtle
pec ted
I F
re nce
Ġs ign
ction ary
m od
Ġa d
Ġe vent
Ġex ist
Ġh andle
w in
o re
IS O
Ġcontin ue
x a
Ġo per
it le
ĠC on
Con text
x e
ĠD ist
h andle
Ġso cket
ress ion
l ate
Ġg roup
Ġs ame
ĠS T
ke ys
Ġdata set
Ġthe re
Ġof f
Ġso me
ĠOS Error
1 5
i ss
u te
Ġ att
per ty
" :<
ĠA r
Ġ1 0
Ġpro tocol
Ġmethod s
c ted
co py
################ ################
ĠReturn s
me ssage
las ses
Ġi mage
Ġpre fix
1 6
D ata
or y
Ġe nt
Ġm atch
ĠS e
ex p
Ġne ed
a in
Ġf ound
x x
Ġst op
ĠF ORM
T P
] ,<
Ġ 6
ra in
Ġco m
O M
orm al
stri p
pon se
Ġ( "
Ġst ate
Ġ qu
Ġobject s
Ġfol low
) ]<
re f
1 4
cs v
mp ty
ot al
as k
o g
bo x
' ),<
a y
t ri
AT OR
RA VE
ĠG RAVE
b it
le ct
Ġe lement
Ġb ack
) ):<
c ache
__ <
Ġth an
ri ght
Ġcl s
0 5
Ġbu ild
Ġra ndom
col or
off set
] [
w h
ĠĠĠĠĠĠĠĠ ĠĠĠĠ
Ġi mplement
Ġar ray
pre sent
K E
d b
ĠĠĠĠĠĠĠĠ Ġ
Ġa fter
Ġdi ct
in stall
Ġin dex
># <
ance l
add ress
a ction
der r
ite ms
gist er
Ġwhe re
p h
ĠĠĠĠĠĠĠĠ ĠĠĠĠĠ
at ing
by te
Ġite m
n el
re en
lo cal
. ,
Ġreturn ed
Ġpar ser
Ġd ate
ari es
ci i
pro perty
Ġoption s
out put
' ),
A B
A RE
le vel
Ġd on
Ġm in
ĠW e
lo c
Ġst at
Ġhe lp
x c
ing le
Ġit s
Ġ &
Ġm an
code cs
wa it
b le
Ġ J
he d
i e
Ġwor k
Ġlabel s
1 1
r on
Ġb in
ve ctor
Ġk w
( *
Ġt arget
Ġre present
iz ed
Ġal low
3 4
pla y
Ġreturn s
Ġg lobal
label s
Ġ{ }<
aise s
h as
x f
Ġt wo
ĠĠĠĠĠĠĠĠĠĠĠĠĠĠĠĠ ĠĠĠĠ
In cremental
scri pt
Ġmo re
a g
s p
Ġst d
Ġbe fore
Ġcre ate
P ar
p art
Ġlo cal
Ġhe re
n al
Ġ' __
Ġc v
De cimal
var s
O W
u me
Ġsup p
er o
Ġb lock
" :
cre ate
an s
Ġlo ad
O S
l ink
st ra
z ip
er ate
ab c
Ġdi ff
Ġdi ctionary
Ġy ou
Ġcode c
arning s
O P
Ġt ar
ur l
Ġs ingle
Ġco py
stri bution
ex ception
Ġu s
pre d
Ġbu il
O F
T ION
ck le
ex c
' \
w ise
Ġe ach
Ġas sert
// //
St ream
m it
Ġe mpty
ma ke
ex tra
read y
Ġa ct
et work
p ackage
ĠI mport
vi de
s a
fe ature
c c
p s
ri d
> """<
s peci
Ġ root
pre di
B ase
d o
ĠI P
H e
t ing
and ard
wor ds
T H
m t
pe ct
py thon
ĠH E
uct ure
1 3
pre dict
sh ow
mat ch
fiel ds
En coder
ab s
sk ip
8 0
F C
Ġl ink
Ġoff set
so ck
**** ****
" ),
is ion
re ct
ol s
add r
Ġ )<
Ġsup er
S e
to p
Ġ ...
Ġ' -
ĠA B
Ġpar am
G E
lic y
5 6
a x
le an
ult ip
'] .
Ġch ange
0 6
1 9
i code
n ext
t on
no re
AC E
LO CK
I X
c v
Ġ ver
to ken
Ġal so
" .
t arget
on ly
Ġtime out
ĠEx tended
S M
i as
ĠR E
Re ader
Ġw idth
as cii
Ġy ield
Ġso ck
ĠĠĠĠĠĠĠĠĠĠĠĠĠĠĠĠĠĠĠĠĠĠĠĠ ĠĠ
t ar
Ġ 7
IN T
ne ction
pi pe
p ack
Ġcon tent
Ġinte ger
is o
id x
ith er
UT F
Ġhas attr
ĠK ey
Ġpos ition
H E
[ "
i mple
le ctor
Ġc lose
Ġin di
Ġex ample
up date
ic al
libr aries
indow s
B RE
W riter
ge n
cur rent
ĠExtended Context
1 00
c an
s up
Ġf ind
fe atures
Ġstring s
" ),<
w rap
stra ct
Ġ' /
ho st
======== ========
X X
o ur
Ġco mple
Ġbu f
Ġf loat
f ol
ES S
Ġbu ffer
OT ATION
g n
he s
Ġle vel
Ġpro cess
app ing
2 3
Ġa ns
Ġspecifi ed
Ġthe y
Ġget attr
va i
P AR
Ġin fo
Ġor der
ĠNotImplemented Error
C lass
E L
i o
ĠF or
ĠR FC
da y
s core
re g
Ġt rue
Ġp ackage
f p
Ġse quence
unt ime
module s
Ġfin ally
Ġvari able
vai lable
Ġ ,
Ġ err
Ġp as
ut f
cept ron
std out
' '
Y PE
ri pt
ecut able
) ))<
w ard
Ġ' _
Ġl ong
Ġt emp
ĠĠĠĠĠĠĠĠĠĠĠĠĠĠĠĠ ĠĠĠĠĠ
l ing
IC E
pos ition
uff fe
ĠQU OTATION
U n
pl atform
str u
ĠDist utils
I AL
p ol
Ġen um
stri ct
UL L
A M
d u
Ġf inal
od y
Ġline no
CK ET
Ġ' ,
tt ribute
c ro
one nt
Ġst ri
Ġchar set
s rc
Ġc a
Ġp y
Ġre qui
ĠI t
Ġar ch
res h
ĠE ND
bu f
ĠĠĠĠĠĠĠĠĠĠĠĠĠĠĠĠĠĠĠĠĠĠĠĠ ĠĠĠĠ
vi ew
Ġcol um
P ACE
ĠB LOCK
compile r
] :<
c p
d own
n ing
Ġm od
Ġlen gth
len gth
a red
th read
(' -
que ue
Ġinit ial
1 8
C ase
g ram
th ing
line no
ĠB RA
ĠDE V
b in
ĠĠĠĠĠĠĠĠĠĠĠĠĠĠĠĠ Ġ
OR T
ste ad
kw args
EX T
V ER
Ġpo ss
Ġho st
) [
R aises
v ing
ce nt
Ġal ready
t itle
Ġ ONE
fe rence
fa ce
S et
g or
st arts
en viron
assert Raises
ca use
call back
F F
b lock
n own
p op
Ġs s
Ġto p
ex it
Ġby te
R IP
T ype
p attern
Ġresult s
He ader
T he
Ġt k
Ġre move
e vent
g ative
Ġ Q
Ġf lag
ĠS H
if y
Test Case
ĠBRA CKET
Ġ valid
Ġo ld
AL F
comp ress
s um
ig h
De coder
PAR ATOR
Ġme mber
ĠSE PARATOR
ĠDEV ICE
pre c
Ġname d
ĠĠĠĠĠĠĠĠĠĠĠĠĠĠĠĠĠĠĠĠĠĠĠĠ Ġ
" )
re al
cre en
Ġdoes n
iss ing
: ]<
Ġde bug
__ ,
ac curacy
ĠKey Error
5 0
cur s
Ġf ield
Ġbe t
Ġ\ <
C ENT
Ġa ss
il ter
ĠA P
lim it
M e
ct ype
ut h
IL DE
rou gh
de l
ss ion
Ġw rit
ĠT ILDE
ul ar
ĠO ption
LA G
v ari
le ar
Ġj ust
C H
Ġ attr
Ġb o
Ġex tension
Ġtype s
Ġwor d
p ing
fo o
Ġpl atform
he lp
Ġp ort
Ġin stead
Ġcol or
x d
St r
C omp
i que
Ġin stall
sh ort
g ument
he n
ma sk
mb da
Ġbe en
Ġcall back
>## #
" ):<
3 3
Ġe ither
ri ve
', '
data set
so cket
CT ION
ĠIP v
Ġpas sed
L o
f inal
Ġ lib
Ġs ave
KE Y
o se
> __
F LAG
e red
f ul
f ont
le ss
Ġw rap
Ġch unk
low er
me mber
-- -
ĠĠĠĠĠĠĠĠĠĠĠĠĠĠĠĠ ĠĠĠĠĠĠ
ttribute Error
8 6
: //
Ġa vailable
Ġi g
ist s
Ġdiff e
5 5
M IN
ĠĠĠĠĠĠĠĠĠĠĠĠĠĠĠĠ ĠĠ
out ine
I LE
g its
re st
Ġ' '<
un ittest
bo se
rain ing
9 0
Ġp arts
ab el
Ġlo ok
Ġcompile r
Ġre al
Ġ1 00
con ds
ĠH ALF
Ġ{ }
Ġ ""
ĠĠĠĠĠĠĠĠ ĠĠĠĠĠĠ
fol der
O D
w d
y ear
er ator
Ġsk ip
Ġpi ckle
Ġparameter s
lay er
1 7
D i
Ġcon s
ĠĠĠĠĠĠĠĠĠĠĠĠĠĠĠĠĠĠĠĠĠĠĠĠĠĠĠĠĠĠĠĠ ĠĠ
er min
te nd
Ġin clude
Ġw arnings
Ġu nt
Ġoption al
wa ys
ĠAP I
p arts
Ġ like
me an
en s
M P
Ġi d
ra ndom
ro p
int er
Ġclass ifier
4 2
a ger
:' \
plot lib
Ġpi pe
Ġss l
Ġ row
Ġ# <
el l
time out
UL T
Ġatt ribute
starts with
m y
str uct
arg ument
opt s
vo id
c losed
Ġm ark
Ġ" ,
il ity
and as
Ġcharact ers
g round
m an
re ate
ri es
ex tension
Ġcon fig
con tent
= [
Ġra w
{ }
Ġthe m
ĠSt ream
L Y
in ce
Ġa li
Ġin dent
le ction
Ġc lasses
Ġre quest
il y
Ġun der
Ġdefault s
\ \
Ġth rough
Ġv ar
Ġbin ary
3 0
S ION
i a
p ri
t s
in dent
le ctions
he ad
Ġmat rix
Ġcharact er
E G
P A
t k
ĠL INE
il s
Ġ[ "
Ġfun ctions
num ber
Ġac curacy
net work
Ġarch ive
Ġf ull
ĠP O
Ġwith out
char map
W O
e g
w n
re move
st ack
ve n
Ġbe cause
Ġse ction
Ġ2 0
In valid
row ser
er ic
ND EF
pro tocol
8 8
I ME
f loat
s pec
st ant
Ġre pr
ĠN ote
ifi cation
De f
iel ds
g ression
Ġf p
Ġe mail
ĠC AR
Ġunt il
A ME
Ġc types
Ġin s
ĠC h
ĠC odec
Ġbe st
fiel d
ĠL o
an g
HA N
Ġencode d
f fix
Ä Ļ
Ġt y
Ġp attern
g lobal
ra nge
ĠC ED
ILL A
Ġz ip
Ġsc ript
ĠCED ILLA
C ol
L I
i an
y nc
re ader
IN ED
Ġse cond
ĠU NDEF
ĠĠĠĠĠĠĠĠĠĠĠĠĠĠĠĠĠĠĠĠĠĠĠĠ ĠĠĠĠĠĠ
char s
ĠUNDEF INED
O VE
n a
w rit
le te
00 00
Ġd f
ic s
ĠX XX
In fo
char set
Ġap p
Ġwa it
Ġfollow ing
? <
es ca
ust er
arg v
++ ++
the ta
ĠTH REE
d ll
r st
Ġdef ined
il ing
res ponse
tri cs
c hes
y load
Ġs um
Ġb ound
ĠA n
Ġor ig
Ġse e
ou ble
ribu tes
P re
g reen
se nd
iz er
ou nt
2 4
u ally
Ġ library
re gister
Ġf ut
Ġs pace
di s
__ .__
Ġex t
pa ss
ĠĠĠĠĠĠĠĠĠĠĠĠĠĠĠĠĠĠĠĠĠĠĠĠ ĠĠĠĠĠ
ample s
Ġmat plotlib
Ġite ms
f er
re quest
Ġp andas
Ġ( <
Ġex pected
id s
Ġup date
param s
Ġtrans port
stru ctor
7 5
I VE
R ON
Ġo c
Ġm on
frame s
Ġpredi ction
se ek
Ġi o
ra ns
an not
ad ata
ver y
ĠP re
ĠHE BRE
ĠHEBRE W
lo cale
__ )<
ser ve
ĠI S
col um
IP S
l at
o ver
an nel
ĠN OT
Ġst ep
RA C
Ġma il
Ġimplement ation
f ut
st derr
Ġthe se
ĠS QU
ult i
Ġpar se
ĠAB OVE
gor ith
ĠSQU ARE
ĠD ata
Ġch ild
o ted
p k
Ġ Error
or g
de coding
Ġnew line
Ġmo st
Str ucture
n ow
Ġa x
Ġw ant
ĠT WO
we en
Ġcontain ing
G AN
a mp
r b
al led
di ff
string s
HA RAC
ancel led
Ġstd out
HARAC TER
B U
N ame
b d
st ream
Ġd one
as os
Ġlo ck
ic ro
ctor ies
Ġsy stem
Ġab out
; <
A r
h i
i ce
n ect
o uld
Ġt otal
la n
AT ED
Ġal ways
pend ing
Ġdate time
O DE
g rid
o urce
de n
Ġn orm
Ġo b
it ive
ver age
Ġtra ceback
dd ress
fa ke
mon th
e ded
y tes
Ġc ache
un e
Ġfor m
Ġpa rent
or s
Ġm ap
file obj
Ã ©
se ction
ĠL ist
ĠA N
Ġh ow
form ation
OR D
has h
" ]<
c b
Ġ right
Ġre lease
Ġ[ <
Ġother wise
result s
Ġposs ible
I I
s v
t ry
re turn
ĠC UR
ĠA ttributeError
Ġraise d
Ġres p
Ġun ittest
Ġheader s
header s
Ġcor rect
Ġdescri ption
ĠSe e
9 2
L L
a il
f u
m ark
Ġ q
re n
ge st
ate s
8 4
a a
Ġf ields
ss l
co me
Ġm ultip
ex tend
" ))<
L abel
in clude
Ġi mp
con vert
Ġg ot
( -
. ")<
: ",
n ormal
Ġse par
Ġbet ween
c f
ĠC HARACTER
() .<
pl at
esca pe
' '<
a N
w s
Ġ round
Ġi m
ect s
Ġpro gram
tes pace
f y
f ull
y n
z en
Ġ libraries
fi rst
Ġ{ '
ĠAC CENT
( ?
a u
w arn
de te
Ġre st
Ġn ow
ĠT est
ter m
all back
path s
mo st
2 1
7 8
ex ists
Ġ1 5
tra ceback
Ġlo cale
Ġal gorith
ĠAr gument
Ġent ry
N AME
Y P
Ġ" %
Ġbe ing
ĠP ro
Ġkey word
Ġwa iter
di stribution
LE D
AR T
Ġstr uct
Ġenum erate
> '
L ist
t mp
al s
ĠC OM
Ġwh at
Ġcan not
L IC
O UR
ra ise
Ġb oth
co mple
ex ec
Ġ1 6
ĠIn cremental
b c
c y
t adata
Ġd ll
ĠF E
Incremental Decoder
c ision
f n
u id
la p
read line
ust om
SC II
ĠImport Error
Ġmon th
T HAN
b a
s ig
Ġt ake
Ġs ince
ĠS UP
Ġex ec
ht ml
ml ink
Incremental Encoder
. *
b ound
Ġf uture
Ġp la
Ġs qu
Ġin formation
ĠT o
Ġle ft
Ġme ta
Ġcontain s
sa fe
Ġ 9
Ġn etwork
ĠS HA
ĠT raining
Ġ" __
ver se
cur ses
par ameter
04 4
trans port
Comp ile
lan k
m k
Ġ ro
Ġt able
or der
ĠT urtle
ĠW hen
Ġma in
Ġpro to
Ex ception
Ġab s
sup port
W arning
f c
n ode
er t
Ġre gist
", "
'] ,
opt im
default s
we ight
speci fi
uth or
I nter
h and
i loc
i tespace
de st
ch unk
ex e
Ġh tt
Ġse nd
Ġmodule s
Col or
C E
c ase
d ot
er nel
Ġc losed
Ġre place
Ġd at
ĠE OF
Ġy ear
sc atter
Ġatt ributes
untime Error
2 01
G en
f s
re l
ĠT HA
ke ep
fa ctory
Ġalgorith m
O RE
S er
c cess
Ġf ix
ut down
IN TER
Ġst andard
sc ape
Ġcre ated
0 7
F rame
a le
f init
z info
ic ally
init ial
Ġcomp at
QU AL
Ġz ero
Ġkw args
Ġsupp orted
ĠTHA I
d rop
p atch
Ġ keys
Ġre ference
li ed
ĠT EXT
ĠO R
= ',
s u
t r
w riter
er sion
Ġthe ir
Ġs ure
pe g
Ġst derr
Ġcon vert
ĠW indows
bu il
min ator
IZ E
Ġad ded
L ET
] ))<
r t
t ree
ĠC omp
Ġh and
(" %
RA N
Ġg o
handle r
curs ive
D EF
T YPE
c lasses
f uture
p u
in valid
at er
nt ax
la st
Ġde st
ad ing
Ġ" .
Ġme an
fun ction
A S
V ar
g ing
Ġ AL
Ġ' #
Ġf d
Ġp ad
Ġw ould
Ġm apping
ĠN o
ĠR untimeError
Ġdi stribution
ĠM e
sh ake
object s
M AP
v c
Ġs creen
Ġsub class
' .<
. "<
0 8
i mp
Ġ url
or d
Ġin st
Ġm issing
val s
ex pected
ab stract
Ġres ponse
ĠDO T
03 9
vi ous
Ġty p
T ypeError
r u
st op
Ġi ss
ur al
Ġs orted
.. .<
2 9
s pace
Ġre g
ra g
ce ive
class ifier
Ġpro vide
po st
Ġevent s
//// ////
A IL
T rans
W S
c ap
e of
p orted
or ch
me trics
Ġre main
Ġe very
Ġd ay
is h
[: -
Ġla ng
Stream Reader
] ]
] ),
s ort
Ġ limit
Ġ' {
ĠĠĠĠĠĠĠĠĠĠĠĠĠĠĠĠ ĠĠĠĠĠĠĠĠĠĠĠĠĠĠĠĠĠĠĠ
Ġ1 2
Ġclass ification
SS L
Ġop code
ĠAr gs
Ġmail box
finit y
s r
Ġs plit
ut o
__ .
is ual
Ġcon nection
ES T
lic it
Ġdire ctories
Ġcal lable
predi ctions
Ġins pect
> """
Ġre l
ke d
ex ecutable
Ġdi gits
Ġ* ,
Ġhas h
Ġadd r
ent er
Ġspeci al
emp ty
Ġdescri b
ph a
Ġver bose
Ġdiffe rent
ens ure
' re
d one
y stem
Ġa g
le ft
Ġde sc
di fi
ex cept
res sed
Ġle ast
tra ce
Ġcommand s
PO INT
Stream Writer
7 7
A SE
T o
U ND
b ar
s ave
ð Ŀ
he re
Ġp ri
ĠS PACE
Ġto o
res pon
SC RIP
ðĿ ĳ
SCRIP T
3 1
P RE
c lear
y le
Ġn ormal
Ġe scape
ĠL OW
ad os
py plot
par ser
Ġcom mon
wh ich
Ġglobal s
Ġig nore
= (
~ ~
AT E
ch ine
set up
wa iter
OL ATED
Ġparam s
ctype s
ĠCAR ON
ĠIS OLATED
8 7
G et
f lag
Ġ[ ("
and om
lic ation
Ġfe atures
A ULT
o mmand
w w
Ġe t
Ġ- =
Ġse arch
sc reen
Ġdire ct
ĠEx ception
Ġgener ated
point s
IF T
fu sion
D LE
N OW
i pe
se conds
er os
Ġm ath
ĠS et
ment s
Ġ% <
ou gh
ĠEx ample
Ġsh ort
******** ********
Ġp op
ER SCRIPT
ĠT AB
(' \
() ,<
ĠE X
pa wn
Ġwhe ther
Ġsub process
ĠST ART
Ġstri p
ĠSUP ERSCRIPT
A K
P ORT
S V
n n
la mbda
ĠS S
ĠT ON
ĠP L
Ġne cess
Ġne eded
process ing
Ġpredi ctions
Par ser
Class ifier
ĠTON OS
= _
G LE
n orm
r p
s on
Ġp ython
nt ry
IN AL
iz ation
code c
Ġwor ds
resh ape
annel s
) ),
D es
U RE
t ask
Ġ ]<
se lection
Ġs pec
Ġin valid
ro zen
ty p
Ġinter face
Ġsu ffix
Ġorig inal
Compile r
T his
m ory
Ġt ermin
iter al
vi ded
ib ility
we ek
OL ON
Ġdis play
std in
Ġsu ch
vector s
Ġcontent s
ĠOption al
C LA
C OM
r ate
ge d
il ar
ĠB ase
ff ff
Ġpa ir
im ilar
Ġinter pre
temp late
cro s
Ġax is
" ]
: ]
P y
V ersion
a f
f low
u int
re lease
Ġn ode
co res
ĠF OUR
ĠE SC
time s
Ġpo licy
Ġdoc ument
Ġtar info
Ġrequi red
ĠESC AP
M IC
b g
f in
j ust
t otal
u sed
Ġa wait
pt h
ĠU N
if t
lot s
Ġcall s
Ġoper ation
rest ype
= {
G AR
N etwork
i en
o me
se cond
Ġc li
Ġre gister
ur on
di o
di re
ed Color
RA CTION
Ġ{ <
if est
del ta
ĠList edColor
ĠAN GLE
POINT ING
ĠESCAP E
ĠListedColor map
M an
V alueError
o b
s q
se arch
me nsion
ĠS OL
ĠO n
Ġen viron
per ceptron
Ġk ind
Ġpath s
Ġcal ler
Ġap pro
Ġcor outine
ĠUn icode
ARE N
F ILE
O per
d ated
i re
Ġf n
ĠC lass
ĠF RACTION
Ġwe ek
UL ATION
Ġact ual
Ġvariable s
ĠTAB ULATION
D IC
I ter
b b
e f
g in
h a
n ch
u age
Ġi dent
ra nd
ge x
lo ss
ri s
ri bution
Ġex act
ĠP AREN
Ġlo w
Re ad
lob s
Ġwa y
TH ESIS
# <
6 5
: -
L e
x fe
ĠT RAN
(' .
ĠE N
qu ote
Ġpro vided
Ġne gative
ID US
prec ated
ĠCUR LY
ĠFE ED
ĠSHA DE
ĠSOL IDUS
ĠPAREN THESIS
9 1
> @
y e
AT A
ĠA CK
ch o
Ġex ecutable
ĠSM TP
ig nore
RE AD
Ġse p
end s
ĠSH IFT
ĠTRAN SM
' ).
M L
S IZE
i ted
Ġs rc
Ġ- --------------------------------
---- ---
__ ',
file no
Ġcon structor
ĠE QUAL
IS SION
Ġfa il
LED GE
buil tin
NOW LEDGE
ĠSS L
ĠACK NOWLEDGE
ĠTRANSM ISSION
T emp
a v
f ill
i ck
or ig
de v
Ġe ven
Ġde lim
Ġw in
Ġex it
Ġas ync
Ġle t
pa ir
Ġnumber s
Ġpos itive
MA X
Ġexist s
Me ssage
ceive d
C lose
a fter
b l
Ã ³
Å Ĥ
li ce
ine ar
ĠV UL
Ġk now
Ġfa ce
ĠPL US
Oper ation
ĠVUL GAR
" \
, ))<
= ('
A ND
A ddress
C P
N O
S ET
d ouble
se mb
Ġb ody
Ġde ta
ile d
ĠM ED
im er
Ġread ing
base name
Ġrun ning
ecut or
Ġbuil tin
MIN US
Ġag ain
9 3
< /
= ("
B IN
b reak
c ul
l ush
de coder
ct o
pe ed
an y
Ġco uld
Ġme mo
po licy
for ce
command s
Ġdescri pt
Par se
Ġcolum ns
= %
D O
b est
b ias
j p
p id
v as
ar ange
ro ss
Ġd st
ress or
arg types
ste p
([ [
12 34
but ton
colum ns
abstract method
( {
) .__
4 3
6 6
F AIL
N ot
O ption
c m
r ary
} )<
Ä ħ
Ġ queue
de scri
Ġi mplemented
ar is
Ġd ot
ET A
Ġ" -
ĠO ther
Ġpre vious
Ġtra iling
Ġsize of
ytes IO
2 7
C reate
P o
P RO
ing s
ĠI mage
Ġdi stance
hand shake
Man ager
) ')<
0 9
6 1
P ath
b ody
h read
x y
Ġt orch
ĠF ile
ĠG en
04 3
Ġman y
Ġcolum n
lat in
Ġnecess ary
C ON
T O
f ilter
p le
Ġ ^
Ġ keep
Ġt itle
or ary
he ight
Ġ" :
ĠN O
ine s
ES C
Ġdis patch
ĠUn ix
xx x
Ġcomple te
Def ect
ends with
F IPS
b ig
p ush
u ation
Ġt ri
st er
Ġd a
ĠD oc
Ġse lector
Ġnames pace
H EN
n l
s lots
u c
di sp
am ily
ho ok
ition al
Ġcor respon
ĠImport ing
n an
Ġ AT
Ġt ree
Ġt ask
ĠC heck
(' /
class method
Ġan other
ĠH YP
Ġen v
stant s
Ġmultip le
parameter s
Ser ver
ĠHYP HEN
) '
H andle
g le
g ory
i v
de sc
ra ction
Ġb rowser
ĠM A
im um
Ġac cess
Ġhandle r
ĠDist ribution
package s
comple te
Ġdescrib ing
* -
R es
a w
t b
Ġf ont
te ll
Ġcon n
en v
Ġdi v
Ġsupp lied
host name
D ESC
H O
c d
d ump
st amp
Ġf ilter
Ġp ush
co gn
ly ing
Ġwh itespace
PO ST
Ġoper and
script s
speci al
RIP TION
DESC RIPTION
d uct
Ġp ers
ion s
Ġ- *-
ĠT O
ch ild
ĠP E
Ġ* <
dir name
ir d
Ġhe ight
ĠThe re
act ive
Ġsh ape
writ ten
6 0
a ctions
b dist
n y
r at
s ide
z y
Ġn et
Ġs p
ET H
ri de
IT E
mo te
Ġup dated
arch ive
Di ct
extension s
BU G
specifi c
( ('
A CK
F orm
d st
h er
t une
Ġi p
Ġin clu
Ġde te
ĠF ULL
ap i
pa yload
ho me
ne gative
atch er
Ġinter nal
Ġgener ator
sy mb
Ġtemp late
serve d
2 8
I UM
P ython
U ser
r al
se lect
Ġt b
nd array
Ġs he
Ġb it
et a
Ġwe re
01 7
Return s
stat s
Ġbuil t
pol y
du ce
Ġwrit ing
ĠMED IUM
S IL
u ted
al ias
Ġs ort
Ġde s
lo bj
ĠC F
ĠI nter
Ġ+ <
Ġopt im
AN C
cor ding
Ġper ceptron
DEF AULT
SIL ON
' "
2 6
L INE
b ab
e b
t xt
Ġ //
Ġ utils
Ġf alse
ur ing
ER S
um my
def ects
Ġle arning
Ġfilename s
Ġtrain ing
ore st
Ġent ries
Ġstd in
Ġus age
Ġattr s
Ġcli ent
8 9
C D
d r
u fe
Ġ ì
in st
Ġa v
ar ds
Ġs ig
Ġis n
res p
pre ssion
ĠM IME
Ġy our
Ġma chine
back ground
RO KE
Ġcol lections
St ring
Pro cess
ĠST ROKE
ĠStream Reader
) (
H el
R I
] ])<
a res
in te
er y
Ġc ap
me di
Ġf ill
Ġe qual
nd o
con tain
ĠM AC
ow er
Ġcall ing
Ġ'. '
################################ ################################
Ġelement s
hed ule
b ot
g o
i gen
w char
me tadata
it ies
la ng
ĠA l
Ġ1 000
Ġcon d
ĠP o
>> >>
Ġhe ap
vi ce
wa re
sing le
Ġsign al
4 8
N o
P Y
R L
U ID
f li
g ra
j ect
n frames
t f
de c
Ġ' *
Ġ' --
te m
con nect
res ize
pre cation
ĠThe se
Ġset attr
ES TION
Ġtest s
ca st
Ġtime s
us age
Ġlog ger
ĠQU ESTION
resh old
ANC EL
S ize
T k
b ow
g pu
Ġs a
ER R
__ __
ĠE n
ĠE ach
Ġse ek
ĠU se
Ġset up
04 5
image s
Ġsu ccess
FLAG S
dis play
pk g
LET E
E nd
i dent
se q
Ġ' ''
Ġre n
() '
() .__
Ġit self
ĠV isual
no minator
IS T
Ġ3 2
Ġpath name
im g
Ġla mbda
Ġpass word
pi x
Ġsh ow
dist utils
Ġexist ing
Ġrepresent ing
56 78
global s
S PACE
W ORD
Ð ¸
re gist
Ġa verage
ĠĠĠĠĠĠĠĠĠĠĠĠĠĠĠĠ ĠĠĠĠĠĠĠĠĠĠĠĠĠĠĠĠĠĠĠĠĠĠĠ
AT H
Ġ'\ \
ver s
Ġme ans
Ġtra ce
EN SE
St ate
99 99
Ġinstance s
ĠZ IP
eg asos
LIC ENSE
3 6
l t
m icro
o ci
p ad
s ite
x label
Ġt mp
Ġc ustom
Ġu ses
Ġcomp ress
cale r
Ġcompat ibility
rag ma
Des c
descri ption
precation Warning
9 5
C h
h ing
k nown
n b
s ample
u x
} ')<
le m
Ġd ry
ate ly
ul ong
(' %
Ġ< <
[' .
no red
Re gression
IP E
new s
Ġencoding s
encode d
be fore
uff ered
Ġstri ct
aris on
7 0
= -
M ATION
M ENT
S H
c mp
z one
Ġa u
Ġa bo
al k
Ġp ol
Ġo ur
-- <
IN F
ĠA S
25 0
Ġcomp ression
RO UP
date time
Ġrepresent ation
Ġmember s
Ġwrit ten
Ġreg ular
ĠEX CLA
cto ols
Ġabo ve
ĠEXCLA MATION
4 0
D ist
L og
Ġ utf
al low
ro ken
la ck
Ġde precated
un ique
def ined
con nection
Ġle s
Ġme mory
Ġal pha
ou se
Ġdo main
ĠĠĠĠĠĠĠĠĠĠĠĠĠĠĠĠĠĠĠĠĠĠĠĠĠĠĠĠĠĠĠĠ Ġ
rou te
Ġap pend
Ġmat ches
Ġthread s
extra ct
sa mp
Ġdocument ation
4 9
C F
V AR
t p
z eros
Ġp ut
Ġre ader
Ġde term
ĠC reate
ĠN e
ĠN UM
Ġcon trol
Ġfile obj
RE A
ĠDe f
Ġmo difi
Ġspecifi c
mlink s
Ġpad ding
4 5
C IAL
I nt
] *
c ancel
f old
u ce
Ġt z
Ġn n
Ġs imple
co in
lo sing
Ġsys config
da ys
LO C
Ġcl uster
BRE AK
onent s
ĠCh ar
B US
L ib
c lean
w here
Ġ join
re qui
Ġ' "
me d
Ġre cursive
ĠL inear
mp t
IN ESS
Ġst ill
Ġan not
pre v
Ġpro ces
Ġwe ight
Ġexp licit
Ġlocal s
pass word
Ġhtt p
Ġdirect ly
6 7
V EN
b ad
d rive
g ot
n on
s amples
ur s
it tle
IN K
AT URE
OR Y
pro to
red uce
Ġac cording
Ġap pe
Se lector
ulti byte
sq rt
Ġcorrespon ding
: ',
N E
P ipe
S O
T Y
a uthor
s cores
se n
re t
res ses
Ġread line
pi ck
Ġ4 2
Ġbase d
ĠSt andard
Ġallow ed
Ġsqu are
REA TER
3 5
B O
P ER
a len
c lf
c hed
i ris
lo y
pt ure
list dir
Ġse en
able d
Ġset ting
Ġpre sent
pos ix
Ġcol on
20 22
Ġextra ct
OF T
pol ation
Ġinst alled
disp atch
ĠMAC RON
BUS INESS
) "
) *
B ASE
d t
e e
g b
g it
h at
l in
l per
n i
s imple
Ġ }<
Ġ' $
Ġe st
Ġs imilar
ra vel
Ġb old
Ġd raw
ER O
ĠA ll
up lic
Ġor d
ĠP ar
to m
ol ute
op y
ĠU T
ĠG REATER
ne cted
rap per
CT YPE
Ġbound ary
Ġet c
Ġpers on
) ]
B ER
F ORM
K ey
m ary
o lean
t wo
y label
z ero
Ġ gen
in di
st yle
Ġ' +
ur ation
Ġb its
ĠS V
un ction
di v
fi ci
Ġon ce
Ġpre dict
Ġpa yload
Ġz info
Ġac cept
source s
Ġqu oted
do main
final ized
ĠStream Writer
ĠOther wise
samp width
. %
. )<
> %
O UT
b f
j a
Ġt ell
Ġt ail
Ġa uto
Ġe mit
Ġm ight
Ġ( (
Ġfor ce
ter s
Ġcon fusion
ase s
sh utdown
ĠRe ad
po ch
Ġcount er
SM TP
Ġremove d
Ġass ume
optim ize
Ġlang uage
Ġappro pri
: \
D is
D ados
E ND
N TP
P er
V alue
] +
` `
a ss
p ragma
in sert
Ġ' ;
Ġ' ?
Ġf it
un icode
ĠN aN
tra ct
sh ared
ub lic
so ft
Ġk th
jo b
ne ed
ĠRe gression
Ġtime delta
ST R
Ġsh ared
ĠTH E
ang le
++++ ++++
Ġdescript or
! <
4 7
C OD
W R
a it
f ram
g ate
h ist
t d
al ign
pe ns
ut ton
TER AL
IT IAL
is ing
is hed
Ġse conds
AR G
Ġun ique
mo vi
Ġnum eric
lock ed
Ġinput s
rap h
Ġ` `
Ġtuple s
kw ds
Ġover ride
Ġdecode d
idx s
Ġsequence s
Ġvar s
A SCII
N U
N aN
a ded
f b
q d
u lo
Å Ľ
Ð ¾
at al
Ġa void
Ġre ally
la nd
Ġm y
ad o
un i
is dir
ci a
Ġlo s
Ġ2 55
Ġcode response
col lections
ĠDe precationWarning
Ġne ver
act er
12 3
sub process
Ġexp onent
ĠIN ITIAL
cate n
================ ================
Ġrequi res
Ġoc cur
Ġsepar ator
Ġappe ar
) /
8 2
D A
H I
L S
S creen
T ext
e q
p p
s pawn
w ards
Ġ qui
me ta
Ġp k
di gits
Ġex pression
qu oted
Ġimport lib
ust ers
Ġpar sing
err no
ĠPO INTER
sv m
Ġround ing
Ġtake s
Ġprovide s
Ġinterpre ter
ĠDoc Test
e uc
i ces
o tes
s qu
re set
Ġc ate
Ġc ent
Ġe igen
ĠL ESS
Ġb lank
ce nter
un pack
ch ange
(" <
ĠR andom
ff ect
Ġun i
pa rent
ĠST OP
Ġmatch ing
Ġqu ote
wh ite
Ġindi c
Ġchunk s
peg asos
rp m
Option Error
3 7
= ['
C S
C OL
J E
c er
n ull
t rue
w arnings
} '
or k
Ġc ross
Ġin crement
Ġin cremental
Ġd b
ĠS OFT
Ġh igh
ĠF ILE
25 1
test s
so me
Ġpre cision
Ġl d
01 5
sign ature
stat us
Ġstat us
Ġexample s
Ġali as
PA SS
ĠIncremental Encoder
ĠIncremental Decoder
Ġrel ative
Parse Error
Ġappropri ate
4 4
A F
] ):<
i ew
o o
t z
Ġ que
se e
Ġa m
Ġp lot
Ġre f
ĠS RE
ĠS UB
__ ,<
Ġbe low
ĠP y
Ġse lect
Ġk nown
Ġframe s
Ġcom ment
mt p
Ġbo ol
Ġiss ue
contain s
fli ct
( %
- %
> ################################################################
S caler
c name
d c
e a
l s
t ml
de lete
he x
Ġc ert
Ġre mote
ro id
ut er
Ġis o
ĠC ol
ĠD o
il ities
ns ure
==== ==
IGN ORE
ĠĠĠĠĠĠĠĠĠĠĠĠĠĠĠĠĠĠĠĠĠĠĠĠĠĠĠĠĠĠĠĠ ĠĠĠĠ
Ġmessage s
qui re
qui va
Ġ| <
Ġstart ing
Ġinte g
Ġkw ds
Ġ'- '
bound ary
Iter ation
Ġdelim iter
" ])<
+ <
9 7
C C
M odel
P C
c ing
} ".
le nt
Ġre port
Ġd own
Ġ" \
ex act
Ġth ose
() [
ver bose
Ġh ap
um ber
ĠF raction
key words
mat ically
Ġspeci fy
app lication
PO S
Ġstate ment
ĠRE VER
Ġextension s
dete ction
ha vi
8 1
9 8
G ONE
P IPE
Y N
Y T
a z
r strip
t urtle
Ġ ...<
de red
ar ge
Ġre set
Ġo k
nd ar
ss lobj
ĠS o
Ġ( )<
ul ation
ĠA ss
Ġbe gin
el se
Ġ[ (
ĠP ER
ĠO GONE
Ġse ssion
ĠG ROUP
Ġch o
Ġ3 0
ĠĠĠĠĠĠĠĠĠĠĠĠĠĠĠĠĠĠĠĠĠĠĠĠĠĠĠĠĠĠĠĠ ĠĠĠĠĠ
com ment
ide o
Ġact ually
ĠCOM MA
nch annels
ERR OR
ĠStandard Scaler
ĠOGONE K
: .
: :
A ge
B ytesIO
N e
W rapper
b z
g z
v is
Å ¼
Ġ Ð
te ns
Ġp e
Ġp ack
ro y
Ġw ell
ut ion
ĠS IG
ĠD ATA
di mension
__ :<
ĠR ING
Ġraise s
ĠH e
ne ss
Ex it
Ġsy ntax
Ġab stract
sign al
sy nc
ĠCon tent
part ial
EL L
'' '<
Ġbo olean
Ġdiffe rence
Ġlook up
ĠArgument s
Ġevery thing
Ġenviron ment
alen coder
quiva lent
6 8
9 4
B utton
S ub
re mo
de cimal
Ġre pe
ur ro
ĠC ANCEL
IT ION
Ġbe havi
def ine
Ġle ading
sh ift
ĠG et
ĠH T
Ġr c
comp type
attr s
Ġfa iled
ĠZ ERO
final ize
Ġ"" <
Ġspace s
Ġpla ce
Gen erator
FORM AT
9 6
A G
C ommand
T ime
T hread
b all
b lack
f lush
i ke
i ent
m er
} ,
Ġt ag
le cted
Ġp atch
ĠL IG
Ġin place
Ġd t
Ġd rive
ĠA SCII
ke ns
ter n
LE CT
ol ve
ou nter
Ġr untime
unk nown
Ġiter ator
Ġthread ing
exp and
Ġrepresent s
Ġindi ces
Ġvalid ation
igh b
Ġplatform s
annot ation
Le vel
rat io
ĠLIG ATURE
( ['
= <
C RE
I s
O K
] '
c um
c ancelled
m ultip
se quence
Ġc lear
te red
Ġp h
Ġ( -
ma cros
Ġth ree
res ource
-------- -------
ĠU UID
Ġhe x
assert True
Ġwhe nce
po se
Ġuse ful
pi ckle
Ġcurrent ly
Ġopt s
decode d
sign ed
Ġsupport s
weight s
fici ent
ighb ors
8 3
C ount
P ATH
U D
V ENT
c at
c rc
e ature
j unk
k f
y c
Ġre view
Ġw r
lo st
Ġm ask
ĠS plit
as ync
ĠR aises
pre processing
que nt
In finity
Ġmo ve
Ġcre ating
UR N
IF F
fut ures
dire ctory
' {
: ])<
I f
S UP
U p
a ctor
b re
k ing
o res
w b
in ner
Ġt re
de nominator
Ġ' ='
Ġ' :'
Ġf allback
Ġn args
Ġde cimal
ue ue
Ġ( _
ĠN ULL
ch mod
(' <
Ġh i
Ġcon ver
con n
ĠP er
Ġ2 56
pend s
Ġpro per
AR TER
Ġget re
Ġl ater
Ġv ia
UT H
base s
us r
ib ly
US ER
gist ic
UN CTYPE
ĠQU ARTER
Ġexception s
Codec Info
mail box
Ġchange d
Ġposition al
Ġunder lying
Def ault
lap ped
SV C
week day
COM P
Ġdeta ils
. ')<
4 1
5 7
M ODE
M ultibyte
d at
m issing
s ns
de ta
Ġ' )<
Ġ' '.
Ġc lean
Ġp r
ge ntry
Ġ( ?
ĠA E
ĠF INAL
Ġraise it
Ġlo ss
Ġun less
IS K
Ġcomp arison
fa ctor
gener ator
IA N
ok up
run ning
cor outine
Ġtrans form
Ġpart ial
Ġpoint s
sup ported
Ġ'/ '
Ġfull name
ĠMe ssage
Ġau dio
Ġpk g
Ġincrement alencoder
Ġincremental decoder
Ġgetre gentry
) ).
7 2
= """
j or
k ind
m ath
s or
t ic
v ate
he ap
Ġ' @
Ġ' ('
Ġ' ),
Ġ' ''<
Ġc ancelled
ro ad
ĠA dd
get item
ON G
en g
Ġan gle
ĠM ake
able s
Ġpro ble
AR Y
Ġ{ !
size of
Ġcase s
Ġneed s
bin ary
Ġig nored
Ġabs olute
Ġregist ry
bl ue
Ġcond ition
6 3
P UT
\ .
Ð °
Ð µ
Ð ½
re port
on y
Ġb ar
Ġw riter
Ġd ump
ĠN EG
as ic
Ġcon stants
Ġg lobs
ĠV ari
Ġset s
Ġcomp are
max size
Ġany thing
SE LECT
Ġversion s
Ġiter ations
sy stem
win api
Ġfut ures
ĠVisual ising
road cast
a e
b old
b its
e mail
f mt
o mple
t ab
} /
in ation
Ġ' &
Ġs ample
fi df
ĠI DLE
ĠE IGHT
Ġpro bab
ĠĠĠĠĠĠĠĠĠĠĠĠĠĠĠĠĠĠĠĠĠĠĠĠĠĠĠĠĠĠĠĠ ĠĠĠĠĠĠ
ll ing
Ġchar s
long long
ep copy
Ġgener ic
Ġback ground
TH ON
ĠHE AD
wrap per
Header Defect
Ġwrap per
ermin al
ens or
writ ing
Pre p
colum n
Trans port
Ġexact ly
semb le
1234 5678
vers al
ĠSUB ST
D LL
N OT
S u
c wd
g ame
n se
t ion
Ä ĩ
re ceived
st ore
he me
Ġc t
ĠS hould
ĠS top
ĠS IX
li ve
ĠT ext
AT IVE
IT UTE
ĠN INE
ath er
ĠF IVE
ĠR ET
ol ution
Ġse nt
ta g
test func
Ġun icode
assert Is
Ġtest ing
cl us
RO M
ak ref
format s
ĠSE MIC
ĠSE VEN
group s
stat ic
SM S
can not
Ġmod name
Ġass oci
vari ance
ĠAPI s
Ġid x
Invalid Operation
regist ry
tens or
ĠSUBST ITUTE
clus ive
ĠSEMIC OLON
" .<
C ORD
D own
G REE
I d
S o
V ERT
[ ^
r v
t zinfo
se g
le g
Ġc map
al t
Ġs w
it ial
Ġb p
ge nd
Ġd uring
Ġnot hing
line ar
ĠB ACK
con v
to ols
Ġ< /
ĠO UT
ist ics
Ġl iteral
wa y
end ing
quest ion
ĠDE GREE
prefix len
local s
Ġblock s
Ġchange s
Ġindi cate
Ġbuf size
~~ ~~
ww w
Ġbuiltin s
8 22
A ction
G B
I V
L D
M ER
b lank
w er
y lib
Ã £
â Ģ
se lector
de lim
Ġ' ~
Ġre cor
Ġs core
Ġb ot
Ġd id
Ġm u
li ght
an te
ĠD i
ma c
as on
up per
ĠM apping
Ġy et
sc ale
ĠH el
Ġun pack
04 1
04 2
ak ing
ifi ed
ifi ers
Ġbut ton
app ly
Ġopen ed
ĠIN VERT
Pro tocol
Ġsign ature
Ġimage s
tri ple
bit coin
Ġman ifest
Ġwork s
mit ted
Ġtemp orary
block ing
ÄĻ d
Ġhtt ps
ĠINVERT ED
M odule
O US
W indows
m ime
s orted
u ndo
Ġ 64
>< /
in ux
Ġc te
al i
Ġp id
Ġre t
Ġs peed
ra di
00 01
Ġin her
ĠC opy
ĠN ame
il la
ĠA s
get attr
Ġ1 4
ĠM o
ĠM ID
Ġline ar
text s
ist ent
pro g
Ġk ernel
fig ure
OT A
Ġsh utdown
Ġformat ter
Ġbreak point
sy mlinks
color s
Ġerr no
Ġbyte array
compress or
Ġbet ter
LI B
Ar gument
Ġim g
Ġremain der
loy ment
ĠREVER SE
ĠPER CENT
remo vals
) ])<
, )<
E vent
] ).
m i
al pr
Ġf name
Ġf mt
Ġs ite
Ġs ide
00 03
lo gs
ĠS ystem
Ġ( %
Ġdef ine
th is
Ġco pi
ĠA MP
Ġh tml
ON LY
Ġlo c
Ġline sep
Ġma int
Ġhe lper
Ġpre d
Ġfun ctools
comp are
pla ined
gener ate
Ġcount s
02 4
Ġpoint er
Ġwrap ped
Ġim medi
Ġhand ling
//////// ////////
PRE SS
ĠUN IT
Ã£ o
ĠMID DLE
4 6
5 9
> \
> )<
S imple
_ (
c li
c losing
y g
Ġ vector
st it
Ġa ge
Ġ' |
Ġ' ',
Ġp at
Ġp wd
Ġre gex
Ġe quivalent
la sh
Ġw arn
ĠC OLON
ĠC ounter
ĠĠĠĠĠĠĠĠĠĠĠĠĠĠĠĠ ĠĠĠĠĠĠĠĠĠĠĠĠĠĠĠĠĠĠĠĠĠĠĠĠ
AT EG
__ ":<
() ))<
Ġhe ad
ms vc
RO P
ĠDe coding
Ġne uron
Ġadd itional
ial og
Ex ec
Ġsy mb
Ġpi ck
com mon
Ġsome thing
Ġbin ascii
tar info
VER SION
Ġconfig uration
cf g
full name
Ġren der
ĠNUM BER
indi ces
ĠRET URN
Ġassoci ated
) \
C A
E ntry
P over
T rain
Z ip
i mat
o red
p ly
w arning
Ġf amily
ar ted
Ġo w
Ġe ar
Ġs i
ĠL INK
Ġin sert
Ġd ouble
ĠC ommand
TER ISK
ĠA POST
ser ving
gs ize
Ġcon version
id den
Ġle ss
Ġme tadata
ĠDO LL
qual name
cal led
num erator
Ġsh util
log o
point er
Ġiter able
ĠAB C
ĠRE CORD
Header ParseError
MP TY
stant i
pk l
ĠCOM MER
Ġsqu ares
Ġfix ed
ĠOR D
ĠEQUAL S
Ġshe ll
ERS AND
Ġ'* '
ĠAS TERISK
fram erate
qd m
ĠBACK SPACE
ĠAMP ERSAND
ROP HE
Pover ty
ĠAPOST ROPHE
ĠDOLL AR
ĠCOMMER CIAL
5 1
7 6
7 9
C annot
D ir
M ETH
R un
R IA
Z A
b p
c u
g ree
at s
at om
Ġf rozen
Ġde c
Ġde coder
Ġde lay
ut able
ĠS YN
un ix
Ġst arts
Ġex ecut
Ġex tended
#### ##
(" \
ĠB ELL
Ġar cname
att ing
iter ator
QU IR
') ))<
([ -
Ġmax imum
Ġbase s
nc y
ĠDE LETE
com mit
Ġcompile d
Ġmake s
Ġtar file
abs path
Ġver y
CH RON
man ifest
ĠCAR RIA
ĠEN QUIR
inte ger
RL F
STR ING
ĠNEG ATIVE
ĠHEAD ING
ĠSYN CHRON
ĠCARRIA GE
ĠENQUIR Y
ĠSYNCHRON OUS
3 8
5 4
A W
A UTH
E M
S h
i k
n args
s in
u tes
v ision
ì Ĺ
Ġ $
Ġb g
lo or
ĠN NTP
ĠA ddress
ma y
Ġst ore
__ ':<
Ġcon nect
ĠR aise
qu it
pre ss
ĠO ver
Ġwh o
Ġr ate
Ġlist s
bo ol
Ġ| =
cor o
AD ER
Ġgener ate
Ġdel ta
Ġoper ations
event s
ĠAn y
ĠPre dict
Ġob s
ĠTurtle Screen
ĠEn coding
Ġ'+ '
job lib
Ġimmedi ately
ATEG ORY
) '<
3 9
5 00
C O
E H
I M
I mp
W rite
_ <
d raw
g re
y te
y ntax
re main
Ġt a
Ġt urn
de script
ar r
Ġp en
Ġre ason
ra ceback
lo ader
ue ss
IN D
Ġreturn ing
ĠD on
Ġco ding
Ġ1 1
ĠI D
ĠM SVC
ule s
py c
so on
Ġl ittle
Ġstr ucture
ste ms
') :
ĠIn valid
Ġfa ctory
Ġdoc string
Ġper form
-------------------------------- --------------------------------
predi ction
Un less
Ġinitial ize
Ġali gn
ĠPO INT
return code
ĠAL EF
ĠDef ault
POS ITION
2 00
6 2
: ],
> "
B AL
D oc
O pen
b r
d ry
g ic
m iss
z ie
Ġ ë
se par
in tent
de nce
Ġ' !
Ġ' ^
Ġp ur
Ġp ublic
Ġe nsure
ĠL ib
nt ic
ĠS ub
un ame
ĠM at
ĠM ac
Ġne ural
DE BUG
Ġcal cul
LO BAL
net G
ĠIN DIC
ng ram
Ġgroup s
Data Frame
ag ged
skip Unless
19 2
Ġ"" )<
Ġcons ide
send file
Ġregist ered
ĠPE P
Ġauto matically
ĠORD INAL
ĠINDIC ATOR
) ")<
7 4
M ARK
O bject
R C
S D
T raining
T erminal
[ ['
_ {
d temp
e ver
m un
or mp
le s
le gend
Ġ' ['
te t
Ġs m
Ġ- ----------------
Ġb ad
la vo
Ġde cl
ĠT able
un ded
di stance
ch r
__ ()<
is file
ĠF uture
Ġas yn
ĠR O
os ition
Ġg re
read ing
25 2
ic ular
ĠG NU
ac cess
IS ION
Ġv is
cl uster
map ping
model s
Ġfa ke
IO Base
Ġdir s
Ġfollow ed
abc def
Ġcomple x
Ġ'_ '
Ġinstall ation
member s
su ffix
Ġda ys
Ġinteg ers
ĠSIG MA
ĠHT ML
--------------- <
Ġ'@ '
" ].
: %
D ialog
M T
a verage
b stract
l r
l atform
s w
Ġt imer
le arning
Ġ' ')<
AL E
Ġ_ ,
int o
AP P
ĠO r
Ġwith in
est ed
read able
Ġpro g
ho ur
Ġout er
Ġread able
Ġat temp
Ġsource s
log ical
Ġdoc test
ies i
ĠIN T
Ġspecifi es
PE ND
Ġ'% '
ast ype
Ġpart icular
Ġca pture
Lo op
pri ce
fs path
PRO TO
Ġindic ating
' ll
F IG
L T
M M
S HA
a ving
f rozen
k ip
m ult
s urro
Ġ ~
re view
Ġt er
Ġt ab
Ġa round
Ġc p
Ġp layer
Ġn l
Ġe val
ra se
Ġb ig
la sk
li sh
ĠN ow
get text
Ġth ing
Ġth ough
ĠI O
ĠI OTA
Ġh ist
Ġh ard
ter nal
ment ation
ation al
Ġ[ ('
ow ner
and roid
pro c
ĠRe g
ken List
ent ry
df lags
net mask
IA S
Ġsy m
lay ers
Ġvari ous
Ġent ire
AB C
Ġhost name
Me thod
vari ant
PA CK
ĠData Frame
Ġexec uted
Inter nal
Ġdiv mod
caten ate
Ġconver ted
So cket
IV ISION
lavo ur
> .
B lock
C ESS
E num
F I
I K
N C
N L
S U
a ce
l iteral
m ro
m time
Ġ util
Ġa ut
he ntic
it an
Ġ" /
Ġfor ward
ma int
Ġst uff
ĠR un
Ġar bit
con s
ou sing
25 3
Ġwh y
Ġl arge
Ġ{ "
Ġ{ :.
Ġadd resses
Ġsub classes
mb ed
count s
ĠUP SILON
UN K
names pace
Ġcom ments
Ġstat ic
rid den
Ġpy game
cp p
Ġass ign
ful ly
content s
Ġdescription s
>""" #
cogn ition
symb ol
ĠCF WS
Ġsa fe
Dist utils
Ġ'? '
descript or
5 3
F or
F ont
M apping
P M
f ound
m ar
p ure
} ")<
Ġ ut
co s
Ġw indow
ĠS up
ĠC al
ĠC ATEGORY
an ted
ĠD IVISION
ĠF ind
ĠB uffered
ĠP IL
Ġlo ader
Ġdata base
Ġres ource
Ġen ough
ir c
Ġun a
000 2
ĠSt ack
Ġsy stems
Ġcor o
Ġoper ator
Ġallow s
Ġbuffer ing
FF FF
ĠNOT E
mk dtemp
CE P
MAP P
post args
Ġpri or
Ġlow er
orig in
Po ol
Ġ-*- <
Ġinclu ding
Ġ'\\ '
Lib rary
Ġ'; '
METH OD
Ġconside red
> -
M eta
b rowser
c r
i mal
t as
t ps
st andard
Ġ' >'
al le
Ġo wn
ur rent
Ġe ffect
Ġde le
Ġm bc
th reshold
ma nt
(' >
ver sed
file list
con nected
path name
IC ODE
sh a
so le
assert In
[: ]<
cal ler
ST ATE
Ġformat ted
for med
99 9
cor ator
method s
cond ition
vari ate
ĠPO UND
ĠLo gistic
Ġoc curs
ĠEOF Error
Ġ'# '
Ġagain st
Ġ'$ '
itial ize
ĠCopy right
illa ge
( ',
( ("
5 2
C Compiler
D F
L ine
L oc
M o
P open
S ER
c ert
e lif
e lement
g lobs
m m
p ower
v id
w hen
in verse
Ġt zinfo
he st
Ġc c
Ġc type
Ġp p
Ġp ending
ra ce
Ġb ias
ĠC Compiler
Ġdef init
Ġex ecutor
ĠP HI
ĠE P
Ġme di
AR P
ac cept
no m
Ġpre ce
Ġcan vas
22 1
for ward
Ġpredi cted
Ġiter ation
cate gory
wrap ped
pol l
Set up
ĠComp ile
Ġopcode s
Res ult
User s
uni form
ormp ath
itan ic
) ),<
> '<
A dd
A ttributeError
F orest
G A
N N
O ne
T e
V AL
Z MA
b ile
f g
} .
Ñ Ĥ
Ġ ve
Ġ' '
Ġe ig
Ġs q
Ġde lete
ĠS peci
li text
ĠT ar
Ġ" '
ĠD IAL
name d
Ġst yle
ke up
con st
to y
RE NC
data base
ĠM odule
Ġon error
Ġpro ject
ub class
pen dent
Ġcomp ressed
Ġbu ff
Ġread y
Con tent
sub class
call s
end ian
are st
PO INTER
Ġho me
Ġ', '
Ġnamed tuple
KEY WORD
Ġcons ume
Ġmark object
ĠCUR RENC
exec ute
chunk s
Ġreference s
**************** ****************
fin ished
Ġcaller s
Ġdete ct
symb ols
ĠChar acter
YT IK
multip art
SUP PORT
ĠStop Iteration
Ġ'~ '
Ġow ner
ĠDIAL YTIK
ĠCURRENC Y
ĠDIALYTIK A
) -
* (
6 9
A c
B u
C an
E mp
P HA
h ave
i ving
t re
Ġ ?
de pth
Ġ' ]'
Ġc enter
me mo
me ans
Ġre cent
Ġre ceived
Ġe ta
Ġs imp
ĠL abel
it able
00 04
Ġd uplic
an e
ch ain
__ '
is in
Ġex port
Ġdi mension
con to
RE D
Ġal tern
ive n
Ġma c
Ġma cros
OR S
Ġen c
In dex
=' ',
ne uron
sub type
Ġrun s
Ġstream reader
Ġstream writer
Ġover ridden
Ġact ive
pipe line
Ġlong er
=[ ],<
ru pt
task s
ĠUT F
) ."""<
) "<
A U
A GE
I mage
` '
e qual
f ds
p d
t itanic
re q
Ġt t
Ġc b
Ġc are
Ġin stanti
Ġ" _
di fy
ul ate
Ġst ored
__ ()
line sep
ĠP egasos
RA M
Ġme trics
Ġg u
ĠU ser
25 00
ĠV alue
Ġpre v
Ġun known
mo id
ne g
Ġsub type
001 0
atter ns
ĠSt ring
Ġ'< '
Ġbuil ding
Ġdebug ging
argument s
LET ED
Ġmean ing
ĠMA X
INF O
Ġ'" '
Ġprobab ly
seg mentation
Ġta ken
---------------------------------------------------------------- ---------------<
Ġ'^ '
Ġarbit rary
ĠEP SILON
5 8
7 1
L ike
s g
t ual
u do
x lim
} '.
se udo
on gest
ĠL e
ce ed
ro me
Ġm k
Ġm ulti
ĠS ome
Ġ" '"
IT Y
fi gsize
ĠF irst
ĠB E
ĠP Y
qu ant
IC RO
ĠM ICRO
Ġline cache
Ġma de
ic a
Ġpro file
sc hedule
Ġv ideo
Ġcomp ute
ht tps
Ġ: -
Ġmo vi
ĠIn put
Con vert
ĠY our
ĠSE CTION
Ġsc hedule
Ġval ores
sys config
Ġho ur
Data Prep
EL D
buf size
thread ing
Ġwait ing
au ss
LIC ATION
Ġcompat ible
Ġurl lib
Ġiss ubclass
waiter s
Ġ--------------------------------- ----------------
Ġhap pen
UD IO
Ġ'& '
POSITION AL
Ġ'! '
conto ur
C OR
P latform
R andom
S end
_ )<
a j
e ff
e ig
f allback
k ernel
p ted
u ous
y lim
Ã §
Ġa ctions
Ġi l
Ġ' }'
Ġf i
Ġre verse
Ġo v
Ġe s
Ġs mal
ĠL AM
ra c
ro py
Ġw anted
di gest
Ġ""" ),<
ĠI E
en um
ff set
et ch
RE AM
ĠO ME
est imat
and o
Ġ2 4
ta ined
Ġres ume
Ġpro mpt
Ġcomp onents
Ġcur r
ST REAM
000 9
row s
Ġper cent
user name
ref s
wh itespace
sp litext
vide s
predi cted
ĠSH ARP
Ġsave d
come Poverty
dete ctions
dest roy
ĠAL PHA
Ġremain ing
just ed
Ġoptim ize
requi res
ret ch
ja va
land mark
dered Dict
ĠHe ader
deta ils
undo buffer
Ġ'| '
Imp uter
ĠOME GA
7 3
C alled
E VENT
M ode
T X
Z IP
\ <
e val
f amily
g t
g id
l u
m ust
n ans
p ct
s d
x z
z e
er as
Ġ' )'
Ġ' `'
al pha
Ġf g
Ġre served
Ġe d
ing e
Ġin v
Ġw arning
ri al
Ġco st
__ ",
Ġth reshold
ĠB y
ĠB AR
con catenate
-------- ----
25 10
25 02
25 14
25 34
25 18
25 24
Ġpro c
Re move
Ġr ules
Ġtra ined
Ġresult ing
Ġk lass
01 2
Ġ3 1
([ "
001 7
000 5
ĠIn dex
ix ed
007 3
007 6
004 4
004 7
005 2
006 3
sub mit
002 0
002 1
002 4
Ġfa ils
Ġ5 0
Ġuser name
Ġback ward
tar ball
Ġcomple ted
LI TERAL
Ġapp ly
yn am
rel ative
initial ize
ord in
Ġ'{ '
Ġpair s
jp g
Ġweight s
ĠRandom Forest
>"""# "<
' }<
0 64
F rom
I mport
N umber
S P
S ame
T R
U ST
i li
j et
l dflags
r x
s he
x ff
Ġt qdm
de epcopy
Ġi de
Ġf all
te ts
Ġw on
Ġd rv
Ġm icro
Ġm ouse
ĠT ime
di a
di ctionary
Ġco mb
Ġex pect
Ġbe come
Ġcon flict
um b
ĠW in
en coder
ĠB IN
Ġ[ -
Ġle g
ĠO P
ĠM y
ĠU p
25 92
Ġget context
pro ces
Ġx c
print able
ĠĠĠĠĠĠĠĠĠĠĠĠĠĠĠĠĠĠĠĠĠĠĠĠĠĠĠĠĠĠĠĠ ĠĠĠĠĠĠĠĠĠĠĠ
HA VE
001 3
001 4
000 7
000 8
split lines
007 0
007 1
004 0
004 8
005 4
005 5
005 8
003 5
003 6
009 6
006 0
006 1
006 5
006 9
008 2
Ġoutput s
Ġcl usters
ĠUP PER
File Error
user base
Ġad ds
Ġprocess ing
Ġans wer
Ġinclude s
Ġmark er
Invalid HeaderDefect
drop out
Form atter
____ ____
Ġproces ses
Ð¾ Ð
Ġqui et
Ġcate gory
Ġeigen vectors
mun ic
review s
nom ial
jet ado
" ).
/ <
2 001
4 00
A n
C V
D IR
K EN
S F
c ar
d ylib
e mon
e lem
g y
l uster
p ng
{ :
Ġt ries
me sh
al ler
al og
te ction
Ġs pawn
00 25
00 64
00 22
Ġm ime
ĠC DLL
un ct
ine l
up ported
() )
() ):<
ĠI MAP
Ġ[ ]
con tin
to k
Ġlo cation
ry pt
Ġse g
ist ic
Ġget opt
Ġpre serve
Ġr ather
iter ations
comp ression
unt agged
01 0
In put
pi log
001 1
001 2
001 5
001 6
001 8
001 9
000 6
Ġpl us
Con v
007 2
007 4
007 5
007 7
007 8
007 9
004 1
004 2
004 3
004 5
004 6
004 9
005 0
005 1
005 3
005 6
005 7
005 9
003 0
003 1
003 2
003 3
003 4
003 7
003 8
003 9
009 0
009 1
009 2
009 5
009 7
009 8
009 9
006 2
006 6
006 7
006 8
008 6
008 8
008 9
002 3
002 6
002 7
002 8
002 9
las hes
Ġfol der
En code
Ġimplement ations
ript or
Lo ck
cf ws
ĠOn ly
pick ling
COMP LETED
Exec Error
remain der
contour f
mesh grid
, '
, -
: ")<
D I
F in
M AC
P L
b ind
c ustom
d array
e ve
i der
o live
Ñ Ģ
re cv
Ġ' :
Ġ' {}
Ġc lock
Ġf old
Ġn darray
Ġe poch
ra ys
00 85
Ġb z
Ġb roken
Ġde rive
ri ct
get opt
ex clude
># -------------------------------------------------------------------------------<
gs u
Ġcon t
ĠF IPS
Ġ[ ])<
to ff
ci o
path sep
text var
25 80
25 88
25 84
Ġpro duct
ĠH andle
Ġget s
Ġclass name
comp ressed
Ġpar sed
Ġpa x
pla in
pen ded
arg in
ator y
wa nt
lic z
bo lic
fa ces
Ġz lib
009 3
009 4
008 0
008 1
008 3
008 4
008 7
20 23
255 0
255 1
255 4
255 7
Ex ecutor
fore st
256 0
256 3
256 6
256 9
Ġsc heme
Ġpredi cate
ĠCon vert
Ġsocket s
Ġblock size
make file
callback s
block s
ĠSH ORT
head ing
normal ize
ĠLOW ER
Ġweek day
Tk Default
micro seconds
Desc riptor
Int Var
Ġgen codec
Ġwr ong
ĠVari able
ĠPredict ing
Ġsm all
iesi ac
Platform Error
TX T
TkDefault Font
( __
) ',
) ",
N ULL
O ver
T ensor
W ait
d ar
f ficient
l g
o ked
t n
} '<
Ġ ur
in ted
Ġre du
Ġe mbed
li te
Ġreturn code
ĠĠĠĠĠĠĠĠĠĠĠĠĠĠĠĠ ĠĠĠĠĠĠĠĠĠĠĠĠĠĠĠĠĠĠĠĠĠĠĠĠĠĠ
di m
__ '):<
set item
Ġcon v
ĠB e
ĠP OS
ci es
pre args
pre ds
ĠM ail
Ġpre vent
Re g
cur dir
col on
iter able
comp at
str ucture
03 3
Ġla s
if c
option al
wa keup
') ]<
Ġj son
trans late
Ġup per
ĠY ou
AC CESS
count er
UN ICODE
UP LE
iss ue
AB LE
Ġfinal ize
ĠLo ad
fer red
Ġimp orted
optim izer
Ġinclu ded
Ġdeterm ine
WR ITE
surro gate
FI ELD
- <
: /
= ""
C ODE
E K
F ound
F uture
P h
T otal
[ _
f r
g cc
l strip
n ap
n ormpath
p m
r ation
t ies
x ml
le x
Ġn s
Ġe lem
Ġin ner
Ġm ut
ĠS yntax
Ġdef ect
an cy
ve cs
il t
ch dir
() ]).
Ġh ad
ter min
ĠF unction
ĠF ROM
ĠR es
Ġg lob
ĠM ap
Ġma gic
25 91
lib c
Ġres pect
sh ot
Ġen coder
Ġarg parse
att ribute
cur frame
=' '):<
Ġkey words
Ġcur ses
') )(
Ġ4 0
new line
of t
lim its
Ġtoken ize
Pro xy
vars all
Ġlink er
can vas
ĠDistutils ExecError
Ġrequi re
Ġposs ibly
ULT IP
Ġapp lication
Ġnetwork s
Ġav g
Desc ri
Ġmemory view
COD ING
movi es
Ġbehavi or
AG ES
ĠSplit ting
Ġmu ch
ĠHel per
Ġsi ÄĻ
> [
A ll
B uffered
C omple
S ystem
U E
W ork
c riter
p an
r m
r fc
w indow
Ã ¡
se en
le v
Ġre com
Ġin vo
Ġw alk
ĠC ENT
ĠT ype
ri ce
ĠD is
Ġ1 7
ser vice
rom an
ect or
ĠE num
ig hest
ĠO pen
Ġ2 00
Ġy iel
ta ct
ĠH A
ĠH ow
Ġv iew
Ġbu g
pos it
Ġpass ing
ĠEx tension
Ġformat s
Ġdis abled
Ġad ding
Ġallow ance
ax is
Ġca u
Ġinitial ized
inter nal
(? :
.* )
Ġpla in
filter s
bot tom
ĠAl so
Ġuni versal
Ġcert file
Ġindicate s
separ ator
alle l
Ã§ Ã£o
ynam ic
oft ware
) """<
C al
E IGHT
E ye
G LOBAL
M ix
P H
P rint
f ine
g i
j is
p ca
t abs
w indows
w alk
z ien
se ssion
re c
re cursive
de s
Ġn om
la w
pe er
Ġde pth
lo aded
ĠS O
ĠC O
ĠT hread
ve s
ĠD EF
line len
># ----------------
Ġth ings
() ]<
ver al
ĠB ytesIO
and id
Ġma king
sc a
######## ######
per son
fe ren
Ġun signed
pa used
ht tp
=' \
Ġkey file
obj id
frame work
Ġcheck ing
sub plot
net D
run cate
round ing
cor rect
Data set
Ġstat istics
Ġkw only
ĠDistutils PlatformError
man ager
mk dir
Ġro ut
Ã³ n
duce d
Ġexplicit ly
COD ES
movi e
squ are
Ġdid n
Event Loop
may be
miss ion
ĠLogistic Regression
posit ory
L U
Q ueue
T IME
W A
] ]<
f ree
g ral
i er
o st
r f
s ame
x ab
se quent
in f
re gex
at in
de comp
st rap
al a
Ġf s
ĠL I
ss ue
Ġde pends
lo cation
Ġm id
ĠS imple
li es
li tem
ot strap
ĠT rain
Ġto k
ex plained
Ġ1 9
Ġh inge
ab ort
ĠR aw
Ġfile no
ĠB RO
and ir
Ġ2 5
Ġwh ose
Ġcode s
Ġnew er
Ġcan on
Ġtime zone
fa il
ib m
YR IGHT
Ġpl at
Ġcheck ed
Ġmax size
Ġsy mlink
ake s
ĠIN F
Ġstack level
IO Error
mod name
Ġprefix len
ron ous
Ġtarget path
Ġraw data
Ġapp lic
lat ten
Ġchild ren
ĠPro cess
Ser ies
Ġgo od
semb ly
Not Found
Handle r
Ġdeterm ined
ĠNe ed
ĠLinear Regression
sequence s
Ġsym bolic
hentic ation
Setup Error
structure d
% (
' ve
( \
) ;
L ONG
M AN
O r
T LS
n umpy
p at
y ld
| \
} :
Ġt e
Ġt une
on al
or ing
le ph
Ġc er
Ġf ig
Ġf our
te ms
Ġre cogn
Ġe m
ing IOError
Ġb ra
lo okup
ĠS te
Ġ( ),
ĠC an
ĠC OP
ĠC urrent
ĠĠĠĠĠĠĠĠĠĠĠĠĠĠĠĠ ĠĠĠĠĠĠĠĠĠĠĠĠĠĠĠĠĠĠĠĠĠĠĠĠĠ
ĠT raceback
un supported
ĠN ew
__ ))<
get value
ĠF eature
Ġma jor
ta ch
': '
mo c
Ġpar a
time stamp
arg max
ĠDe cision
Ġcur sor
Ġmax len
emp loyment
Test s
PE AT
tuple s
raw q
IF I
Ġimplement s
output s
Ġact iv
predi ctor
prec ision
Ġrow s
Pre di
seek able
ancelled Error
icro soft
Ġdest ination
fin ite
cho ices
BIN ARY
child ren
ĠCF UNCTYPE
RI B
Ġmodifi ed
ĠSV M
ĠAss ume
Time s
cli ck
caller s
illage Level
Te leph
isin finity
landmark s
unct uation
nap shot
Teleph ony
: ]:<
A sync
B ytes
C allback
D ATA
F unction
L IST
M ap
O bj
e poch
i ment
k u
p print
s lash
t od
t ty
z h
in o
al id
Ġp ure
Ġn ull
ct al
Ġm ar
Ġm is
IN ST
ĠT hat
ri er
Ġto kens
di rect
ĠN umpy
as h
set state
get cwd
Ġ1 3
ĠW ith
(" '
ĠB u
RE F
Ġg c
Ġse veral
'] )
Ġpro du
Ġhe ading
comp onents
In stance
im ate
im show
Ġla y
Ġadd ition
ifi cate
filename s
22 61
clu ding
Ġexp an
ĠZ ip
UN I
ĠDE BUG
LA CK
Ġ6 0
wh ile
Ġman ager
Par ameter
ĠDistutils OptionError
curs or
Ġwrit able
dataset s
Ġcorrect ly
Ġmultip art
Ġhand led
To kenList
Ġstrip ped
flow Error
Ġproces sed
hist ory
ARG ET
change d
Ġbegin ning
pure lib
ĠPOS IX
ĠBRO KEN
" {
L C
_ '
c ard
d on
i ally
z ma
Ģ ì
Ġ# #
te nce
Ġn a
Ġe as
Ġs re
ct x
lo s
Ġd ummy
ile nt
ot o
ad a
un defined
Ġ" --
ĠD ARK
ĠA nd
Ġex e
fi c
ĠI s
ĠI ssue
Ġcon st
um n
code s
Ġdi gest
Ġdi git
Ġar rays
Ġle x
to c
Ġvalue d
Ġg uess
Ġma cro
25 93
out er
ĠH AM
mo ving
Ġpo st
=" %
qui red
Ġgive s
Ġcheck s
Ġmsg id
Ġbase name
Ġcontain er
Ġfin ish
Ġdir name
Ġsign ed
mod ity
xf c
OS X
cc ion
Ġlink s
can v
fol low
Un ix
folder s
Ġty ping
Ġmap s
Ġsepar ate
tmp dir
Gen eric
('. ')<
Ġfail ure
builtin s
cul ate
Ġtask s
Ġoptim ization
Hel p
++++++++ ++++++++
raph ics
Count y
Ġproble m
SELECT ED
PROTO COL
METHOD S
Ġmedi an
ĠLabel Encoder
ĠIndex Error
ĠLI TERAL
ĠCOP YRIGHT
ĠHAM ZA
. ",
3 00
> }<
B IT
C losed
C ancel
F old
G u
N UM
T urtle
` .<
f alse
f time
f lavour
l n
p write
t imer
t fidf
Ġ li
Ġ ])<
Ġ 99
in s
re name
re verse
de pendent
Ġ' (
Ġn t
Ġn ested
ct ure
ot ing
ma cro
(' _
() ."""<
Ġra ce
Ġh aving
Ġdi m
ĠB ULL
Ġg zip
ĠM ay
ĠM ULTIP
Ġen able
Ġl r
pa re
col lect
pen color
str ong
RO W
option flags
min ute
Ġj unk
input s
Ġno te
Ġend s
LO W
Ġdis k
com ing
ĠSe quence
ay es
ĠJ an
Ġwork ing
Ġtop most
CH AR
Ġlib c
ose n
Ġvar args
Ġins ide
over lapped
Ġmeta var
case d
av g
CON FIG
Ġnet mask
Form at
bot net
ulong long
VAR S
requi red
Ġannot ation
JE CT
Ġcho ice
Su ite
Ġrecor d
Ġbot tom
Zip File
PACK AGES
Ġsimp ly
auss ian
dar win
surrogate escape
NotFound Error
ĠBULL ET
! !
" '
C luster
G R
G ER
G roup
I tem
L AN
M S
O O
S ome
a uto
c z
c te
i red
u uid
x ad
y ield
Ñ ģ
Ñ ı
ì Ŀ
ĉ ĉ
Ġ ke
st mt
le t
Ġf oo
te am
Ġp ower
Ġo l
Ġo mitted
Ġd rop
IN DIC
ĠS ince
li de
Ġdef ects
one s
ĠT ry
AT TER
Ġ" (
Ġco ordin
ĠA IFF
is Train
set attr
up ted
int s
to kens
LE ADER
ol y
Ġse lected
'] ,<
'] ]<
ac quire
Ġtry ing
cur sion
mo bile
cre ated
Ġtime stamp
Ġsub pattern
bo ard
fun cs
mb c
Ġfiles ystem
Ġtrans l
Ġiter tools
Ġnext char
IF EST
Ġhandle s
byte code
xf b
Ġblock ing
ĠRE G
Ġali ases
Ġsum mary
ĠPre di
plat lib
cap s
ien ce
dire ctories
break s
({ <
Ġfilter s
ĠUT C
Ġear ly
sw ig
sole tes
ĠCompile Error
ĠPY THON
ĠInput s
licz ba
Reg ressor
fine Size
Telephony Manager
ĠMULTIP LICATION
* ',
C re
C ALL
C ROW
D IGIT
E st
E nter
G ET
N orm
S I
T ree
U t
V iew
[ ,
] :
c ri
e to
n op
x r
{ !
Ġ joblib
in ary
in ery
or n
er a
Ġ' ':<
al ive
Ġf ree
ar ily
Ġp list
Ġp age
Ġp seudo
Ġs ns
Ġif f
la mp
co ffset
ut c
ĠS ign
li er
ĠC or
AT T
ve lo
ĠA d
ĠA p
ĠA UDIO
Ġst arted
ch own
ch inery
(' --
Ġcon nected
ab ilities
ĠF ound
ĠB LACK
ap s
Ġle ave
Ġ% (
RE PEAT
Ġg ra
Ġg pu
Ġg iving
25 8
Ġres olve
ub yte
Ġch ain
pro p
pro ject
IL D
fe ed
Ġun changed
Ġv ale
Ġlist a
cre te
EN CODING
Ġout side
St art
ĠEx tract
Ġms vc
IR ST
Ġexp and
we akref
Ġab le
UN C
encoding s
ng f
xb b
Context Manager
15 0
og ram
tar file
reg ressor
AM MA
Ġca use
Ġmod ulo
Ġzip file
rel ated
ĠMe thod
difi ed
dev null
HO ME
ĠInter nal
nframes written
micro second
Ġcompress level
allow ed
Ġcate gor
COL OR
Ġam ount
Ġwho le
IND OW
Ġgre ater
ĠINT EG
SU FF
ĠRun s
ĠPIL CROW
Ġdele ted
Ac curacy
Ġderive d
! ")<
' m
' }
+ ',
. '<
6 00
A l
A nd
A li
C ent
C Data
C ASE
F eature
K RA
M ore
V ector
W INDOW
_ *
_ ,
b ird
c read
d ni
e ÅĽ
h ard
} _{
Ġt r
Ġ= >
ar ante
Ġp atterns
Ġp gsu
Ġthe tas
Ġre ache
Ġe g
Ġs lice
it ch
Ġb dist
Ġb ag
ce l
ro s
Ġde pending
Ġde corator
ge ther
Ġm m
Ġm ult
IN IAN
Ġto y
Ġto gether
Ġco me
Ġco ur
ĠA R
ĠA li
get state
ex ample
ex ternal
Ġ1 024
() :
fi dence
ab ility
ĠF ala
Ġas cii
ĠR o
ĠB RE
ĠP I
ĠP ath
ĠP os
ns upported
Ġle ader
RE CT
Ġlo aded
class ifiers
data class
ĠO ne
ĠM aking
age ment
Ġ2 822
ĠG rid
Ġch annels
Ġr v
Ġdo ing
Ġv illageLevel
time zone
ne ighbors
ĠRe move
Ġout file
04 0
RO UND
HA ND
map ho
') ):<
new lines
check Closed
Ġcre ation
Ġrun ner
Ġframe work
xB B
Ġtrans p
]) ))<
ĠTH ETA
Ġvari ance
Ġdataset s
ph ase
OS Error
zip file
vide o
ĠQ u
--- <
Ar ch
Ġpla ces
Ġreplace d
su ite
Ġtermin al
pair s
NO WN
ĠGen erate
ĠGen erator
ĠGen eric
Ġselector s
Hel lo
ĠPo int
Ġannot ations
SO CK
ĠPar ameter
Age s
Ġrepe at
Ġpr inted
Ġcopi ed
Ġsymb ols
cu da
Ġexecut ion
ĠOr deredDict
Ġnl tk
Ġsq lite
andid ate
SUFF IX
KRA INIAN
" ><
" >%
, "
C om
E C
E MPTY
N G
N ET
P lease
P ass
S um
T ARGET
] .<
c compiler
i con
m ulti
r upted
t os
v v
x ED
z a
Ġc ar
Ġc um
al ary
Ġre versed
Ġb po
ce pted
ĠT rans
un c
un ctions
ve c
di git
ĠA t
ĠA uthor
ma de
ex tended
Ġ1 99
(" {:
ĠF in
ĠP rint
ĠE ng
bu gs
pre p
data length
ĠM L
ys is
'] ['
AR CH
Ġfrom list
ac ing
pro mpt
Ġset Up
Ġpre c
Ġpre process
Re p
IS TER
par allel
Ġwe akref
cl usters
unt il
ite cture
03 8
[: ]
format ter
cal ing
Ġac quire
Ġsh ift
work ers
12 8
)) ]<
xF D
rit ten
Ġpd b
xb d
mplement s
ormal ize
Ġqu otes
Ġdon ne
Ġlike ly
fu sed
aa aa
Ġtable au
Ġnormal ize
Ġcoroutine s
({ '
Ġcap s
PY THON
NE W
pick ler
Ġdraw ing
Value Terminal
pens ize
====== =
FORMAT S
Simple CData
LT A
SHA RED
UNK NOWN
ĠString IO
feren cia
Vector izer
1 000
< <
A bstract
C heck
P ush
R AL
e rence
f loor
k a
k s
l inal
p age
s peed
s mtp
t m
x ac
x EF
x AC
x AD
y p
Ð º
ê °
Ġ ETA
Ġ ETH
in v
Ġ' ..
Ġc yc
Ġe nter
Ġe fficient
ĠL O
ĠL inux
ro t
ro ids
Ġde al
Ġw y
Ġd zien
IN ET
ĠS D
ĠS er
ĠC ON
ĠC ount
an ie
ĠT AU
ĠT akes
ad justed
un register
ĠN umber
ul ative
set s
Ġcon current
ab et
Ġ[ ],
ĠP art
ĠE M
ci Ã³n
ĠO MIC
Ġso ft
Ġres pon
ĠG AMMA
'] :<
Ġun expected
col s
In itialize
string nl
ĠĠĠĠĠĠĠĠĠĠĠĠĠĠĠĠĠĠĠĠĠĠĠĠĠĠĠĠĠĠĠĠ ĠĠĠĠĠĠĠĠĠĠĠĠĠĠĠ
base d
Ġmo dify
us ing
ent ropy
ĠIn te
cket s
gener ated
SE EK
Ġone s
ĠDE LTA
]) [
PO P
xE A
xE B
xE C
xE E
MA G
IO Wrapper
EX CEP
Ġmin ute
link er
Ġtemp file
position al
ĠQ ueue
Lo ader
Ġscript s
rel u
rand int
Temp late
CF WS
Ġbehavi our
~~~~ ~~~~
ìĹ ´
Ġpur pose
Pool Executor
Ġmovi e
Ġed ge
Ġleg acy
munic ate
Gu ard
lide an
eto pt
ĠINTEG RAL
ĠBRE VE
linal g
ĠOMIC RON
' [
) "),<
A s
B y
C or
D ate
G N
M IT
N ING
N ONE
Q u
S ING
S PE
S ITE
` ,
a i
f atal
g f
j son
k eras
m ut
n os
Ġ IT
re que
re pository
Ġt ear
Ġc ancel
Ġs pe
Ġs ci
Ġs im
Ġd type
ĠC RLF
un expected
ma chine
ch or
is instance
Ġex clude
el low
en able
ĠF e
ĠB Y
ĠB ut
ĠB ad
OR N
ĠH O
pro file
no un
cs ize
** (
mo re
Ġlist ed
Ġcomp onent
Ġnew lines
ne arest
po ss
ST AT
fun ctools
Ġz one
DE LETE
US E
reak point
Ġmax linelen
ok ie
run c
xF A
Ġuser s
xB A
xB C
xB D
xB F
xC A
xC B
xC C
xC D
xC E
xC F
Ġgener al
uff le
xD A
xD F
prefix es
xA A
xA B
xA F
ĠUn ion
Ġqu ery
db m
ph abet
sp am
'\ \
make dirs
Se quence
Ġpackage s
Ġerr write
Ġpy doc
Ġlook s
Ġlook ing
Ġcons ist
Ġvar kw
annot ations
Ġform atting
mark ers
OUR CE
sig moid
initial ized
drop na
Ġdistribution s
imp l
CLA SS
ob soletes
ĠUnicode Error
Temp orary
Ġdescript ors
Ġprevious ly
Ġdes ired
dr v
Hel per
Ġsetting s
Per cent
Ġoccur red
Ġappear s
meta var
Ġproper ties
tic le
yg win
Ġembed ded
lev ant
ĠHow ever
ĠDEF AULT
# !
' d
/ *
: "
: :<
: ')<
A RA
B E
B rowser
C RLF
E max
I tems
J P
M O
M OD
N B
N um
O B
O ri
P ct
P ix
R S
S ED
W EIGHT
] \
b atch
b eta
b roadcast
f ws
g ray
i ÅĤ
k r
k lass
k tual
x df
re cognition
Ġt p
Ġt abs
on ic
de cl
de lay
Ġa uth
Ġa uthor
he l
Ġc sv
Ġre tri
Ġn c
Ġn one
Ġe q
Ġs cores
it al
Ġb asic
Ġin ference
ro lling
co pe
Ġde ad
Ġd ados
Ġd yld
ĠC o
ĠT h
ĠT s
ri l
un link
Ġco re
Ġst retch
ch an
Ġ1 8
ver ify
ter minator
con flict
res ume
data written
Ġg ram
ĠM ust
and s
Ġse n
Ġ2 3
Ġma ster
ĠU sed
Ġpro perty
ac ion
key word
pro vides
Ġun ix
comp name
Ġcomp ared
add resses
Ġout line
Ġoption flags
arg er
fun ctions
Ġz eros
22 31
Ġend rec
Ġinter n
sent inel
Ġap pended
Ex pected
Ġstart up
Ġpi e
AN T
xB E
Ġval or
En coding
Pro duct
ĠTH ORN
debug ging
Ġprotocol s
Ġback wards
Ġcreate s
Se arch
HE CK
Un ion
platform s
AM ES
FF F
Ġbyte code
Ġtk inter
Ġbo x
Lo ad
IPS IS
amp ling
YP ES
Inter rupt
Ġdat os
Ġ12 8
PRE F
norm case
bg r
ef ficient
cho ice
CF G
ĠChar set
sen code
BO SE
lin space
END S
Ġeigen values
Ġtre ated
delim iter
ÄĻd zie
Ġinher it
ĠMat rix
Ġasyn ch
ĠSup port
MAPP INGS
Ġdefinit ion
Ġbuff ered
Ġgu arante
Ġcanon ical
mobile svm
board Interrupt
ĠREG ISTER
EXCEP TION
noun ce
ĠREGISTER ED
" ',
: ].
A ttribute
C all
I MP
L P
L inear
L ZMA
M atcher
O n
P tr
a ut
k y
l num
m ount
s age
s ms
s lice
t ot
u nd
w ind
x DE
Ġ ALL
re cor
or i
st u
Ġ# ##
it u
Ġw ind
ĠS h
ĠS ave
ĠS kip
li min
an a
ĠT E
un a
Ġ" ))<
th at
ĠA c
set ter
(' __
get ter
ex amples
ex clusive
ĠI ter
Ġh idden
um an
ĠW ork
(" /
ĠF lask
ĠR PM
Ġ[ [
ĠP RO
ĠP lot
Ġu uid
to re
ĠO PER
Ġ2 8
ive ly
Ġl arger
cur r
Ġclass ify
Ġv s
01 3
04 7
ifi ca
De code
cal lable
Ġpass wd
UL INE
ten v
Ġac cepted
======== ======
Ġlog in
ĠY EN
sub stit
men ded
Ġinter polation
ĠSt at
SC ULINE
xF B
xF C
std lib
Ġsu itable
xD B
xD C
xD D
xA E
ush ort
Pro actor
ĠCon structor
ain er
ĠFORM S
box plot
level s
url lib
Ġus ually
Ġprocess or
stru ction
ĠDistutils FileError
FF ER
MIN INE
Di vision
Ġcons ists
BU FFER
Ġsepar ated
plat base
cy g
ĠFE MININE
vc varsall
={ '
orig inal
CON NE
ĠMA SCULINE
LOC ATION
ĠSV C
ulo s
Ne ighbors
ĠQUARTER S
radi ent
yg on
Ġsymb ol
Ġfrozen set
Ġcapture d
maint ype
Ġut ili
ĠTar Info
Ġaltern ative
pilog ue
Ġyiel ded
Ġactiv ation
INST ALL
Ġreache d
nsupported Operation
Sum mary
Ġtear Down
ril lic
' *
) ?
) **
. )
B IAS
E W
M ake
M ain
P IRC
T able
W h
` <
b s
b ang
d up
e j
h igh
m toff
o v
q x
r untime
s imilar
t state
v m
w atcher
y en
z as
Ã ¨
Ð »
Ñ ĥ
Ġ ],<
Ġ roman
in cluding
Ġt im
de gree
le st
Ġc losing
Ġc irc
Ġp eg
Ġn gf
ur a
la ve
ĠS oftware
ĠC all
ri ver
un as
di vide
ate ver
ĠA fter
ma g
ma jor
__ .<
as semble
Ġh ack
Ġh ousing
ĠF ali
ĠB lock
ĠP ipe
ĠP ick
ĠP CA
os x
ns itive
ĠE MPTY
Ġg rp
am ma
dir Manager
ND ORS
Ġres olution
import s
ĠH AND
Re f
Ġl ongest
Ġdo cs
pa x
Ġcomp type
ne j
ne ural
ĠRe place
im ation
po pen
Ġpo ur
Ġpo ol
scri ber
([ <
fig Parser
VE NDORS
Ġj ump
ST ORE
not ify
Con nection
Ġlog ical
Ġpos ix
Ġfe ed
CT ED
quest Handler
ast ÄĻ
Ġstop words
Ġindex es
ph rase
loc ations
part ition
13 00
Se lect
Ġdebug ger
xd c
Ġcallback s
LI MIT
Ġstruct ures
Ġexec ute
ĠTo ken
Ġgo ing
ord inal
Ġescape d
Ġappro x
lice nse
any object
Ġsp am
inte gral
resize mode
Ġsuccess ful
State ment
Ġspecify ing
mer ge
Ð½ Ð¸
blank s
Ġperform ance
ĠRO UND
Ġeval u
ABC DEF
Ġassign ed
ĠSpeci al
ĠBIN PUT
proces sed
subplot s
ĠSte p
reque ncy
PREF IX
ĠOPER ATOR
PIRC Command
ĠHAND LE
. '''<
5 12
> ]<
> '''<
B LOCK
B ACK
C R
C ONT
D ummy
N ew
O f
T uple
U no
W e
a wait
a ifc
b i
c ss
d ont
d umb
e h
f latten
g inal
g nore
k top
u g
x ffff
y m
y per
Ġ jo
Ġ service
in place
re ference
Ġ= ================
le ndar
Ġi e
Ġc m
Ġc ell
Ġf ar
Ġf lush
Ġf tp
ar gest
Ġre fer
Ġin complete
Ġin correct
ut put
ue l
ĠS caling
li ant
ĠC H
Ġdef ines
pt r
ĠT LS
ri v
ri vate
un ch
un def
Ġ" #
Ġco eff
ma ster
ch rome
__ )
is nan
ex pr
Ġh ref
el come
iz ing
ĠW ritten
ĠF orm
ĠF ield
ĠP ure
ĠP UT
to list
Ġdata class
Ġse ar
Ġ2 1
Ġ2 001
am i
Ġon to
Ġos name
pro duct
so lete
Ġare n
wor ld
IS H
IS SING
ca o
Ġprint s
01 1
01 6
In te
In stall
po ol
Ġsup press
Ġ(' __
Ġpo tent
=" #
ĠK e
Ġtext s
Con struct
22 19
clu ded
buffer ing
Ġinter active
OL S
Ġsy mlinks
config ure
UN IX
Ġtrans late
Ġextra cted
mplement ation
sy mlink
xx xx
Ġload ing
OF F
top ic
cv t
Ġposition als
Ġca lendar
Ġinitial ization
igh ted
Ġali ve
Ġrequest ed
ĠLo okup
Ġupdate s
Ġcache d
ĠPro tocol
Ġro t
Gen erate
Trans form
Des ktop
ĠClass ifier
------- +
Temp dirManager
fill color
Ġtri ple
Ġpol ygon
Ġmodifi er
SMTP UTF
Ġproble ms
static method
Ġrecor ds
ĠAddress ValueError
gre es
ĠRO OT
Ġvis ible
price Uno
Mode lo
Ġ'{} '
criter ion
Ġrecom mended
TIME OUT
ĠDecision Tree
ĠSequence Matcher
oly nomial
chan is
cyg win
Neighbors Classifier
) +
) ],
. "
1 251
B OM
C lean
D ec
D lg
E E
F N
H ER
I t
M IME
M utable
M icrosoft
P op
S kip
T E
T EST
U se
V ideo
Z ero
] ['
c lib
d le
d ummy
f rac
g l
g lob
g zip
h ousing
i od
l it
m ixed
q s
s parse
Å Ħ
Ġ 90
Ġ âĢ
se ctions
in crement
re p
de ad
de litem
Ġ' >
Ġf il
Ġf ew
Ġre levant
Ġn b
Ġn f
Ġn ulos
Ġs ilent
it ize
Ġb lo
Ġb atch
Ġb ÅĤ
Ġb ÄĻdzie
co ur
Ġde vi
Ġde nominator
Ġm time
IN VAL
an n
an nounce
ri tes
(' *
Ġh ol
el net
ab orn
um ing
ĠW rite
en c
ĠF orest
ĠP h
Ġu ndo
-------- <
ci rc
Ġan chor
Ġdata frame
Ġ* ,<
ĠO K
Ġ2 024
am ble
op ri
ĠU RL
ta ke
pl us
ĠG HE
Re lease
Ġl zma
Ġv a
Ġv otes
str chr
Ġnum erator
ne ver
stri bu
Ġsub stit
Ġsub sequent
num eric
Ġend ing
frame size
qui et
AC TION
LO G
load s
Ġmay be
are a
)) [
Ġfunc name
Ġsu ite
UN CTION
Pro jetado
sep al
ĠCon fusion
xe b
Ġgroup ing
Ġelement o
Ġrandom ly
xc d
wait pid
Ġwork ers
sp an
Ġindi vid
reg ression
VER BOSE
diff erence
Ġro k
handler s
Ġrel ated
Ġtermin ated
Ġtermin ator
ffff ff
Ġinterpre ted
Ġident ical
Ġident ify
Ġsrc dir
Ġfail ures
Ġlet ter
ĠFile List
lang uage
Ġsuccess fully
Ġassume d
Ġam ong
IGNORE CASE
Ġhap pens
vis ible
Ġdifference s
expand user
yc z
Ġct x
Ġsw itch
ĠOver flowError
Doc Test
Ġdecl ar
Ġattemp t
Bu ild
schedule d
Ġfi las
ĠUp date
custom ize
ÑĢ Ð°
Ġur od
ĠSyntax Error
PH ONE
Ġcer tain
RIB UTE
Help Formatter
Ġmsvc rt
More Data
mapho re
tot ype
" %
, )
0 20
> ")<
B ad
F loat
F IRST
G AL
I mplements
M D
M ultip
S K
S ign
S peci
S top
T MP
T UPLE
[ (
h dr
k means
p wd
w info
x fa
Ġ question
se ed
or ient
Ġ' [
Ġf ore
Ġf orest
Ġre ct
Ġre use
Ġre duce
Ġs cale
Ġs amples
Ġs mtp
Ġb are
pe t
co uld
Ġde ci
Ġw indows
Ġw atcher
li s
li ps
ot net
an itize
pt tos
ma s
as sembly
Ġnot ice
ke w
(' '.
() ")<
Error s
ĠI nd
Ġra di
ab e
ĠW or
(" -
orm ode
con structor
ĠP lease
ĠE VENT
ig uous
LE GAL
ol der
et y
ĠM on
Ġse q
Ġimport ant
Ġal t
op s
ĠU t
25 90
AR D
** *
Ġr at
Ġl ate
Ġun safe
comp s
Ġother s
De lete
Ġcur dir
Ġcol lect
ĠEx amples
ĠK ernel
Ġac c
Ġac count
Ġbreak points
ĠSt r
ĠSt art
be gin
xb c
doc test
Ġcontin uation
Ġfin ished
Ġstop s
wh at
Ġman ip
Ġsupp ly
top ics
Ġ... ]
ĠKey boardInterrupt
down load
Header Error
Ġ{} ".
Ġssl context
Ġindent s
PA RAM
mk path
specifi ed
Ġdescrib ed
Ġsuffix es
MIC SF
Iter ator
DO WN
9999 9999
SH ORT
Ġpol l
Ġpe ut
ĠHe re
quent ial
Ġcomparison s
leg al
ĠSystem Exit
Run ner
Ġaut hentication
Ġprior ity
Ġduplic ate
alid ation
ĠHO OK
Ġretri eve
Ġasynch ronous
Ġ'{}' ".
MICSF T
" ],
' -
A d
B SD
F e
F LO
G NU
H ALF
M ail
N NTP
P egasos
R aise
S IG
T er
b oth
d types
j onal
m c
n one
o id
t ilt
u mented
v s
w it
x ed
z iÅĤ
ë į
í ĸ
Ġ ER
ĥ Ŀ
se lected
in comePoverty
re ply
Ġt msg
Ġt ensor
de p
de compressor
Ġa way
Ġi gn
Ġc r
me mory
ar ing
Ġp ow
Ġp bar
Ġn or
"" <
nd or
Ġs lashes
ĠL og
ĠL ice
Ġin f
Ġin tended
ro k
ro ll
ss ible
Ġde coding
lo pen
Ġd lib
Ġm ro
Ġm iesiac
ĠS ARA
AL ERT
ĠN um
ĠA IX
ĠA bstract
Ġ""" \<
__ ')<
file date
Ġh it
Ġcon struct
en semble
ed ge
Ġar reg
Ġar ticle
con stants
ĠE S
ig nored
LE NG
bu ff
RE S
Ġme chanis
Ġ* =
ĠM odel
ĠM ax
ys root
and ar
Ġy es
Ġal go
ĠU SER
25 64
import er
py pi
ir ds
Re ps
Ġl in
Ġl iter
Ġx e
str ftime
version s
03 7
back ward
01 92
Ġcan v
Ġkey ed
.. /
ĠDe tection
ib ilities
oc ation
ĠK Me
Con tain
Ġwor ry
net rc
we et
Ġfa ster
Ġinter faces
255 2
255 3
255 5
255 6
255 8
255 9
Ġdis p
nc er
fore ver
256 1
256 2
256 5
256 7
256 8
Ġspecifi cation
ous ands
Ġfin ite
Ġad just
ĠCon text
xe a
xe e
xe f
Ġfollow s
tri c
Ġmin imum
ĠJ ust
show info
Ġstri de
Ġreal name
Ġ{} '.
Ġcons ider
Ġindent ation
ven ience
Ġorig in
ĠIS O
BU ILD
term ine
ĠArgument Descriptor
Ġdat um
Ġhand shake
Trans fer
cap abilities
Ġwin reg
ĠImage Tk
gra ms
pad ding
hing e
nb sp
Ġpol y
Log in
ouse Reps
Ġcontrol s
ĠCol umn
Ġcho ices
:: /
Ġinher ited
Ġexecut ing
CO UN
mant ics
tre ino
Ġmicro second
ĠTime out
contin ue
Ġcau ght
Ġnom bre
>#---------------- --<
sca led
ĠNeed MoreData
Ġfig ure
Ġrecogn ized
moc jonal
Ali as
unc Ptr
poss ibly
Ġwind ll
substit utes
yen ne
astÄĻ p
cvt Color
Transform er
ĠbÅĤ ÄĻd
circ le
lips is
Ter az
ziÅĤ eÅĽ
íĸ ī
LENG TH
/ .
1 25
8 20
= ?
? ?
C ANCEL
C FLAGS
D OT
G EN
G etopt
I ES
K e
P attern
R Y
R aw
S RE
W OR
b ag
c ript
e pends
g an
h c
h aps
i lobj
k l
m ing
n es
n est
p us
p irc
r w
w as
y l
y u
y es
} )
se ct
Ġt aking
de que
Ġ= ================================
st arted
Ġa hi
he lper
Ġc ut
Ġc andidate
al ity
Ġe of
Ġb ind
Ġb hi
Ġin cre
Ġd u
ut coffset
Ġm ix
IN ISH
ĠC re
ĠC ode
ĠC omple
ĠĠĠĠĠĠĠĠĠĠĠĠĠĠĠĠ ĠĠĠĠĠĠĠĠĠĠĠĠĠĠĠĠĠĠĠĠĠĠĠĠĠĠĠĠ
ck ing
ĠN et
il ation
ĠA F
is link
Ġex tend
set default
(" #
ĠF eb
def ect
ĠB ytes
ĠB roken
res u
ĠP OP
ĠE l
ol l
ol ume
et c
class ify
pre ad
ys ical
Ġ2 2
am ing
read buffer
lib name
[' __
ĠG aussian
py pirc
Ġpro totype
AR N
Ġget text
ĠThe y
Ġwh atever
Ġl n
par sed
cre ating
[: ],
po sed
po ses
act ual
bo otstrap
Ġ4 8
Ġac cur
ĠY EH
gener ic
Ġ5 3
32 1
Ġsu c
ĠIN TER
Ġtrans fer
Ġserver s
Ġnon zero
sy m
debug level
Ġad v
xa e
ĠAr g
og le
Ġmin or
abc d
Ġbuil ds
ĠRE AD
src dir
Ġcolum na
Ġpipe line
ang ing
esca ped
dis position
Ġoc tets
Ġq s
Ġrest ore
lap se
Ġmeta class
Ġfix es
039 3
039 8
space s
Ġpri vate
ĠUN IX
Temp us
DO UT
Po int
Po licy
CON N
Ġoperand s
Ġdete ction
select box
ident ity
align ed
squ ared
Ġcert ificate
\. \
ĠName Error
//////////////// ////////////////
Ġear lier
Sh ape
ĠMat ches
Ġhist ory
MAPP ING
Ġlower case
vid ing
Ġsmal ler
Ġsmal lest
estimat or
estimat ors
ĠRandomForest Regressor
Encode Error
compat ible
Ph oto
Ġapplic able
MAN IFEST
Ġlay er
rot ate
ĠIT C
Ġsci py
Ġindivid ual
WOR K
Photo Image
) }
/ %
2 004
: `
A p
A t
B atch
B YT
C UR
C opy
E CD
F atal
F ROM
P art
P OL
P osition
R ace
S ex
T x
W indow
a pture
a cies
b ly
c ut
f name
f sencode
h ind
p w
p ow
p onent
q p
s b
t ls
w i
w ater
x or
x ca
y out
in ing
in file
re mote
re served
or iz
or aise
de ncy
le ccion
Ġf act
Ġf lask
ar Down
te arDown
Ġp lay
Ġp egasos
Ġp unctuation
Ġre p
Ġre cursion
Ġn frames
Ġe uc
ĠL ONG
Ġde pen
Ġde vice
Ġw yn
ge ome
lo sc
lo cate
Ġd ue
Ġd os
ut ures
ER A
ĠS ET
ile s
li ers
Ġ" +
Ġ" )<
ĠN etwork
---- --<
ma i
Ġ""" )<
set Up
get line
() ;
() ),
fi fo
Ġh uman
el t
Ġ+ --------
iz ers
iz ycz
ĠF OR
== '
Ġdi stribu
ĠB ar
ĠB ack
ĠE L
ĠE U
-------- --<
ci al
ci pi
RE G
Ġ* .
Ġg cc
ow ns
op erator
op codes
out file
Ġch r
pro actor
ĠThe n
Ġwh ite
Re cognition
assert False
Ġv c
ĠX I
HT TP
cre t
time delta
Ġprint ing
], [
im ated
HA SH
Ġsub part
St at
pi red
Ġj ak
ST ART
Ġint s
Ġ@ _
ĠK NN
Ġsh are
Ġmode s
Ġshould n
we ighted
Ġfa st
app op
Ġinter val
Ġsy nch
Ġdis position
long double
log in
Ġdoc strings
Ġper formed
Ġsc andir
EX EC
Ġsign als
ĠSe lect
Ġqu ant
Ġmin im
match er
match ing
current Line
XX X
Ġcomple tion
AM ERA
cro p
thread s
Ġinitial izer
vari able
Str uct
short cmd
Ġsee ms
Ġoc tet
Ġnorm ally
ĠSUP PRESS
Inter face
Ġreplace ment
Ġinst aller
save d
Ġpop ulation
ĠUnicode EncodeError
Ġda emon
dump s
Ġì Ŀ
Ch annel
LOC ALE
sen ted
uplic ate
Per ceptron
Ġoccur rence
Ġuni form
Ġdb m
Ġph rase
alt sep
Ġpick ling
ace Recognition
maint ainer
Loc ations
Send file
ĠRandomForest Classifier
Mix in
predictor s
Ġprodu ces
Ġcoordin ates
Cre ated
cri minator
ĠSign ature
ĠFound ation
ĠGrid Search
Arch ive
rupted Error
======= +
MAG IC
MO ST
itu de
CANCEL LED
INISH ED
Sex Race
cipi ent
" ],<
' +
6 50
A IN
A ST
B AD
C LE
C HA
H H
J UST
M issing
P RI
S Y
T YPES
V C
W ER
X ML
Y ou
^ ^
_ %
b at
h idden
j i
m ul
m ous
m argin
r path
s re
t orch
x da
} \
} {
} ',<
æ ķ
Ġ )
Ġ :<
Ġ Ã©
re pe
Ġt f
Ġt ty
or atory
at tach
le ader
lf rom
lf iles
me nd
al len
Ġf loor
Ġn ice
ur ther
ĠL ink
ĠL IST
ĠL ike
ĠL ZMA
co un
Ġde que
Ġde epcopy
Ġw ild
Ġm er
Ġm atter
ĠS W
ĠS core
li an
ĠC alled
an cia
pt ime
ĠT ask
Ġto do
ad ded
th ough
ma chinery
ch annels
Ġex ceed
get frame
ex es
Ġth ird
el s
Ġcon vent
ĠW h
ALL BACK
Ġdi vide
Ġ[ %
ĠP ATH
et ing
Ġan al
ĠO b
Ġg id
ĠM ar
Ġse mantics
Ġal ong
Ġal phabet
[' _
py file
Ġpro viding
sc r
sc heme
Ġen g
Ġen abled
Ġch osen
pro gram
** <
Ġr args
Ġr pm
Ġun it
Ġun compressed
mat ches
cur ity
mo dified
pla cing
ne ctions
char buffer
Ġla w
Ġne ither
pos itive
Ġ(' -
by ref
cal csize
Ġsub set
Ġat om
da emon
ard less
Ġ4 1
DE P
DE V
IP v
oc p
ĠK AF
22 48
Ġend time
UM ENT
SE ND
row n
20 7
cale ndar
header len
UR L
Ġsc an
Ġstream s
PO WER
Ġiter ate
Ġfin der
start pos
Ġsign ifica
xa f
Ġback slash
ĠWe ak
Ġhelp ful
Ġwork er
ag raph
link name
exception s
make Suite
skip If
addr info
Se ction
wrap s
23 12
Ġorder ing
'' '
ĠDistutils SetupError
Set s
Ġcompiler s
Ġ{} ,
Ġskip ped
Ġssl data
=[ ]):<
ian Structure
Ġstep s
Ġhow ever
hash code
chunk size
201 8
Ġgo es
ĠAL MOST
Ġtyp ically
DIC T
ĠSMTP Channel
ĠInter ruptedError
String IO
Process Error
ĠAl low
Ġseek able
End ianStructure
regist ered
Ġrecursive ly
ĠPar ser
uni versal
meta class
Ġhigh er
some code
tz name
eng ine
ony mous
ali ases
Argument Parser
Ġloc ated
Ġdefinit ions
Work Rep
Ġlex er
ins pect
DIGIT S
UNC FLAG
HAND LE
Temporary File
CONNE CTED
Ġsear ched
Ġrat io
) ',<
) }<
/ '<
0 2261
1 01
1 80
= {}
> |
A SS
A ccess
C LO
E mpty
E OF
F a
F RA
L ong
M in
M on
N A
R U
S ile
S plit
S tore
T arget
] "),<
a ive
a uth
b et
b tn
c las
d l
f ed
f etch
g v
h ighest
j Äħ
k at
r s
r ont
r find
s py
s anitize
u dio
w atch
w ik
x it
x ce
ë ¦
ì Ĭ
in coming
re wards
or age
st re
Ġ' ',<
Ġc le
Ġc ast
Ġc fg
Ġc zas
me sg
al ways
Ġf ront
ar factor
Ġp ix
Ġre ceive
Ġn bytes
Ġo d
Ġs cope
ĠL et
ra ctal
it or
Ġb ird
Ġb az
Ġin comePoverty
co oked
Ġde v
Ġd zie
Ġm argin
ER ATOR
ĠT S
di sc
di alog
ate xit
th ree
Ġco mma
Ġco efficient
ĠA pp
__ ':
as yn
is abs
is ysroot
up load
Ġth ink
() ',
Ġra nd
ise d
Ġcon tained
Ġcon fidence
Ġcon nections
ĠW ar
code d
", #
res ample
ĠP olynomial
ap k
ase d
ĠE mpty
to B
tra ces
RA Y
class ification
Ġby ref
ĠM H
ow ling
Ġse aborn
Ġimport s
>> >
ING ET
ive d
Ġso on
ĠV S
ac cs
pro du
Ġpre ferred
att ributes
IL INE
** -
Ġr fc
Ġl atter
Ġl argest
Ġun ame
mat plotlib
Ġpa st
01 4
Ġwhe never
lock s
map s
cal c
Ġsub module
') ])<
da ily
Ġdire ction
ĠIn itialize
Ġup load
ĠK A
tin y
ump tion
22 4
Ġac cum
for k
ree BSD
Ġfa ilobj
lim ited
sent iment
Ġsy nt
Ġwa ke
ont al
Ġcount y
UN NING
AD JUST
raw data
exp licit
Ġcom modity
ref count
loc ity
xc b
34 5678
play er
ĠRE PORT
Ġclose st
sup er
Ġca pt
pop ular
compress level
real path
33 33
Ġwrap ping
Ġ{} )<
ULT ILINE
number s
first weekday
Inter polation
201 9
ale ndar
su ccess
ging Sile
ĠEX T
('. ')
ĠSSL Context
ick ness
Ã³ w
Ġdeta il
DO ING
('/ ')<
Res ponse
zy st
End Archive
Ġtell s
qd n
>################################################################ ################
Å¼ y
Ġreview s
Ġtre at
Ġbar rier
[^ \
Ġmaint ype
Ġmaint ain
msvc compiler
Ġë ³
Ġasyn cio
Ġprog ress
cons ume
Ġconsume d
SUPPORT ED
Ġduplic ates
Ġinstanti ate
quant ize
Ġprofile r
COR P
Ġide al
________ ________
ĠMail dir
Ġinvo ke
law Emp
Ġrout ine
WA IT
Generic Alias
LAN K
Ġke pt
Ġol der
ATT RIBUTE
ĠMethod s
Ori ginal
ktual na
hel lo
Ġsen tence
Ġintern ally
Ġurod ziÅĤeÅĽ
pet al
Ġmechanis m
andar di
astÄĻp ny
Ġwyn ik
geome try
FRA ME
ìĬ ¤
cooked q
Ġdzie ÅĦ
ADJUST MENT
gingSile ncer
! )
$ )
' (?
, ),
2 03
> ')<
A pp
B LANK
C ancelledError
C HECK
D AT
E min
F MT
K G
O VER
P list
S UB
T W
] '<
a fe
a vailable
c xx
g u
h k
h sv
h qx
i or
j peg
l stat
n bytes
q name
s lashes
u lian
x be
z lib
Ġ ys
Ġ limits
re versed
de cision
Ġa lo
le ep
Ġi ris
he ther
Ġc file
Ġf rac
Ġre gression
Ġre ported
ur g
Ġs vm
ĠL P
Ġin finity
ce nd
ro ut
Ġd ylib
ĠT fidf
un der
un less
ort h
ĠN on
Ġco ver
ul ly
__ ):<
() `
() ),<
() ).
ser ted
Ġh dr
ab yl
Ġdi a
ĠB db
ĠB ETA
ĠB otnet
Ġ[ '.
con fusion
res cale
res olution
Ġu id
pre process
pre release
Ġg ar
ĠM er
Ġse nse
am os
am era
ta il
ĠV er
__( *
Ġget ting
Ġarg val
Re set
Ġr nd
Ġl num
Ġun pickling
Ġfun cs
pa ger
Ġv m
[: :-
attr text
om me
Ġ(' ',
min or
Ġsub parts
Ġsub directories
oth ing
St ack
valid ation
ST DOUT
Ġ4 00
ĠEx pected
oc tet
Ġfunction ality
split drive
Ġac ross
Ġac quired
Ġmode lo
Ġany way
ĠY A
ĠY I
sub dir
AC CEP
Ġ'. '<
lim bo
Ġbreak s
Ġap pending
Ġopen ing
msg out
xF E
xF F
com ments
Ġgener ally
va il
xb f
Ġextra s
Ġover lapped
Ġmodel s
ĠCon nection
Ġprefix es
Ġqu ite
Ġdict s
Ġrepresent able
Ġcopy ing
extra cted
Ġlink age
token ize
ESS AGE
Ġarch itecture
ĠOption Parser
Di re
Ġmark s
ĠLo ok
dis able
Ġtransport s
Ġlock ed
Ġro unded
order ing
Ġdest roy
Ġhash able
Ġdirect ive
Ġ--------------------------------- ------------
Ġlet ters
descri be
ĠInter polation
unicode string
Ġcent ral
gz tar
Ġph ase
ĠPer form
Ġtransform s
eng lish
Ġcondition s
cli ent
Ġreason s
Ġpur poses
Ġcalcul ate
ĠTar File
ĠValue s
Ġschedule d
she ll
Ġide a
Ġmicro seconds
Ġbecome s
Ġinvo ked
Ġkwonly args
Ġmid dle
ĠINF IN
Function Type
tod o
Ġmar ked
Pass word
ĠEng lish
Ġsoft ware
recor d
Wh ite
ĠBlock ingIOError
ĠLookup Error
Ġsilent ly
cour t
ĠNum Py
ĠGridSearch CV
æķ °
coun tered
Ġsignifica nt
disc ard
ACCEP T
. ],<
3 84
7 00
> ,
> "<
A ds
B roadcast
C L
C ate
C alendar
E EM
F IL
F UT
F lags
H ot
H igh
I MAP
L java
P os
R D
R o
T s
] [:
a lf
a que
a iter
c n
c write
c nn
e fs
f il
g r
l led
m id
m iesiac
s z
s ound
t w
z A
z ing
} ",
± ìĬ¤
¸ ëį
Ġ ]
Ġ ment
Ġ ê°
Ī ĺ
in her
re v
re ward
Ġt str
on d
st ar
er ation
Ġc la
Ġc wd
me t
al th
te ct
Ġp or
Ġp dict
Ġre pre
Ġre ward
Ġre ply
Ġn df
Ġe ol
nd f
Ġs n
Ġs urro
ra b
la ke
Ġw s
Ġw rites
Ġd any
ER U
li ca
ĠC HE
## #
an c
ĠT SE
ri p
un its
un employment
ĠN L
th rough
__ ',<
set trace
ĠI nt
Ġh ighest
Ġcon j
Ġcon caten
ĠW ait
en se
ĠF rom
ĠF unctions
ns amples
Ġle pi
ĠE F
ĠE LL
to ver
et Socket
RE QU
Ġg ain
age s
Ġse ps
Ġse rial
ĠU net
ĠU KRAINIAN
out line
ĠV E
ĠV ec
ic le
ĠG iven
Ġpro xy
sc an
ĠH ARD
Ġen countered
per cent
pro jetado
Ġpre ds
Ġpre view
Ġpre tty
Re gister
Re LU
Re questHandler
att y
Ġun e
Ġun employment
cur se
cur acies
par sing
Ġlist e
Ġpa use
ĠBO M
Ġk ol
In etSocket
ne ar
ĠRe al
ĠRe ading
Ġout come
Ġmodule name
Ġ(' _
Ġread s
Ġread into
ĠĠĠĠĠĠĠĠĠĠĠĠĠĠĠĠĠĠĠĠĠĠĠĠĠĠĠĠĠĠĠĠ ĠĠĠĠĠĠĠĠĠĠĠĠĠĠĠĠĠĠĠĠĠĠĠĠĠĠĠĠĠĠĠĠĠĠĠĠĠ
Ġstr chr
rou ped
St d
UL AW
ĠEx p
ĠIn st
ĠIn stance
Ġend pos
Ġend ian
ĠY ERU
load Size
state ment
Ġdis able
long cmd
transform s
be low
ĠZ E
ĠZ HE
)) ?
Ġper mitted
Ġspecifi er
Ġwrite frames
En viron
ĠUn der
Ġho ok
vo ie
ĠCon tact
Ġthere fore
################################ ################
Ġstop ping
Ġimplement ing
install ation
Ġmin us
Ġglobal ns
sp acing
Ġver ify
can cer
stru ctions
Ġpy version
cent roids
The re
ĠSH CHA
Ġ"" .
Di ctionary
man agement
writ able
Name d
den ted
Ġmap ped
zen ia
dete ctor
tr l
Ġreg ardless
rag ment
Ġinvalid ation
Ġnode s
ob ile
ĠClass Var
cto i
Ġcolumn as
Ġtri g
Ġtri ck
Ġbrowser s
Ġfill char
fli p
gra d
LOC AL
Pipe line
Ġsimilar ity
ĠPar se
ĠRead Error
Dis p
need s
ARG UMENT
oo st
Ġdelimiter s
Ġpe er
Ġpack ed
Sub process
Ġrepe ated
resource s
ĠPer mission
Ġproper ly
âĢ ¢
msvc r
Ġinsert s
###### <
Ġpen color
Ġalign ment
access or
ĠMy Callback
rict Version
Descri ption
Cal lable
peer name
############## <
Ġrout ines
ĠSimple Imputer
Ġexpan sion
canv width
Ġresolve d
ĠOne Hot
Ġwy k
ĠSer ver
Ġrespon ses
STAT US
runc ated
Pix Model
ital ize
Ġapprox imation
ĠKe ep
ĠDecisionTree Classifier
Multip art
lis hed
Ġign oring
stre rror
>################################################################################ <
¸ëį ±ìĬ¤
Ġdany ch
Ġlepi ej
ĠOneHot Encoder
+ )
= \
B ody
C RC
D C
D o
G U
M ax
M ULTILINE
N on
O b
P ackage
R FC
R GB
T raceback
Y our
Z a
] ),<
b zip
c nt
d ition
f ancy
g on
g rc
g lu
i ate
m or
p as
s l
s ur
s ci
t ick
u ary
v il
x db
Ġ ul
Ġ vent
se nsitive
re den
Ġt type
Ġt runcate
de corator
Ġa ff
le es
Ġc atch
al lfiles
Ġf urther
Ġp us
Ġre fused
"" ,
ion Error
Ġs r
Ġs low
Ġs lot
ĠL C
it Var
Ġb l
Ġin file
co mb
Ġw ar
ĠS pan
Ġ( [
Ġ( ((
Ġ_ ('
ĠC lose
ĠC RC
ĠC ancelledError
ĠĠĠĠĠĠĠĠĠĠĠĠĠĠĠĠ ĠĠĠĠĠĠĠĠĠĠĠĠĠĠĠĠĠĠĠĠĠĠĠĠĠĠĠĠĠĠ
ĠD AS
di g
ĠA nal
Ġst amp
__ ]
is coroutine
(' ;
get pass
get node
ex port
Ġbe ta
(" [
en er
ed u
ĠR ES
Ġdi alog
ĠB reakpoint
con cat
ĠP IPE
tra ps
RA RY
qu ery
list e
pre fer
Ġ* **
ĠM ultip
fo ur
ĠV ersion
sh uffle
ĠG CC
sert ionError
args ort
Ġch annel
Re gex
fe ats
cur ve
col ormode
HT ML
ho urs
Ġcomp s
Ġ3 3
Ġ3 5
EN CE
04 6
if lags
ĠĠĠĠĠĠĠĠĠĠĠĠĠĠĠĠĠĠĠĠĠĠĠĠĠĠĠĠĠĠĠĠ ĠĠĠĠĠĠĠĠĠĠĠĠĠĠĠĠ
min ant
by number
lic ated
ste mp
ST D
pr une
ĠK NeighborsClassifier
22 64
22 65
Ġlog ging
ĠY U
main pyfile
Ġmax levels
Ġ'. ':<
Ġexp on
Ġ5 12
ĠSt ate
Ex emp
Ġdis card
Ġab c
Ġmat ri
Ġgener ating
Ġ\ \
PE CIAL
Ġstream lit
xb a
ID TH
user s
temp dir
gh i
win inst
ĠAr ray
16 6
ain Map
Ġqu ot
14 7
Ġstat s
Ġallow ing
zip File
sa w
do es
Ġlink ing
HE ADER
Ġ'/ '<
host mask
stru cted
Ġposs ibilities
ĠQ P
Ġvalid ate
sum mary
Ġ"" ,
void cmd
pri vate
ĠData Prep
Ar g
Ġob tained
ĠAN Y
Ġright s
Ġimp ut
comple x
cy rillic
respon ses
Ġpop ped
Ġdisplay ed
COM MENT
Ġcli ck
Ġfn match
ha lf
rand bits
READ ME
Ġpers istent
Ġfill color
gra ss
End Cent
Ġtmp dir
INF UNCTYPE
Log gingSilencer
Ġmodifi cation
END ED
ĠNaN s
Ġseparator s
ĠDo es
Ne ed
MODE L
deta ch
Ġgeneric path
ĠText File
Ġcalcul ated
Block ingIOError
chain s
Ġmk path
ica o
DI RECT
Fin ish
Ġjson ify
Ġrespect ively
decomp osition
Ġexpan ded
BIT S
NUM BER
Est imated
NEW LINE
Ġpie ces
Load Library
Ġguarante ed
similar ity
BLOCK SIZE
riv ative
Pop ulation
TEST FN
abe tes
ĠWor ld
Ġarreg lo
Contain er
CLE AR
repe at
Ġeng ine
consume d
ĠINFIN ITY
sound pos
reden coding
ĠSpan ish
ĠDAS H
prefer redencoding
EndCent Dir
' ")<
( .*)
* <
* .<
. \
1 14
= ':
> ',
A Z
A verage
B Z
B yte
B ATTER
C apture
C AMERA
D ense
E r
F INE
F UNCFLAG
F reeBSD
G ROUP
G iven
K O
K ernel
L F
L ig
L INK
N ON
N AMES
Q L
R T
R ound
R UNNING
S up
S hi
S omme
T ab
U F
Y E
] |
] ')<
a Äĩ
b roken
b rown
c lock
c map
c param
f tover
g ers
g ates
h r
h s
i ckle
i mplementation
j ects
k o
m ultibyte
n ie
r gb
s x
t i
u ch
x ec
x scale
} ',
Ð ´
í ķ
í ĥĿ
Ġ ;
Ġ ri
Ġ })<
Ġ ERROR
Ħ ł
ł ľ
se x
re call
on ce
de ra
de compress
st retch
er ce
er ical
Ġc e
Ġc ance
me tic
al so
al go
Ġf l
Ġp ct
Ġre stri
Ġre placing
Ġn ative
Ġn diff
ur o
Ġe w
Ġe pilogue
Ġs in
Ġs caler
ĠL ine
Ġb s
Ġin p
Ġin finite
Ġde li
Ġde ep
Ġd file
Ġm as
ĠS ame
ĠS alary
Ġis method
li mp
ĠC om
an other
ĠT uple
ĠT UPLE
Ġ" &
Ġ" {}
ve locity
IT ES
ĠD Z
ĠD ST
di strict
ĠN U
ĠN ormalize
ine ty
ĠA rab
Ġof p
Ġex its
set locale
ke epends
(' \\
(' ''<
(' :')<
get De
get codec
get Sub
() ._
() '<
ĠI mplement
Ġh old
Ġcon crete
(" ../
en cy
AP PA
ed Dataset
ĠF rame
ĠF izycz
ĠR ight
ĠR HO
ith metic
ĠB oth
con f
ĠP ass
ĠE nter
ĠE mocjonal
ol aris
et adata
es mtp
RE CE
pre ter
Ġg rc
Ġg cv
Ġg raphics
Ġg mtoff
ĠM S
ĠM U
ĠM an
ĠM ode
ys cale
Ġse ctions
Ġ2 000
Ġy e
Ġy ields
Ġal most
ĠG N
ĠG ET
ĠG LOBAL
Ġpro duce
sc roll
ĠH ye
ac curacies
per ky
no logo
Re place
Ġl st
Ġun supported
Ġtra ck
par a
par dir
comp ound
Ġcomp ut
UT YPE
unt o
ne eded
04 8
po i
Ġla mb
ifi es
HA S
min ante
ste ps
Ġcol li
da pt
Ġargs pec
Ġup on
ten ance
mb cs
ĠK APPA
Ġpl ural
max c
Con figParser
Ġac ces
======== ====
IR D
load Library
Ex tract
Ġab ort
Ġmat ched
cor pus
tt sx
UN SET
UN PACK
ĠIN ST
Ġgener ation
ORM AL
Ġ\ "
group ing
]) ]<
Ġover lap
Ġover flow
raw d
EX IST
Ġho urs
Ġvari ant
ey e
Ġinte rest
shape s
Ġsome times
ĠSe ction
og us
cache d
byte order
local host
loc ated
xc f
Ġtarget s
Ġlocal ns
Ġus able
do cs
gn itude
gn edDataset
du cation
Ġpy ttsx
EXT EN
ĠOption Error
vari ety
Ġwrap s
Ġcons istent
mean x
inter polation
Ġrequest s
ĠCh ang
Ġapp data
send all
request ed
now ait
Ar ray
Ġtraceback s
Ã© es
Ġrelease s
mark er
ssl data
YP IRC
ĠPro per
lap sed
ĠTo kenList
Ġyear s
Ġconvert ing
invalid ation
Ġmapping s
ðĿĳ İ
ðĿĳ Ľ
Ġwin ner
ÅĤ o
({ "
Ġdot s
Ġdot ted
Ġdistance s
Path Like
Ġdiv ision
Ġshe bang
Ġì Ħł
vice Id
End Dialog
micro soft
Ch ange
Dist rict
clean up
BO OT
Ġcolon nes
Ġdraw n
ĠSV R
align ment
ÅĽ ci
Ġmy data
Text IOWrapper
ĠHT TP
tern ative
Multibyte IncrementalDecoder
Multibyte IncrementalEncoder
Multibyte StreamReader
Multibyte StreamWriter
Ġunicode data
âĢ Ŀ
Exec ute
atom ic
ĠID ENT
Distutils SetupError
Ġprece dence
named tuple
ĠModule NotFoundError
Ġbuff ers
sg d
Ġ------------------------------------------------- ------<
proces ses
Fin der
ĠBe cause
="" ,
Total Population
Ġmut ually
Descri minante
abort Broadcast
Ġte ch
canv height
Cluster ing
ATTER N
Ġcour se
ĠSD K
mut ually
Ġgram mar
============== =<
scriber Id
ĠToken Info
criterion GAN
Video Capture
Mail box
Ġliter als
Ke ys
Ġsuc ceed
Batch Norm
ĠBar ry
Ġjak im
ĠWar saw
popular ity
BLANK LINE
Dire ctory
Ġrepre sented
ĠELL IPSIS
InetSocket Address
Exemp limp
BATTER Y
KO I
Lig ne
Shi k
multibyte codec
getDe viceId
getSub scriberId
RECE IVE
ĠìĦł íĥĿ
" >
" )):<
" (?
' ',
' },
( ...
( {}
) [:
) ;<
/ -
1 10
2 80
3 86
8 00
= '<
= ["
> ",
A H
A V
A ny
B GR
D ATE
F R
F ind
F ull
G S
H LO
J UNK
L K
L IN
R et
S core
S yntax
S OURCE
T T
W ARE
W ARN
Z LIB
] ',
a o
e ven
f req
f qdn
g ress
h older
i py
k sum
k nn
l ittle
l ongest
p c
p text
s napshot
t runcate
w elcome
x gb
y mb
z u
} ,<
æ ľ
Ġ ),
Ġ ?<
Ġ serve
Ġt m
Ġt w
or ity
st and
Ġa st
Ġf ws
Ġf raction
Ġf requency
ar ound
Ġp print
Ġe limin
nd s
Ġs ur
Ġs parse
Ġs amp
Ġs light
it o
Ġb roadcast
Ġb ogus
Ġin line
Ġw orth
ge th
ĠS PECIAL
ot onic
Ġ( {}
ĠC SV
ĠC trl
ĠT wo
ĠT OP
un quote
un locked
Ġ" *
ĠN UL
ĠN EW
ate xt
Ġco s
ĠA IN
ĠA RE
', ),<
Ġof ten
__ ")<
is null
Ġex plained
set blocking
get lines
Ġth row
ype s
Ġcon f
ĠW AR
ĠW SP
(" .
en ce
ĠF TP
id f
ĠB Z
ĠP ut
ĠP ort
ĠP open
ĠP AS
ĠP rivate
os a
ĠE vent
ĠE HLO
qu otes
RE PORT
Ġme tric
), (
put cmd
Ġg ame
Ġg radient
ĠM atch
ĠM ISSING
Ġse ct
Ġse ries
Ġ2 7
Ġ2 045
Ġy c
am b
am d
read lines
ĠU nsupportedOperation
ĠV AL
Ġres ize
ic ast
sh ould
sh lex
ĠG HA
ĠG zipFile
'] [
py cache
Ġpro f
Ġpro actor
Ġpro duced
sc al
sc andir
Ġarg v
Ġhe xa
Ġl inux
Ġclass dict
Ġtra cing
pa use
Ġv o
Ġpar dir
cl one
Ġcomp uted
back log
Ġ3 00
ĠRe served
om an
ĠĠĠĠĠĠĠĠĠĠĠĠĠĠĠĠĠĠĠĠĠĠĠĠĠĠĠĠĠĠĠĠ ĠĠĠĠĠĠĠĠĠĠĠĠĠĠĠĠĠĠĠĠ
De compressor
Ġcol lection
valid ate
UL D
mb urg
Ġtext wrap
OT E
Ġany object
qui res
state s
Test Class
Ġwa ys
Ġper miss
Ġper mission
Ġper haps
Ġover head
Ġfol ding
... ")<
doc string
ĠUn pickling
ĠUn pickler
find all
Ġnext tok
Ġ8 0
IF O
Ġad j
xa a
Ġoper ating
Ġsome one
ute x
byte array
Ġdon c
ĠWe b
ble m
xf ed
Par am
link s
Ġus ual
extra ction
predi cate
mt ree
Se quential
Ġ'- ':<
06 2
Ġfloat s
23 1
Ġerr read
Ġpas ses
Un able
Un iv
('- ',
Ġtop ic
Ġtop ics
ĠAP PEND
Lo gistic
Di ff
{} '.
ts v
tk inter
field names
rb f
Ġob type
Ġparent s
Ġimp licit
sig int
.* ?
Ġregist ration
stop words
SSL Context
Ġhash lib
PRE C
AK EN
ĠBase Exception
Py HASH
fin der
ire ctory
av ig
=(' ',
Ġdiv is
Ġdete cted
Ġbit map
poly gon
contain er
Ġsa ys
ident ifier
Ġren voie
Log R
Pipe Transport
soft space
fram er
atal og
DA Y
change log
>################################################################ ######<
bre ast
Ġaudio op
LD SHARED
LIB RARY
Ġcopi es
ĠABC Meta
bp bynumber
APP ED
frozen set
Ġutil ity
ĠCal culate
ĠBuffered Reader
ĠStack Object
FFFF FFF
Result s
neuron s
req s
Ġmovi es
Ġschedule r
TR UE
termin ated
Ġcau ses
Ġbra nch
ĠCurrent ly
ĠBu ild
ĠZip Info
Ġtransl ation
ĠPos ix
Ġstartup info
IMP ORT
stu dent
Ġ### <
-------+ -------+
Mutable Mapping
Ġdeclar ation
Speci al
Ġdeci de
cipient s
produ cer
345678 9
rout ine
FUT URE
Sup port
EXTEN SION
ĠIDENT ICAL
ymb ol
Ġsamp width
ĠGHA IN
! )<
' %
' ",
. '
2 321
3 77
> *
> })<
C ES
F L
G RAM
L M
L ATED
L ines
M ar
M obile
S peed
S oci
T ra
T ry
V er
V ari
V alidation
W arnings
_ "
_ ",
a ys
b h
b num
d owns
e m
f stat
h an
h ow
i ed
i vo
i ÄĻ
j e
n ative
r nd
s leep
t c
t g
t ary
t qdm
u ate
u fed
w r
y ellow
¥ ¼
Ñ Ĩ
å ı
ë ¥¼
ì łľ
Ġ Ã
Ġ vectors
Ġ live
Ġ liczba
se l
in p
Ġt ot
le ted
Ġ# ===============<
Ġ' ')
Ġc at
me th
ar cname
te ner
Ġp ca
Ġn ie
Ġe ns
Ġe ducation
Ġs py
Ġs ay
Ġs lash
Ġb d
Ġb as
Ġb tn
Ġb irds
Ġb owling
Ġin serted
Ġif p
Ġm one
Ġm ixed
IN IT
Ġ( `
Ġ( .*)
ĠC HO
ĠC HI
an tes
pt im
ĠT ho
ĠT EH
un et
Ġ" [
Ġ" \\
ĠD AG
di c
ul ated
ĠA g
ma gic
is module
Ġex clusive
ke t
ex ist
ex ecutor
() '.<
ĠI gnore
Ġh ue
Ġh yper
el y
ab lished
ab iflags
ĠW hat
AP I
Ġfile mode
Ġdi f
IG H
Ġ[ _
ĠP SI
Ġle ap
Ġle af
Ġle ftover
to ordinal
Ġ% .
tra cing
LE SS
RA CT
Ġme as
ĠO per
Ġg amma
ĠM ore
Ġline term
Ġimport ing
Ġy y
Ġal ter
ĠU SE
ĠG ra
ĠG roup
'] ].
Ġpro grams
Ġen tered
ub e
Ġget ter
Ġget state
Ġch aque
Ġarg repr
per s
': [
Ġset params
Ġun able
assert Not
Ġv isual
lif y
Ġcomp liant
Ġcomp aring
Ġcomp licated
ĠBO TT
Ġk eras
=' ')<
ne ous
Ġout liers
[: :
ers on
ĠĠĠĠĠĠĠĠĠĠĠĠĠĠĠĠĠĠĠĠĠĠĠĠĠĠĠĠĠĠĠĠ ĠĠĠĠĠĠĠĠĠĠĠĠĠĠĠĠĠĠĠ
De tection
cal lees
QU OP
ll ation
Ġ: ]
fa iled
pi oid
Ġmo bile
date s
Ġint ro
US S
Con nect
22 0
22 29
Ġlog ic
new er
12 7
sk y
Ġ'. '.
SE CTION
Ġ5 6
Ex ists
SC HE
be hind
ĠZ ETA
)) )
ml models
Ġuser home
com municate
open er
AD D
Ġper met
Ġval s
Ġ[' /
Ġfin ding
cate gor
vo ke
Ġad justed
Ġcom municate
Ġqu it
address list
xc c
Ġcv detection
ans wer
ĠHE H
ĠHE LO
skip Test
sock opt
Ġ7 0
Ġ7 5
iso format
23 20
Un known
block size
Ġtop down
Lo cal
Ġoptional s
send cmd
ĠPre processing
locale conv
Ġlock s
Ã© e
mark down
au dio
Ġsend file
initial space
cap italize
Ġ12 7
To ken
Ġnormal ized
SV M
dire ction
ob s
ĠClass ification
PRO JECT
xy z
Ġgenerator s
Ġì ł
inst alled
ĠPo ol
Ġshow s
Ch ild
sen tence
BO UND
Ġcolon ne
ass ign
Ġqui ck
euc lidean
ĠPy PIRCCommand
Ne gative
ient o
Ġclean up
heap replace
ĠAdd itional
ĠMake file
12345678 9
12345678 90
leg losc
istics Error
Ġpat ches
Sh ow
ìĹ ¬
IM EN
draw ing
Ġturn ed
ĠInvalid Operation
SD K
Ġdecl startpos
Ġter ms
ABC Meta
(', ',
cert file
Ġhome cls
ĠLAM DA
she arfactor
Ġexpect s
Ġredu ctor
ĠType Var
ĠTrain s
Ġmajor Version
IFI ED
Instance Norm
Ġvale urs
Ġcum ulative
ĠCON FIG
ĠCount y
Cor outine
Qu it
nos pace
ĠBad ZipFile
ĠPipe line
ĠPick ling
ĠEMPTY STRING
STORE D
We ak
xffff ffff
ĠPure Path
Ġpotent ial
Clean ing
Ġfore ground
Ġalt sep
ĠStr ucture
Raise d
ĠColumn Transformer
ĠINTER SECTION
yout ube
oriz ontal
mai lfrom
ĠìĿ ¸ëį±ìĬ¤
Ġconvent ion
Ġlaw Emp
DEV NULL
CLO SED
Ġpix els
cend ing
ĠTfidf Vectorizer
Ġgar b
FIL TER
Ġment ion
stretch factor
ĠArab ic
Ġcolli sion
ĠUnpickling Error
Speed Button
Soci al
ÑĨ Ð¸
ĠDAG GER
ĠBOTT OM
QUOP RI
Exists Error
" )))<
' ^
) ",<
+ -
; '
? [
A A
A Y
B J
C N
C UT
C AC
D Y
D rive
D ell
E Y
E QUAL
F T
F inal
F ield
F lag
G raphics
L ast
L inux
N S
N OP
N ormalize
N inety
P ure
P db
S OL
S alary
V I
Y Y
] ._
] ==
] ",
] ],
f uel
h ar
h int
i ol
i ocp
j ump
j kl
k it
m box
m utable
n ested
p class
p db
r ule
s ift
s NaN
t ions
u la
v ived
x text
x dd
x fd
Ġ ):<
Ġ ._
re use
Ġt up
de t
Ġa f
Ġa vail
Ġ' ...
Ġc lf
Ġc ss
Ġc ygwin
Ġf etch
Ġf ragment
Ġre name
Ġre cv
Ġre ferencia
"" )<
Ġs napshot
ct ime
ing u
ra dd
it als
Ġb an
Ġin variant
ce ll
pe p
ss nd
co ver
co mma
co eff
Ġde p
Ġde pend
Ġde velo
ue s
IN PUT
ĠS B
ĠS p
Ġis pkg
ĠC Python
ĠT ree
ri c
ri an
ad ow
ad ding
un ted
ve red
ĠD B
ĠD ET
ĠD WORD
ĠN AME
Ġco okie
Ġst u
__ }
is abstractmethod
Ġex ha
(' ')<
get members
get addrinfo
Ġth us
Ġh int
iz a
ĠW INFUNCTYPE
ĠF ull
ĠR est
ĠR GB
ĠR oman
def path
ĠB ayes
ĠB abyl
ĠP db
ĠE ither
list s
Ġlo t
Ġme th
), )<
ĠO utput
Ġg ray
Ġse mi
Ġal though
ĠU sage
ĠG EN
'] ).
py doc
type name
args pec
ĠH AS
__( <
Ġhe ld
no te
ust ed
Ġun ion
Ġun locked
Ġwe ak
ms i
Ġpa ste
pla n
str ptime
Ġnum ero
ED ENT
Ġtype d
back up
01 61
01 60
In f
ĠDe bug
if p
Ġ(' /
ĠĠĠĠĠĠĠĠĠĠĠĠĠĠĠĠĠĠĠĠĠĠĠĠĠĠĠĠĠĠĠĠ ĠĠĠĠĠĠĠĠĠĠĠĠĠĠĠĠĠĠĠĠĠ
Ġstr ong
act iv
([ ^
St orage
Ġchar map
Ġat tach
us ic
trans fer
Ġz f
ĠK on
Ġsh r
new obj
of p
Ġfa ctor
end o
ĠSt rip
ĠSt rictVersion
Ġopt imal
Ġstart pos
Ġab bre
kw only
)) ))<
tt ributes
LA ND
the re
Ġtrans parent
group by
Ġover written
user site
Pro gress
Ġ[' -
find Lib
EX IT
ĠTH IS
Ġdir only
win error
Ġqu oting
ay er
Ġback log
AB IL
Ġdon n
Ġsupp ressed
OP TION
Ġtar ball
abs olute
skip ping
pipe s
Ġthey ear
cp arts
Type s
Ġbo otstrap
Ġskip initialspace
inter val
Ġpipe s
Ġmark up
ĠCh unk
Pre dict
pk gs
ource Warning
warn msg
ĠPro blem
201 4
DEF LATED
stop ped
Ġreg ressor
SSL v
SSL Socket
Ġsplit drive
Ġcommon ly
Ġnecess arily
COM PRESS
ĠUN C
Ġident ifier
rand n
cho ol
CP P
43 7
FAIL URE
Not Implemented
Ġcomplete ly
Ġfont size
HO ST
Ġ// =
medi an
ĠPo licy
ĠCreate s
loy ed
div mod
Ġaccept s
OUT INE
job s
Ġexpression s
Ġcent Dir
CC ESS
ĠSo cket
CRE ATE
sor izer
Ġsw ig
ĠHel p
ĠAs sertionError
ĠABC s
gre eting
ĠMSVC Compiler
separ ated
Ġ----------------- ---
PEND ING
SER VER
Ġprece ding
One Drive
const s
subclass hook
COR OUTINE
sd k
contin uation
PL ACE
Descriptor Type
ĠRes ourceWarning
Mix In
ĠSO CK
sca ler
############## #<
ĠRaw Turtle
Ġapplic ations
Predi cate
Ġeas y
Ġeas ier
los ure
let ters
Ġvale ur
Ġcategor ical
ĠAli ases
vv vv
Ġcyc le
ĠTh us
Ã¨ s
Ġhol ding
Ġretrieve d
Fe atures
Ġtensor flow
ĠGaussian NB
pw uid
ĠEU RO
Stat us
ĠSelect ing
ĠLink Error
inher itable
ĠWAR RAN
Ġhexa decimal
Ġgarb age
CAC HE
" ).<
$ ")<
% %
' ."""<
' '.
) //
* ,
/ (
4 80
> (
> .<
> '.
> ;<
? \
A uto
A UDIO
B asic
C ALE
C urrent
D ig
F H
F OR
F OO
L a
M ONT
N F
N ext
N ote
O LE
P N
P R
P ed
P rice
R PM
S un
S IGN
T urn
U KRAINIAN
U sage
V ers
V isual
W IN
W aiter
W IDTH
Y U
Y ES
] }
_ .
a ix
a ined
a va
a ire
a Locations
b ayes
c rypt
d ler
d rain
d ynamic
e igen
e ffect
f handle
g name
g reg
i q
i um
i ous
k h
k i
l da
n te
n od
n iter
o ok
p list
p ic
r len
r aries
t im
v p
v isual
w ar
w id
y au
z al
z ure
} "<
² ´
´ Ð»
´ ë¦
Å º
Ð ¿
ì ²´
Ġ å
Ġ Ñģ
ľ ðĿĳ
Ŀ ì²´
in c
re k
re ferencia
Ġt s
at is
de dent
de vice
Ġ= <
Ġ= ",
Ġa i
Ġa mb
Ġa ffect
er man
he ns
Ġ' **
Ġ' ').
Ġc ra
Ġc mp
Ġc rc
Ġc zy
Ġc amera
al locate
Ġf ine
Ġf ully
ar ize
ar acter
Ġp t
Ġp lease
Ġre named
Ġn channels
Ġo u
Ġs d
Ġs dist
Ġs Äħ
Ġs lave
Ġs kew
Ġ- <
ra nt
Ġb atting
Ġin c
ce eded
co st
Ġde cor
ge ns
Ġd ane
ut ime
ut ions
ame nt
Ġm il
ĠS ource
ĠS afe
Ġis cased
ĠC P
ĠC lean
ĠĠĠĠĠĠĠĠĠĠĠĠĠĠĠĠ ĠĠĠĠĠĠĠĠĠĠĠĠĠĠĠĠĠĠĠĠĠĠĠĠĠĠĠĠĠ
pt arget
ĠT CP
ĠT imer
Ġto ke
Ġto ols
Ġfor ms
Ġfor mal
ĠN T
th ird
th ousands
ine ss
ĠA toB
Ġst s
Ġst and
__ [
as dict
is digit
Ġex ts
Ġnot ation
get pwuid
ex cel
Ġth ickness
() ).<
ver ted
fi ed
ĠI I
Ġh h
Ġh ar
#### #
Ġcon venience
Ġcon structed
ĠW R
ĠW arning
ĠW hether
en abled
ed Infinity
ĠF aceRecognition
ĠR ational
def s
", ]<
Ġdi strict
con struct
ĠP H
ĠP ix
os fhandle
ĠE SMTP
ĠE YES
to ut
to array
LE FT
et ype
qu er
qu opri
pre amble
Ġg i
Ġg rid
ĠM IN
ĠM AD
ĠM UST
Ġse curity
Ġ2 9
ta gs
ta rek
OR USS
sh own
ĠG reg
test e
ac z
Ġch anging
Ġhe nce
per sed
per iod
pro bab
Ġset pos
Ġset locale
Ġpre mi
Ġcode set
Ġl p
Ġl ub
Ġun et
Ġun its
Ġun quote
Ġun specified
cur index
Ġclass ifiers
red its
Ġtra ps
mo ck
Ġx refs
Ġlist en
ĠX GB
pla ys
Ġtest ed
Ġcomp act
str zal
back slash
ĠRe port
ĠRe gist
Ġwhe el
dict s
ĠDe precated
Ġne got
Ġne arest
ec ted
format ted
Ġsub dir
Ġ: ",
') .<
Ġ-- <
Ġint ros
US H
Ġtext var
OT H
Ġac ct
tent ion
Ġcheck er
sub tract
var names
SE ARCH
app ush
Ġinter medi
Ġ5 9
Ġtrain X
cmd class
AN CE
Ġerror Tab
)) ):<
Ġcor ner
open ed
AD I
Ġtrans formed
]) ]))<
Ġdescri be
File Name
Pro duce
sy ntax
vo tes
win reg
ĠST D
copy doc
Ġent re
ĠSe cond
exp onent
local time
Ġ& =
Ġman gle
Ġbin arize
has attr
OP T
Ġcopy right
mit ive
addr s
Ġ... ,
target s
ĠRE CT
Ġfloat ing
gn u
EL ORUSS
ICE LAND
compiler s
33 0
Ġconfig ure
Ġbound aries
Ġsee m
Ġwant s
bd river
ĠAN N
Ġheaders only
ssl copydoc
zen ie
first lineno
dete c
ĠArgument Error
Ġmonth s
Compile Error
Ġtable s
ĠTurtle Graphics
Ġabs path
support s
Ġreplace s
201 7
rel ation
Frame work
su ch
ðĿĳ ľðĿĳ
Ġescape s
Ġpop raw
Ġstrip ping
Ġtermin ate
={ :.
xfe f
Ġexecutable s
ĠMED IAL
ĠFile ExistsError
Ġda ily
Ġsp ill
LINE AR
Ġì Ĥ
String Var
Ġcap ability
go ogle
ĠEn viron
SH UT
Dist ribution
ĠDef ine
Pipe Error
lin ux
Dis play
Dis criminator
Ġnumeric ally
squ ares
ĠCol or
ĠAss umption
ĠGROUP REF
Ġcho ose
vis it
ĠÐ ´Ð»
decimal nl
expand tabs
Ġmove d
SUP PRESS
ĠPer ceptron
mailbox es
dat um
Ðµ Ð½Ð¸
NOT IFIED
ĠText IOWrapper
Ġsent inel
ĠDi ct
ĠDi ff
Ġret val
radi ans
ĠName d
ĠMo ve
Argument Error
Ġpick ler
called funcs
unix from
Open Key
MM DF
Ġhist ogram
Ġhard ware
Ġaut oraise
Loc ator
Mo yenne
VAL UE
tre es
Ġaltern ate
Ġenc ry
ĠUser String
Ġmeaning ful
Ġed it
ĠWin sorizer
gy m
FIELD S
criter ia
ynamic Class
fail ure
ĠProcess PoolExecutor
structured text
Or deredDict
moc rat
fic ers
CHAR SET
Ġsubpattern append
ĠPredi ctions
'} :<
WINDOW S
SUFFIX ES
Ġpreprocess or
aaaa aaaa
ĠSD SS
ĠInte le
ĠBY ELORUSS
Ġunix from
Product Name
On ly
ĠSh ape
ĠStat isticsError
Main tenance
Ġtim ing
Ġtim ings
Ġcirc le
Ġcirc ular
Connection Block
eh lo
Skip ConnectionBlock
Float Tensor
Sign edInfinity
Ġinf os
Ġlin ked
Ġaccur ate
Ġ53 22
Ġeuc lidean
Ġdistribu ted
BAD F
Section Error
andardi zing
Ġfrac part
ĠLP INT
Ġdestroy ed
Ġê° Ŀì²´
Ġvent as
edu cation
ĠMultip le
Ġtech n
scal ar
BOUND ARY
ĠPickling Error
ingu ish
ĠDET E
Dig ite
Ped dler
Vers i
´ë¦ Ħ
ĠFaceRecognition Manager
ĠMAD DA
strzal u
ICELAND IC
ĠÐ´Ð» Ñı
ĠBYELORUSS IAN
" ^
' (
) ],<
* .
. /
. ]+
2 006
2 13
6 20
= (),
A ut
A IT
B ar
C ERT
D T
D ID
D ay
E l
E VEN
F ail
F oo
F UNCTION
F AST
G L
H KEY
H ITES
K H
M ac
N ORMAL
P S
P T
Q P
R ow
S ource
S oftware
T CP
W X
Y MENT
] .__
a head
b ra
b asic
b lake
c file
e u
g ne
g uess
g iven
g rouped
i u
k ill
k ie
m usic
n sed
n ight
n gettext
r z
s un
u so
u law
x form
y x
y ou
y our
Ã º
Ã Ń
Ġ limited
in vert
in stream
re search
Ġt weet
on Multipart
de sh
st s
Ġ# ################################################
Ġ' :<
al or
Ġf o
Ġf ram
Ġf lavour
Ġre m
Ġre duced
Ġre direct
Ġre moving
ur pose
Ġs af
ing w
ra d
ra ms
ra ctions
ra desh
it a
Ġb i
Ġin package
Ġin dependent
nt ype
la neous
pe ction
co d
co lab
co okie
Ġde cre
lo ok
Ġd up
Ġd ynamic
Ġm arg
Ġm ount
ĠS U
ĠS u
ĠS ans
ĠS creen
AL AW
ĠC are
ĠC ont
ĠC TE
ĠC ALLBACK
""" )<
an ies
ĠT K
ĠT emp
ri val
ri ding
ri but
ĠN ode
il ds
il tin
ch er
__ "
Ġex pr
Ġex ternal
Ġnot ify
Ġnot done
(' ',
(' "',
get timeout
get resp
ex pression
Ġbe have
ĠI mp
Ġh ide
Ġh sv
#### <
iz ations
Ġcon form
AP PEND
ĠF ill
ĠF ast
ĠF UNCTION
ĠF utures
ĠF INISHED
id a
Ġdi ction
ĠB ASE
Ġar ithmetic
ĠP ES
ĠP radesh
ĠE max
Ġ% #
tra iling
tra cking
ol at
Ġlo st
ĠM EM
Ġse c
Ġ2 6
Ġ2 20
Ġ2 047
op ponent
read only
read into
Ġma is
ta ched
pl ural
import lib
lab oratory
pend own
######## <
Ġch mod
per f
pro xy
Ġpre set
Re gist
cs ibm
IL LE
Ġun def
Ġun register
Ġun used
que e
Ġclass method
IS DIR
Ġv ir
Ġlist ing
iter tools
Ġpar agraph
init args
Ġcomp ilation
Ġprint able
Ġnew item
vi ation
Ġoption ally
im read
arg count
Ġhas cased
option flag
Ġpo pen
Ġpo ster
De bug
De precationWarning
act ic
Ġsub mit
Ġsub tract
Ġmo ment
Ġat tached
ST OP
64 6
ĠIn clude
ĠIn itVar
Ġany more
rc pttos
work er
sub normal
AC T
LO YMENT
Ġsource get
Ġmax headerlen
Ġexp ressed
server s
check ed
Ġrange s
Ex pired
dist name
Ġwa ited
Ġdoc utils
Ġ'< %
02 13
UP DAT
context manager
Pro file
Pro vides
ĠUn known
Ġdir list
ĠCon fig
iss pace
Data Error
Ġ6 5
Ġ6 55
Ġstate s
Ġback up
Ġparser s
Ġmin utes
Ġman agement
34 5
stra ints
sock name
Se e
target path
can onic
sup press
23 10
Ġposs ibility
Ġass uming
Lo ss
86 3
Ġraw val
network s
Ġarchive s
88 88
ĠCh ange
ĠLo ck
HAN G
range s
na ive
dis assemble
hi tespace
Ġform er
Ġrelease d
Ġimp l
(? :\
comple ted
uid o
specifi er
Ġreference d
buil ding
Ġ'# ')<
executable s
Ġspecial ized
Ġinterpre t
FILE NAME
FILE NO
Iter able
Ġlow est
fill path
MAX LINE
BIN UNICODE
BIN BYT
Ġdot place
ĠFile NotFoundError
filter warnings
Ġtri ed
Ġcorrespon ds
Ġclient s
Ġheap q
Ġsignal ing
Ġsa ving
Ġcustom ize
SH IFT
CF uncPtr
Int Enum
Ġaccept ing
Ġforce load
Ġlanguage s
Ġ'; ':<
WR APPED
raph ique
Ġoverride s
ĠDocTest Runner
Ġblank s
ĠREVER SED
ĠCANCEL LED
tab size
Down loads
leg acy
Module Handle
ĠMo st
mi os
quit ting
DEBUG STREAM
MARK ER
abcdef ghi
Ġattemp ted
Ġter mios
Ġve ndor
******************************** ********************************
Ġinstanti ated
ĠValue Terminal
Ġmulti processing
quant ity
eval uation
012 3456789
Import Error
dia lect
="" )<
Proxy Type
Buffered IOBase
rm dir
ĠDis play
EventLoop Policy
Ġli gne
Ut ils
lamp ed
Cent ral
Ġtr Ã¨s
cel laneous
Ġcyc les
~~~~~~~~ ~~~~~~~~
MOD UL
ĠCo laboratory
Ġutili ser
HER E
Ġfil led
Ġdevi ation
orient ation
FLO OR
ĠLice nsed
Ġcanv height
ĠTimeout Error
Ġdepen dency
Ġvc varsall
allen ge
ĠSW IG
Ġexceed s
DEP LOYMENT
ĠWeak Set
ĠApp lying
REQU I
ĠPermission Error
comb ine
ĠRight s
ĠGN UTYPE
geth ost
Ġpermiss ions
IGH EST
IMEN onMultipart
Auto matically
Ġintermedi ate
ĠTurtleGraphics Error
ĠEnviron ment
ĠPES ETA
UPDAT ES
BINBYT ES
" }
" ]:<
" (.*)
$ ',
' ;
) >
* '<
, %
- >
/ _
1 255
1 99
1 256
2 047
3 0003
7 18
A ss
B M
B T
B inary
B IRD
C Z
C ode
C lear
C ustom
F lo
F WS
G I
G RAY
H R
I dent
J o
J an
K R
L aw
M B
M C
M ot
M ed
M ES
M atch
M etadata
N K
N ow
N ormal
O ENT
O utput
P a
P od
P Server
P oll
R F
R ational
T ask
T AKEN
U UID
U nsupportedOperation
V T
W l
W ith
W IF
] "
] (
] [-
] ])))<
a co
a exit
b are
c he
c dll
c redits
d len
d uplic
e rent
f ort
f ractal
h ouseReps
i mo
i ded
j ab
l Ã©
l ru
l bl
l arge
m os
n ed
o ck
p cm
s nd
s lo
s alt
t str
v pe
v ity
w ine
w ist
w string
x de
y y
æ į
ì ľ
Ġ ser
Ġ 85
ŀ ¥
in om
re la
re structuredtext
Ġt vars
on key
on click
or ds
de a
de grees
Ġa ifc
Ġa vec
Ġi r
Ġi ry
Ġ# ################################################################
Ġc s
Ġc ada
Ġf low
ar o
te x
Ġre li
Ġre mo
Ġre tain
Ġre wind
Ġn m
Ġn ous
Ġn astÄĻpny
Ġo dd
Ġo toff
Ġs us
Ġs cor
Ġs alt
ĠL s
ĠL DA
Ġb zip
Ġin exact
Ġin coming
Ġin dented
ce lu
nt p
pe ek
Ġde grees
Ġd ans
Ġm iesi
Ġm DF
IN C
ĠS Y
ĠS un
ĠS OURCE
Ġis dir
ĠC R
ĠC AN
ĠC ross
an onymous
ad pcm
un jab
Ġ" {
ĠD AL
ĠD es
ĠD raw
Ġfor k
ĠN UN
ĠN aive
il ine
Ġco variant
Ġst ick
ch annel
__ ']<
as ing
is class
Ġex pl
Ġex ited
(' +
(' [
(' :',
get name
get module
int ers
ex cluded
() *
() [:
() '.
() }/
ser v
Error Log
fi re
iz ar
ab ly
ĠW AW
all w
(" {!
en Percent
AP PY
ĠF ancy
Ġas k
Ġas pect
ĠR ect
ĠR UN
con tact
ĠP EG
ĠP ickle
Ġu Å¼y
ap is
Ġ== <
ize s
ĠE nd
ĠE ye
ĠE nsure
ĠE tiny
to ward
-------- --
-------- -<
ol ving
et ree
list en
Ġme ant
Ġdata gram
ĠO bject
ĠO ld
ĠM AN
ĠM icrosoft
Ġline starts
Ġse ri
Ġse lection
Ġimport er
Ġ2 231
ou ght
read module
Ġma chinery
ic ion
'] ])<
key file
Ġget pass
Ġget comptype
Ġch ance
Ġhe appop
no escape
Ġset state
Ġpre amble
ĠDO S
Re port
IL S
Ġr ule
Ġl b
Ġl atin
Ġun like
ip v
Ġtra p
Ġv olat
iter ation
ĠX code
comp iling
comp arison
Ġpa used
dd ate
UT ABLE
Ġk at
Ġk means
Ġnew file
In come
In exact
Ġ3 6
ĠRe ference
ĠRe moving
mal loc
print ables
im ing
im gs
ĠDe lete
ĠDe tect
char acter
Ġhas n
ak y
train ing
option als
option xform
format ive
min c
by e
Ġsub modules
') )
([ ])<
Ġcol width
Ġmo ck
Ġj est
Ġint part
ĠEx per
ĠIn stead
Ġcal c
Con trol
IZ ED
OT CONN
Ġwor ld
Ġsh allow
Ġend point
12 0
12 4
Ġdist in
ĠY app
Ġfirst weekday
sub module
var args
LO AD
ĠDecimal s
word chars
check ing
Ex p
dist plot
close st
long opt
round s
count y
Ġcl one
SC ALE
msg id
Ġdoc loc
Ġdoc umented
mon ic
sign als
AD MIN
the tas
Ġover s
Ġover riding
Ġval name
Ġstack slice
Ġpredi ctor
doc ument
Ġserver thread
Pro jects
Ġnon local
Ġnon negative
ast a
-------------------------------- ----------------
ĠTH O
ĠTH AT
Ġdir path
Ġsupport ing
late st
Data gram
ĠSe arch
Ġqu opri
14 15
Ġback slashes
db g
Ġmin imal
Ġman qu
11 11
Ġbuil ddate
speci ally
show warning
56 7
ax s
Ġ7 8
HE IGHT
IAL IAS
Ġpy c
Ġpy config
Ġarch s
cp u
cent ers
real m
Me mber
mask ValueError
rest a
Ġ100 00
Ġunder stand
\\ \
pri ority
0000 0000
ĠPre process
lat er
over load
Ġchild pos
Ġob vious
Ġob solete
month days
try order
Ġround s
first line
Ġalgorith ms
comple ter
lap py
sig ma
Ġleft most
Ġ9 6
fs decode
buil t
ĠComp are
AS OS
imp uted
rag ged
Ġremain s
Ġpri mitive
ðĿĳ ĸ
ðĿĳ ĺ
87 000
Py PIRCCommand
sq l
Ġident ifies
Le arning
bl it
Äħ c
ĠGen er
ĠUnix CCompiler
big section
push button
Ġnet G
Ġdete ctions
Ġsig moid
go ing
State FIPS
9999 99
Ġcustom er
ĠNe eded
coin s
drive n
SO CKET
ni u
Ġest imat
Ġord inal
indi aLocations
Ġassume s
land ic
Ġmy off
)/ (
Ġissue s
>################################################################ <
ls gan
ĠDo main
Iteration Guard
Ġreport ing
ELL IPSIS
Sub normal
Ġrepe t
Ġrc pttos
Ġplace d
}, '<
async gens
tag ged
Ġbot net
ĠDi ffer
radi us
Ġneuron s
Ġpick led
Poverty Est
ìĹ Ĳ
Ġbg r
ĠDefault s
distance s
APP LICATION
surro gates
Method Type
Distutils Error
Distutils OptionError
ĠSup er
Ġeffect ive
ĠSpeci fy
Ġ"' %
Can vas
equal s
ĠLe arning
Ġinv olve
Ġcomb ined
Ġleg al
ĠOP TION
munic ation
rypt er
istic as
Ġepoch s
Ġredu nd
All Ages
Ġrecom mend
ĠOpen SSL
Ġyiel ding
jis x
Ģì Īĺ
Ģì ŀ¥
Ġnt i
ĠJan uary
GR P
Ñģ ÑĤ
ìĿ ĺ
Ġcategor ies
Ġcome s
ĠAR CH
ĠRo unded
ĠPos icao
Com modity
EMPTY STRING
ĠEng ine
ê° ľ
ĠCount Vectorizer
ĠFe atures
Ġconsist ency
OB J
OB JECT
ANT IALIAS
Ġ================= ======
ĠForm at
solete HeaderDefect
Ġrot dig
ĠâĢ ŀ
020 66
020 63
ĠKMe an
ĠKMe ans
COUN T
COUN TY
GEN ERATOR
ĠNet maskValueError
=======+ =======+
HH Income
Ġmer ge
ĠTS ADI
Ġcommodity Errors
ĠEXT ENDED
Ġsurro gate
ĠUnet SkipConnectionBlock
Environ Guard
vil les
Ġpus hed
Ġclick ed
DIRECT ORY
Ġcance llation
Ġinterest ing
ĠProper ly
ipy nb
Ġslight ly
PREC ATED
ymbol Table
FL APPY
sel ves
Ġìł Ģìŀ¥
Ġmention ed
Ġdep loyment
Ġdonn Ã©es
MONT H
aracter isticas
Ġtoke ntype
quer or
backslash replace
Ġintros pection
OpenKey Ex
Maintenance Form
Ġfram erate
cod able
quee ze
BIRD S
Flo resta
Med HHIncome
Ġscor ing
inters persed
ĠFancy Getopt
ĠPEG ASOS
PovertyEst imate
' })<
' *(
) ._
) ()<
) '.
* ?
* \
- *
. '.
/ {
/ ',
2 10
2 99
2 11
2 0000
9 49
: \\
> {
> ',<
> '''
? ,
A b
A vailable
B A
B o
B RO
B OD
B reakpoint
C HARACTER
C ounter
D D
D ONT
G o
G ID
G CC
I gnore
J K
K T
L ATE
M y
M ark
M ORE
O IN
O ffset
R ect
R PC
S tem
S upported
T IES
U LE
V S
V alor
W ITH
W atcher
W ANT
W HITES
[ \
_ :<
_ ',
b m
b cc
c atch
c lamp
c losure
d w
e pilogue
f re
f no
h y
h its
h ref
j ecut
m all
m nop
n w
n othing
o lo
p df
p atterns
q size
q rst
r set
s dist
u d
u v
u fb
w xr
w xyz
x ies
x refs
z er
z tar
è ¿
Ġ mp
Ġ qual
Ġ route
Ġ 999
Ġ atexit
se cs
se lections
Ġt ilt
de li
de pen
st ub
Ġa dapt
er arch
he lo
Ġ' //
Ġc flags
al aw
Ġf info
Ġf cnt
Ġp ragma
Ġre ce
Ġre call
Ġre quote
Ġe ver
Ġe ye
Ġs on
Ġ- (
Ġ- _
ra ct
ra nce
Ġin structions
ce n
ss i
ss ock
co ordin
co vered
Ġde pendent
lo ye
Ġd w
Ġd as
Ġ-> ",
ame nte
ue st
IN PLACE
ĠS pec
ĠS HE
Ġis abs
Ġ( {
ĠC ap
ĠC NN
pt y
ĠT ermin
ri dis
ri eve
Ġto ol
Ġto wards
AT CH
ad just
un s
un finished
un seen
Ġ" ^
ve ndor
ĠD A
ĠD ONT
ĠD AD
ĠD iv
ĠD ummy
di sk
il TestCase
il legal
Ġco mo
Ġco efs
Ġco unted
ĠA gree
val or
Ġ""" **
Ġ""" +<
__ '<
__ ']
__ ')
is ol
is identifier
Ġex pens
(' @
get reply
get preferredencoding
int ypes
Ġ1 20
># ================================
Ġth ought
() [:-
fi rm
ĠI GN
ise ct
ise ase
ĠW H
ĠW here
ĠW ays
ĠW HERE
ĠF ac
ĠF loat
Ġas cending
Ġor dered
Ġdi ffer
ĠB ig
ĠB asic
ĠB UF
con version
res olve
ĠP a
ĠP e
ĠP SF
Ġu nd
ap ped
Ġle arn
Ġle ts
ĠE mail
ĠE very
Ġlo oked
Ġan n
pre pend
Ġdata classes
IC ATE
Ġg raphique
ĠM RO
ĠM ain
and atory
Ġse maphore
Ġ2 007
Ġ2 006
Ġ2 008
Ġy a
Ġy hat
Ġy ellow
Ġal located
ance d
am big
am iento
dir path
ĠU D
ĠU sing
'< {
out files
ĠV T
ĠV ER
sh al
ĠG o
'] =
Ġch rome
Ġch allenge
Ġhe ur
Ġhe art
ext fileobj
no res
Ġpre ference
IL ER
Ġr strip
Ġl t
Ġun bound
Ġun finished
assert Regex
Ġv string
Ġv iol
comp any
dd r
ho bject
Ġcomp name
str ar
size s
Ġnum erical
Ġtype name
03 42
01 04
01 05
01 19
01 18
In clude
Ġ3 14
Ġ3 27
vi ridis
EN ABLE
ty ping
04 12
04 16
04 19
04 18
om or
Ġtime tuple
], '
ator s
ĠDe c
ari o
Ġnumber ing
Ġstr ftime
HA H
Ġcur ve
min utes
act ers
Ġsub net
') [
85 0
85 6
([ \
fa st
Ġj ulian
fun ctype
fun ny
ĠEx it
ĠIn c
ĠIn itial
Ġcontext lib
DE PRECATED
ĠK EY
Con structor
rc pt
qui ck
Ġdist inguish
var kw
Ġsource match
Ġ'. ',
SE QU
Ġ5 00
20 20
run ner
run ctx
OL D
Ex ecut
Ġopen er
dist s
Ġwa its
Ġmat rice
kw s
Ġmay or
cor r
Ġ"< "
Ġ"< %
xF FFFFFFF
LA Y
Ġ\ (
Ġ'< {}
]) ],
Ġover write
Ġover view
File Header
File Exception
temp orary
Ġwrite lines
Pro c
ĠUn ique
mail cap
shape Index
Ġ8 6
Ġturtle shape
mod s
Ġad vert
Ġevent fun
ĠCon stants
ĠSe le
xx module
bit map
color str
][ "
34 12
Ġload s
Ġdiff s
13 0
Se lection
Ġ'- ')<
06 1
Ġclose fd
Ġindi ce
100 00
Ġcomple tes
23 0
day light
'' ')<
Ġlong opts
Un icode
Un defined
cro ss
cro lled
Ġca used
Ġpy cache
ĠBLOCK SIZE
Ġmod pkgs
environ ment
pop left
") ),<
Ġdebug ged
CH R
socket s
ose Version
86 9
Ġmark ers
man ent
Ġunder line
\\ .
protocol s
global trace
Ġsum s
ĠAn other
annot ate
ĠPre vent
over write
over lap
over ride
Ġmail cap
gorith m
hash lib
Ġimp lied
ĠTest ing
Ġwaiter s
Ġro om
dest ination
Ġsend ing
Ġfix up
ĠMe an
eof s
except hook
Ġnormal ization
NOW AIT
ĠSet up
Ġshort opts
Ġpython api
flow ing
={ !
gin ica
fill na
Message Defect
Close Handle
Address Header
double colon
Ġdeta iled
BIN PUT
cul ating
66 6
Not Available
Ġkeep ing
ĠNO ON
nl tk
disp atcher
('/ ',
ĠPE M
poly nomial
display hook
State Error
pad x
site dir
Ch ar
MENT S
Ġau ssi
Ġcontrol ler
Ġ'" ':<
Ġannot ate
got o
ittle EndianStructure
BO OL
Ġord inary
style s
ja cent
Per AU
Ġindic ated
cer ts
ĠSOFT WARE
Ġiso format
bz tar
Ġpe op
Ġrc pt
Time out
multip ly
Ġpkg util
heap ify
Ġprobab ility
stanti ate
bp list
Ġdec la
remain ing
Ġreason able
Ġvis itor
SHA KE
ĠIO Base
cons istent
Ġstatic method
mar ize
ĠBuffered Writer
ĠStack Summary
Mo ve
}. {
schedule r
Ġpercent age
Ġinv ocation
Ġcomb ination
ĠBIN INT
Over lapped
Over flowError
Comple ted
Cal culate
same file
}: {
IFI ER
Ġmis ses
direct ive
!! !!
Ġcoordin ate
Ġtransl ated
HAND SHAKE
Ġ199 4
yp hens
Ġrespon s
SPE CIAL
ai ff
Ġspe cs
Ġconsist ing
Num eric
Ġpie ce
bi os
ĠCH AR
Ġpotent ially
Ġhol ds
TMP FILE
Ġradi us
FLO AT
ĠLice nse
Ġcanv width
ĠTimeout Expired
DOT ALL
Getopt Error
Raw IOBase
helper s
ĠREAD ME
currentLine Item
PRI V
ĠÃ© lÃ©
attach ment
ĠCalled ProcessError
bet ween
clas sed
asyn cio
Ġdia lect
ĠBdb Quit
Ġconj unto
longcmd string
Ġul x
ĠMan ual
ĠMode lo
LIN ES
Ġtw ice
ĠPAS O
Ġresize mode
wr ong
Ġmone tary
Ġmeas ure
Child Watcher
VI EW
jkl mnop
mbox MMDF
det alle
Ġexha usted
ĠWARRAN TIES
tim ings
Ġmil li
ynamicClass Attribute
Ġtechn ique
Fail ure
ĠCont ribut
Central Dir
MODUL US
ĠMAN IFEST
Ġestimat or
Ġrepet ition
Ġredund ant
BOD Y
qrst uv
Ġfcnt l
ĠAgree ment
Ġexpens ive
ĠIGN ORE
NotAvailable Error
ĠContribut or
qrstuv wxyz
! ")
$ '<
( """
( **
) [-
) (?
* [
+ '
+ ')<
- ',
/ '
1 64
1 007
5 50
= ",
= ')<
> #####
A I
B Y
B est
B ind
B ZIP
B INGET
C AP
C ache
D ET
D ND
D ob
E BUG
E INVAL
F ilter
G re
G AP
G aussian
H D
H SV
M at
M SC
M ISSING
M ESSAGE
N ode
N UL
N ull
N ie
O sc
P I
P ad
P rivate
P KG
P ATTERN
Q R
S al
S AT
S pace
S ingle
T h
T IL
T ire
U h
U CE
V ir
V illage
W rit
Y AM
[ %
] ")<
] ))
` .
a h
a Å¼
b mp
b os
b hi
c le
c ations
c sock
c ards
f l
g c
g idx
g mtoff
g amma
h ue
h ib
i B
i os
i ac
i ckets
j rel
k m
l or
l ations
l zma
m eros
o ssible
p g
p andas
p wn
p ats
p gsu
p unctuation
r h
r ules
r mtree
s i
s nan
t up
t pl
t Ã³
u k
u pt
x s
y rillic
¬ ì
° °
² Ķ
· ®
¼ Ð¸
Ã ±
Ñ ĩ
å ·®
ë Ĭ
Ġ ))<
Ġ íĸī
Ń ìłľ
se ss
se rial
se tenv
in clusive
re cogn
Ġt runcated
or zyst
Ġ= ==
Ġa py
Ġa ware
Ġa ktualna
le ap
Ġi ps
er n
he lf
he ses
he appop
Ġ' '))<
Ġ' '),<
Ġ' )'<
Ġc el
Ġc run
me m
Ġf ancy
Ġp text
Ġp tout
Ġp acz
Ġthe month
Ġre d
Ġre ly
Ġre fold
Ġn an
Ġn est
Ġo ctal
ur od
Ġe cho
Ġe specially
Ġs it
Ġs ont
Ġs NaN
ĠL atin
Ġ- --------
ing MixIn
ra n
ra pe
ra cy
Ġb j
Ġb unch
ce landic
ro te
co logical
Ġde ux
lo ves
Ġd d
Ġd isease
ut ro
ut if
Ġm d
Ġm l
Ġm art
ĠS anc
ile r
Ġis function
Ġis junk
li k
Ġ( --
Ġ( '<
ĠC ERT
ĠC lasses
ĠC enter
Ġdef in
ET IME
an o
an ci
an ia
pt itle
one no
ĠT elnet
ri ck
ri ori
un safe
un consumed
Ġ" $
IT ORY
di ent
di abetes
ĠN B
ĠN ext
ĠN ull
il led
il tro
Ġco erce
ul y
ul Ã©e
ĠA ST
ĠA just
ma le
ch g
ch ksum
ch ilds
__ "):<
is ation
is cellaneous
Ġex tent
Ġnot ified
(' #
get ters
line buffer
Ġ1 50
Ġth ousands
od ata
Ġra ze
Ġ+ -------+-------+
Ġ+ =======+=======+
ise s
Ġcon tro
ĠW ILL
ĠW EIGHT
(" >
en der
en gth
ed Parser
ĠF ake
Ġas list
id ing
ĠR Lock
Ġfile out
Ġor g
Ġdi rc
ĠB l
ĠB ea
ĠB IAS
ĠB INGET
Ġ[ *
Ġar r
con ver
con tra
ap ted
os c
Ġle aving
ĠE st
ĠE val
to ol
ol ar
es o
es z
RE SH
Ġlo ves
Ġme todo
pre serve
ĠO E
ĠO CT
ĠO VER
ĠM M
ĠM OD
ys ok
ys cological
age SexRace
ow anie
Ġse leccion
Ġ2 002
Ġ2 50
Ġal one
ĠU S
ĠU ses
ta ken
OR ITY
ND IFF
ĠV eh
ding s
sh ip
sh are
ĠH and
Ġfrom lines
key encoding
Ġget source
no resize
Ġpre served
Re al
Re pos
Re fused
Ġr m
Ġun wrap
Ġun encoded
Ġun structured
mat izer
Ġtra ces
Ġv an
Ġx s
par skip
col group
col lapse
ĠX app
comp liant
Ġpa re
ho g
Ġtest dll
Ġcomp iling
len ium
Ġk tÃ³
01 06
01 42
01 07
jo int
Ġnew count
In struction
Ġ3 02
ĠRe pair
EN OENT
Ġout fp
04 25
04 01
04 04
04 22
04 10
04 20
04 32
04 15
04 14
04 11
04 34
04 13
04 23
04 17
04 42
04 30
04 24
04 21
04 07
04 29
04 27
04 28
04 26
Ġpath names
om b
). '<
Ġtime it
po ols
ak i
Ġsup posed
ec zy
led u
led ge
ition ally
Ġdefault ing
Ġcur sect
min us
min imum
by val
=" .
Ġsub classed
Ġcol lected
Ġcol lapse
Ġ-- >
ST EM
Ġint ral
ĠIn exact
Ġup conv
not ab
atter y
num ero
ĠK Fold
split s
OT HER
Ġsh a
Ġhave n
ribu ted
Ġmessage box
default locale
compile d
Ġformat value
Ġdist name
ĠY O
Ġfa ire
state Name
Ġtrain Y
cmd line
ĠSt d
ĠSt udio
Ġap riori
Ex ample
Ex tension
Ex ped
Ġopt name
'. '<
Ġsy nc
log R
32 7
)) ),<
(_ ('
mon day
mon otonic
Ġcontain ers
): ]<
Ġinit ially
ĠSE EK
Ġgener ates
Ġcompile s
Ġper iod
point A
sys cmd
Pro vide
Ġfin ds
Ġpoint B
Ġ8 192
IF MT
ĠCon figParser
ression Error
Data Loader
ĠSe lection
Ġstop word
ĠFORM AT
Ġ6 3
ref er
color bar
ĠJ o
ĠJ utro
(* ((
Ġlocal time
Ġroot s
He ad
show warnmsg
rect ly
Se maphore
top fd
ton s
Ġver s
current ly
gn es
Ġerr msg
Ġ'_ ')<
src name
Ġtop level
") ;<
vari ables
Comp ressor
Ġinstall ing
Ġlib file
Ġlib paths
KEY S
Ġig nores
rest ore
OD O
inter act
inter preter
WO BJ
eg g
eg o
ĠCh ild
ang ling
ang uage
ĠPre vis
ĠData Process
BU F
Ar r
Ar rival
month s
Ġparent heses
mark object
ssl pipe
21 16
Ġlocale name
Ġlocale conv
ĠPro file
Ġdll wrap
fn match
ĠTo ols
044 0
044 1
044 3
044 4
044 5
044 6
044 7
044 8
044 9
transport s
ert ificate
optim izers
201 0
201 5
su ptitle
ĠComp uted
ĠComp arison
cursive ly
Ġ'# ':<
Trans pose
]] ])<
PRE DICT
parser s
ipe dia
Ġpop ular
Ġtermin ating
Ġtermin ates
Version s
Ġdocument s
Read Error
Le aky
('. ',
ĠEN ABLE
ye on
ĠSMTP Server
pair wise
CP T
BIN INT
=% (
Option al
27 3
043 5
043 6
043 7
043 8
043 9
ĠMA I
Res p
Ġfilter func
Ġshape s
Ġnet D
Ġsp acing
Ġbit coin
ĠInter active
LINE BREAK
Ġsig cls
ĠMIME type
String Map
Ġcap ath
ĠAl ways
ĠPo ssible
48 3
gra dient
045 1
045 4
045 7
Ġ'\\ ':<
pad y
pad ded
nb its
Ġstrict ly
Ġreader mode
ĠNe uron
ĠDef ines
Ġtz name
bad modules
ret val
ni ff
Key Error
Dis position
]+ )\
Ġunique ly
ÅĽ Äĩ
Ġmy tz
================================ ================
pp c
ĠDocTest Parser
Ġcent dir
Ġcent roids
>################################################################ ##############<
ĠCol unas
Ġbegin s
comment list
Age Cate
Exit Stack
Ġdrive n
CRE AT
Ġph ysical
Ġhex tets
Ġ'(' :<
ĠAdd itionally
Ð½ Ð¾Ð
Ð½ Ðº
report flags
ĠVari ables
tab lica
assertIs Instance
Argument s
Ġcopi er
Ġloc ations
Ġmaint ained
Ġage SexRace
ĠCommand s
bp number
Ġbg color
ĠRaise d
Ġturn s
ĠInvalid FileException
Ġë °°
ĠLib Error
ĠLib rary
ĠLib raries
ĠMac OSX
Ġ----------------- ---<
LT D
Ġter m
ĠReg Error
Ġentire ly
Ġutil ities
Ġut coffset
Ġoperator s
Loc ation
memo ize
Ġdimension s
enum erate
xz tar
LITERAL S
Ġcomb ine
ĠOP EN
Ð¾Ð »
MAC OSX
Ġ': '<
Ġcont ributed
Ġscheme s
ĠBe fore
ĠMail box
termin al
Comple te
ĠCO UN
ĠThread PoolExecutor
same stat
Ġte le
Obj Id
Ġmar shal
fic ult
++++++++++++++++ ++++++++++++++++
Ġli gnes
Ġdrop na
Ut ilTestCase
ĠAp pend
ĠAli gnedDataset
ĠFin ds
ARCH IVE
Ġefficient ly
Ġedge color
By Zero
#! /
delimiter s
Division Error
Of ficers
Inte l
xxxx xxxx
INVAL ID
Ġidentify ing
SK IP
assembly Ident
ĠUt ils
memory view
buff ered
ĠbÅĤÄĻd ny
ĠBroken PipeError
ĠEl se
sym table
Ġ+-------- ---
ĠKNN Imputer
Ġminim izer
PRI ORITY
Ġwild cards
Ġanal y
Ġ41 22
Fa iled
wik i
wik ipedia
Ġcle ared
resample d
Ġsynt actic
Ġë³ ĢìĪĺ
RD WR
alth y
Ġkol um
ĠInst aller
Ġwriteframes raw
Ġrepeated ly
Ġimput ados
Ġmas ked
ĠFizycz nej
ĠEmocjonal nej
Ġlamb a
Ġprof iling
Ġens ures
exist ing
Ġdif ficult
assertNot In
pioid Disp
SCHE MES
categor ical
ĠSp rawd
Ġstu dent
activ ate
kh aki
Ġconfigure d
ĠìĤ Ńìłľ
ÐµÐ½Ð¸ Ñı
Versi color
Row s
Ġdiction aries
abcdefghi jklmnop
Law Officers
Mot or
Pod ano
fort un
ìľ Ħ
Ġiry s
Ġstick y
Ġmanqu antes
ĠKMean Clustering
Stem mer
erarch y
ambig uous
ĠSele cao
Ġpeop le
DND EBUG
Dob ry
Osc ar
Uh yeon
pwn am
²Ķ ìľĦ
sess or
Ġapy ori
Ġcrun cher
urod zenia
utif ul
Ġmart w
Ġraze m
Ġcontro lling
ĠBea utiful
yscological y
ĠVeh icle
Repos sessor
eczy wist
Ġintral ine
Exped iter
ertificate Error
Leaky ReLU
AgeCate gory
Ġë°° ìĹ´
assemblyIdent ity
$ ')<
' ')<
' [^
( ('.
) (*
* '
+ '.
+ )',
, (
1 048
2 000
2 147
4 30
5 01
6 11
7 75
7 65
9 32
: ]))<
> =
> (?
B G
B l
B ack
B UT
B EG
C md
C rop
F unctions
F requency
F utures
F INISHED
G HI
H K
I celandic
K Q
K NN
K Fold
L V
L NK
N T
N et
N avig
O ptim
P K
R aj
R Lock
X PATH
[ [
] (?:
_ ":
b k
b ak
b count
c andidate
d x
d os
d ating
d ash
e o
f qname
g a
g if
g mt
g auss
h z
k in
l ation
l shift
l xml
m ero
o ms
p n
p x
s low
s ince
s ider
s lave
t is
u z
w cs
w sp
ä ¹
å °
Ġ ),<
Ġ ..
Ġ job
re r
Ġt fidf
on gs
or ator
or med
at ime
de leted
st uff
Ġa len
Ġa wa
le ading
Ġi ds
Ġc u
Ġc lamp
Ġ0 8
Ġf re
Ġf ive
Ġf ds
Ġf qname
Ġp u
Ġp stats
Ġre q
Ġre ach
Ġre vert
Ġre pository
Ġn cb
Ġn ormpath
ur ious
Ġe v
Ġe poll
Ġs an
Ġs pos
ĠL F
ĠL abs
it ulo
Ġb box
Ġb order
ro ve
la zy
ss um
co v
Ġde cision
Ġde rivative
ge red
Ġm i
Ġm im
Ġm box
ER Y
ĠS K
ĠS AD
ĠS imilar
Ġis class
Ġis atty
li ck
Ġ( ))<
ĠC luster
ĠC ygwin
ĠC HECK
Ġdef ining
ĠT k
ĠT ries
ĠT erminal
ĠT ODO
Ġto lines
un ion
Ġ" ;
Ġ" >
Ġ" )"<
ĠD irectory
Ġfor get
di ag
ĠN E
ĠN orm
ĠN ormal
ate gy
Ġco oked
ĠA ct
ĠA ut
ĠA ttributes
ma bly
Ġst ar
ata gs
is function
is atty
set ting
set timeout
Ġnot ion
ATIN G
(' {!
get uid
get peername
get randbits
up dated
line starts
line junk
Ġ1 02
() -
() }
() ')<
() ['
() ])<
Ġbe gidx
ĠI AC
Ġh ints
Ġh alf
Ġcon stant
um ulative
ĠW ord
(" --
(" __
ed y
id ad
ĠR ed
ĠR AN
Ġfile list
ĠB o
ĠB ound
ĠB EH
ĠB inary
Ġ[ ,
con t
ĠP andas
ĠP erson
Ġle ak
ĠE nt
ĠE jecut
to o
tra fo
-------- ---<
list a
class name
Ġan onymous
Ġme t
pre vious
ĠM AIL
ĠM EEM
Ġwith year
est ablished
Ġse a
Ġse l
Ġse nsitive
read link
Ġma gnitude
lib s
ĠV alidation
from timestamp
ĠG U
ĠG radient
ĠH H
ĠH igh
ĠH MAC
Ġget nframes
Ġget sampwidth
Ġget nchannels
Ġget framerate
pro b
pro ba
no op
no tes
Ġpre pend
Ġpre pended
Re ply
** """<
** (-
Ġr ational
Ġl dflags
Ġun link
Ġun defined
Ġun pickler
Ġun modified
assert Gre
mat ic
Ġv il
Ġx ml
Ġstring prep
comp onent
comp ose
comp ilation
ION S
Ġpa ger
Ġcomp ares
size EndCentDir
03 0
03 2
Ġbu gs
Ġk illed
01 23
01 43
01 44
01 41
In i
Ġ3 9
vi er
Ġsys call
[: :],
04 05
04 33
04 08
04 31
Ġtime d
Ġtime spec
im it
Ġne g
if ted
ec ute
ifi car
ĠĠĠĠĠĠĠĠĠĠĠĠĠĠĠĠĠĠĠĠĠĠĠĠĠĠĠĠĠĠĠĠ ĠĠĠĠĠĠĠĠĠĠĠĠĠĠĠĠĠĠ
QU ERY
Ġsub name
Ġsub tra
bo ost
Ġ: :
') ),<
') )]<
85 2
85 5
Ġchar junk
vent aire
Ġ4 7
ent rant
ĠEx ecut
ĠIn stall
ĠIn complete
Ġcontext s
Ġ@ __
oc umented
ĠK HAH
ump tions
US R
max len
max string
Con dition
Ġlog fp
Ġsh uffle
Ġend ings
UM P
Ġpos icion
sub path
we ak
Ġfa ir
load txt
Ġinter action
20 21
Ex tra
Test ing
Ġdis assemble
transform ers
count V
Ġcl ar
be y
build dir
mode s
xF FFF
mon d
ĠSE EN
AD CA
PE M
the year
ĠOS X
group dict
Ġcase fold
MA GE
MA IND
File Dialog
File Loader
ID ENT
Ġloop s
temp t
Ġ[' %
EX PRESS
ast han
Ġdir names
Ġoper ate
ĠCon struct
15 4
copy right
ĠSe lector
ĠSe leccion
ĠSe cret
Ġ(" -
Ġelement os
Ġindex ing
local trace
Ġdate s
ĠJ EEM
ron Python
Ġkw defaults
Ġrepresent ations
Ġlocal host
Ġblock ed
speci es
He re
TH RESH
Ġoffset s
Se par
INT EG
pack ed
host s
Ġlevel s
ĠFor ward
Ġerr pipe
Ġ', ':<
ĠIt s
thread safe
EXT RA
Ġhost s
Set ting
ĠQ AF
Ġfield names
ĠOption s
Ġcolor s
Comp ares
socket pair
Ġchunk size
86 6
Ġ100 0000
Ġ"" )
MP LATE
inter n
42 4
struct EndArchive
Ġunder flow
Ġrepr lib
ĠCh ainMap
Ġbest j
Ġbest size
ĠLo oseVersion
Ġzip info
Ġapp lies
dll wrap
Pre fix
Pre pare
locale name
Ar gs
Ġnorm case
mark up
Ġq name
ren amiento
Ġimp uter
Ġim mutable
full path
full argspec
Ġlocale dir
ĠFE H
uid Create
sig cls
mk stemp
hand led
dot s
201 3
ĠComp ute
ĠComp ressionError
Ġhand y
last cmd
Ġ". "
ord list
ĠDOT LESS
stop word
cap itals
Ġday light
Ġhash ing
77 7
save fig
Ġpri ce
clear stamp
flag list
screen width
screen height
ĠSet s
bg pic
ĠUN ICODE
ome nds
Ġident ity
Po inter
09 6
CON ST
push back
ĠMA IN
Ġaccess ible
ITE MS
017 9
Ġoptim izer
ERS ID
ufe f
Ġfill ing
gra ft
Ġcustom ized
Ġcustom ization
Ġpol ling
Ġdeterm ines
ĠNUM ERO
urs or
Selector EventLoop
simple filter
Ġest a
Ġest imate
)] ')<
Ġpredict s
Dis connected
END IAN
Value s
ĠTHE H
euc JP
Ġcent roid
Ġquote char
true div
Ġhigh light
Ġld shared
Ġreport s
ITION AL
AG AIN
multip le
kf m
async gen
ĠStop Async
LD FLAGS
Ġow ns
Ġdelay ed
Ġattemp ts
mult icast
Enum Key
mar ked
ĠCal lable
Ġresource s
(', ')<
Te ch
Bu iltin
ĠMAX REPEAT
sysconfig data
Import er
PL AT
Ġ': ':<
ĠHA H
Print er
Ġkwonly defaults
fail ures
TLS v
Ġrecogn ize
Ġem ulation
Ġem ulate
Ġbra ckets
ĠTraceback Exception
Predi ctions
Predi cted
ĠWith out
ĠZip File
Ġna ive
outer boundary
GER MAN
Ġtimestamp s
ĠPredi ction
ĠAp ple
_* ()
ĠRo ssum
Com mon
ĠTrans fer
Template Error
SPE ED
Ġstretch factor
ĠSupport s
EXCEPTION S
ĠIter able
Decode Error
============== <
ĠStat istic
Ġdocs dict
Ġevalu ated
ABCDEF GHI
Ġcm ds
OFF SET
Ġfil tered
Ġundo buffer
take s
Ġsubstit utions
LOG OUT
ĠMon day
ĠUt ility
dep loyment
RES ULT
Ġincre ase
resu mably
Ġadv ant
Ap pend
BYT E
ĠBack ground
EXEC UTABLE
Ġquant ize
Ġoccurrence s
Sendfile NotAvailableError
XML RPC
^^ ^^
fetch all
Response Exception
ĠMaildir Message
Reset Error
Ġconcaten ated
Ġtrig gered
GU AGE
Ob soleteHeaderDefect
ĠAnal ysis
Er r
GROUP S
Ġri sk
Ġacces ses
============ =<
EXIST S
Syntax Error
Ġhyper parameters
Negative One
pep ito
adow ed
ĠBabyl Message
ABIL ITY
%% "
OLE AN
Ġamb iguous
Ġcra sh
Bar rier
Ġsaf ely
look behind
Ġvir tual
inom ial
Ġ################################################################# ####<
Ġvolat ile
PyPIRCCommand TestCase
BRO ADCA
WHITES PACE
loye e
ĠSHE EN
Timeout Error
Completed Waiter
bos ity
iac seq
ĠOCT DIGITS
abcdefghijklmnop qrstuvwxyz
fortun ately
Raj asthan
ĠNorm ally
ĠRAN GE
assertGre ater
MAIND ER
EXPRESS IONS
ĠStopAsync Iteration
BROADCA ST
" }<
" \\
$ '
' ..
' (\
' /'<
) |
) }')<
- '
. "),<
. """)<
/ --
2 17
3 80
6 55
7 22
: #
: ])
: "),
: :-
> ".
? ',
A i
A nal
B P
B ird
B lack
B LU
C ho
C aracteristicas
C umulative
D UP
D uring
D DA
D ISK
E xt
E PO
E mail
E tiny
F aceRecognition
F ALLBACK
G ED
G uess
H U
H ist
H tml
H ouseReps
I dea
I MAGE
K ind
K NeighborsClassifier
L ink
L iteral
M IS
N OTATION
N aive
N astÄĻpny
O C
O d
O OTH
P ut
P ain
P ick
P YPIRC
R ET
R IGHT
S G
S ON
S cale
S QL
T r
U ne
U sing
W in
W rap
W hen
W IFI
Z MAC
\ ",
] ])
_ =
_ [
_ ?[
b string
b ian
b cpp
b ledu
c is
c code
c text
d k
d n
d zien
d yld
d uplicate
e ach
f urn
f ri
g ap
g ain
h g
h or
h lo
i w
i co
i ation
i Å¼
i cial
j ek
j abs
k osc
l ub
m n
m u
m me
n u
n ion
n am
n ume
n Äħ
o j
o he
q nan
q Obj
r args
r Ã³
s im
s date
s ilent
t l
t or
t text
t De
u ses
v nd
v init
v ised
w ho
w fd
y md
y ping
y ond
z illa
{ <
¡ ľ
³ Ð¾
Ð ²
Ð ·
Ñ Ħ
Ñ ī
Ñ ĭ
â Ī
ä ¸
ä º
å Ī
è ®
ë ¡ľ
ì Ħ
Ġ }
Ġ ge
Ġ ON
Ġ lab
Ġ ven
Ġ atags
ĺ ìĹ¬
se c
se nce
in line
in fer
in verted
in ventaire
re me
re cur
re ng
Ġt ip
on s
on ical
or bit
at o
at ibility
de g
de termine
de rivative
Ġ= ',
Ġa by
Ġa head
Ġa zure
le ator
le af
Ġi a
Ġi le
er ing
er Stemmer
Ġ' ):<
Ġ' (%
Ġc lo
Ġc ir
Ġc ach
Ġc sd
Ġ0 0
al o
al one
al phabet
al ternative
Ġf size
Ġf ractal
te ctor
Ġp et
Ġp ract
Ġre used
Ġre curse
Ġn Ãº
Ġo pa
Ġe ff
Ġe type
Ġs ampling
ĠL JE
Ġ- --
it r
it ure
Ġb c
Ġb r
Ġb all
Ġb row
Ġb ien
Ġb tags
Ġin finit
Ġin sensitive
ce il
ro med
mp eg
nt agged
la h
la m
la in
pe ÅĤ
co ef
Ġde comp
Ġde compress
Ġde ptarget
Ġw ari
Ġd W
Ġd n
Ġd dir
Ġd pi
Ġd rain
Ġd lopen
Ġd niu
Ġm f
Ġm utable
Ġm utex
ĠS ort
ĠS ize
ĠS CO
ĠS CALE
Ġis link
AL C
AL SE
Ġreturn list
Ġ( .
ĠC annot
ĠC yrillic
ĠC ursor
ET ER
ET OOTH
an al
one xt
ĠT e
ĠT urn
ĠT ue
ĠT RA
ĠT im
ĠT HAN
ĠT yp
ri a
AT TR
ad j
un it
un lock
un closed
un signed
un structured
un specified
Ġ" ?
Ġ" {!
IT S
ĠD ime
ĠD JE
ĠD uplicate
ort hog
name Desc
di es
di scri
ĠN JE
il de
ine t
---- <
ul ating
ul ates
ĠA I
ĠA M
ĠA void
ĠA sync
ma cos
Ġst mt
Ġst ores
ch at
ch osen
ch romed
Ġ""" _
__ ['
__ ."""<
__ ":
as semb
as sets
is ible
is cased
is routine
is Jo
Ġex am
set sockopt
(' "
(' ]
(' ])<
(' ***
get new
line cache
int os
int Train
># ****************************************************************
() ]
Ġbe yond
od leglosc
ĠI MP
ĠI CA
Ġh its
el hi
Ġ+ ----------------
ab br
ab lish
ĠW S
ĠW y
ĠW rapper
en ia
AP PER
ed ate
ĠF D
ĠF it
ĠF un
ĠF AIL
ĠF IRST
id Disp
ĠR ys
ĠR and
ĠR ay
ĠR CPT
Ġor ient
Ġdi ccion
ĠB reak
ĠB utton
ĠB AW
Ġ[ ...
con ne
con fidence
ĠP attern
ĠP ublic
ĠP osition
ĠP latform
ĠP rice
ĠP REF
ĠP YPIRC
ode s
ĠE top
ĠE BADF
to bool
to ÅĽci
Ġ% {
Ġ% ".
tra ck
ci p
ci el
RA SE
et ter
qu ot
Ġ< -
Ġlo ts
pre ferred
pre pare
put ters
ĠO p
ĠO ri
ĠO nce
ĠO TH
Ġby test
xt ick
ĠM ark
ĠM ESSAGE
form s
art icle
Ġse lenium
Ġ2 003
Ġal g
op io
dir ty
ta x
ĠG AME
ĠG JE
ĠG uido
Ġpro pa
sc s
test mod
AR GE
ĠH ot
Ġen ded
Ġfrom file
ac ji
Ġget doc
Ġhe appush
pro j
so lank
no yau
Ġset comptype
Ġpre fer
Ġpre release
Ġpre pare
Re call
Re present
Re pair
Re moving
cs isol
Ġr qObj
Ġl c
Ġl args
Ġl da
Ġl chmod
Ġun quoted
Ġun ambiguous
assert Al
mat o
Ġv f
Ġv olume
Ġx g
Ġx x
Ġx xx
par agraph
Ġthis class
Ġlist name
iter ables
ĠX ML
init ions
Ġpa ren
ho a
Ġcomp ressor
low Control
ca pture
Ġresult ados
ite ly
Ġk ill
01 31
Ġnew value
Ġ3 20
Ġ3 600
vi al
ne cess
ne gate
ĠRe questHandler
04 56
fix up
uple x
instance s
ĠDe lay
ak resu
Ġla ck
Ġne ar
if Ai
Ġmethod name
Ġpo ÅĤo
Ġread lines
De precated
De velo
De mocrat
min ist
cal culate
Ġsub normal
bo ok
') "
') ;
') ))
85 7
Ġuse netrc
([ ('
Ġcol unas
St udio
VE L
us able
ST ACK
obj class
ĠEx ecute
ĠIn f
Ġup dating
Ġz akresu
DE X
ĠAC TION
ĠK UM
ĠK HO
ĠK JE
tin link
US PEND
max line
Ġcal csize
Con version
Ġsize EndCentDir
Ġsize hint
22 7
======== ==
10 24
10 26
pace s
Ġsh ut
Ġend idx
new path
new win
Ġformat arg
sub net
sub header
sub classes
sub commands
sub scriber
AC L
AC S
net Generator
Ġmax c
Ġmax split
Ġfa ces
check er
Ġinter rupt
end time
20 26
Ġopt arg
Ġdis car
Ġdis criminator
Ġdis plays
Ġrun ctx
(). "<
Ġstart x
Ġstart y
count ry
be cause
AN G
arch itecture
func name
)) **
Ġcor relation
++ +<
Ġ. /
Ġcount ing
Ġwas n
ach ine
open flags
Ġcompile flags
Ġ'< /
Ġtrans actions
MA SK
Ġtoken H
Ġextra globs
ear s
Ġfol ded
Ġwrite back
doc str
doc descriptor
ush ing
Ġcontin u
ĠUn iv
find var
ide s
EX P
debug ger
Ġnext line
omp ressor
Ġpoint ing
Ġpoint ers
Ġmake file
Ġ8 8
Ġ8 9
Ġturtle s
IF ICATE
Ġad minist
xa vier
ĠCon version
ĠCon tain
handle s
ĠST R
Ġsome where
15 8
Data Size
Ġent renamiento
Ġstop ped
Ġcom ing
Ġstate ments
Ġqu ad
ref resh
Ġstat res
Ġhelp s
Ġman ag
Ġman ually
ĠJ E
ie g
Ġbin s
Ġsupp ri
Ġus ando
speci als
Base Network
do ctype
pect ral
Ġlink name
rect angle
Ġ... ])
Ġchange For
cv detection
Ġ7 9
HE LP
our tDe
Ġcomple ting
Ġbuf len
fol ded
Class ification
Class Var
untime Warning
Ġtemp dir
position als
ĠDistutils GetoptError
Ġenum eration
Ġfinal ized
Ġpy plot
Ġmod al
face landmark
Set osa
Header s
Ġremove s
Ġattr text
Ġport ion
Comp ute
86 1
ILE D
ILE GED
Ġskip keys
Ġskip ping
man ual
man gle
Ġfp in
Ġbest i
ĠLo cale
Ġty per
Col unas
Ġapp lied
Ġapp lying
Pre processing
lat n
Ġob tener
ĠList a
ren ch
ren der
Ġsepar ating
Ġprogram u
full circle
ĠTest Results
most Equal
21 22
ĠCOM P
raise d
comple tion
ĠSHA DDA
Ġregist ros
dot place
rel path
INTER NET
initial izer
Ġzero es
Ġgo al
Ġfd st
Ġpad ded
ĠMe mory
imp uter
abstract property
stop frame
Ġsplit ting
>""" )<
Ġpri meros
ðĿĳ ¢
ðĿĳ ļ
Ġsearch ing
seconds frac
ĠSet ting
Ġdisplay ing
Ġregister ing
sq lite
Ġappro ach
ĠUnicode DecodeError
bb rowser
Ġident ified
Ġident ifiers
xfe a
xfe b
xfe e
ĠSMTP UTF
bl k
Ã³ j
Ġknow s
Ġknow ledge
Ġdeta ch
Ġcould n
best size
Ġdst name
Not Supported
PRO CESS
ĠFile Input
Ġkeep s
ĠAT T
Ġhandler s
side bar
User Dict
Ġshe ar
CD LL
ufe a
ufe b
ufe e
inst aller
Ġsig ma
Ġsig ns
Ġequal s
Ġ'\\ '<
Ġtrace malloc
Ch ainMap
Ġau g
ĠNe ural
Int s
Ġtz offset
lin a
Ġsimilar ly
Ġdraw ings
OUT PUT
Ġtail le
Per manent
Value Dictionary
ublic an
hist ogram
ARG S
ÅĽ wi
Ġquote tabs
Ġref ers
ĠCol una
POS IX
ĠÐ ³
ĠÐ ¿
Ġplace holder
Generator ContextManager
CRE MENT
cum sum
Ġmove ment
COMP ILER
Ðµ ÑĤ
assertIs None
delim ited
ali ased
Ġspeed s
ĠMo dified
Ġhelper s
Simple Imputer
Ġvector izer
Ġdouble quote
Ġdouble colon
Ġconnect ing
draw line
Doc XMLRPC
ĠLib ra
ĠSub sequent
Ġvis it
Ġouter most
Loop Err
Ġter se
Ġuna vailable
browser s
element s
hest Pain
Ġprece ded
ĠCompile r
ÑĤ Ðµ
Ġsq rt
ĠModule s
subclass check
Ġsimp lify
Ġgu ided
ĠLe vel
ĠLe mburg
Ġmk stemp
quant um
Ġ:- )<
Ġ------------------------------------------------- <
Ġil legal
Ġfi la
Ġinv olving
From String
Ġconflict s
Ġconflict ing
Ġpreserve s
Ġcont str
Ġcont iguous
Ġproduct dir
ĠMail man
CODE BITS
Ph ysical
Work Item
ĠHA VE
free vars
ĠRaw IOBase
Or File
ĠCan vas
RIB UT
Ġprodu cing
Ġlay ers
County FIPS
dependent As
ĠCor outine
velo pe
ĠAd ding
Ġgra n
'} [
And re
Feature Selection
eÅĽ li
Ġcour t
ĠParameter s
NET WORK
ĠFin ally
======= +<
ka iming
Ðº Ð°
ĠLO G
MAG ES
ĠFe el
Ġgram Level
Attribute List
ĠSh ort
ĠAc cording
ĠPRO TO
Ñĥ Ð½Ðº
river Location
Ġposix path
CONT ENT
CONT ROL
Ġjo ined
Ġjo urs
Inte ger
Ġtriple s
ACTION S
Ġdeclar ations
Speci fy
Ġlate st
ĠStr uct
Ġmanip ulation
GNU C
wit ter
Ġorigin ally
Ġcut off
ĠComple x
parsed ate
CUR S
wi ckets
Ġdistribu te
Ġuniform ly
SY STEM
ĠLZMA File
Ġwild card
ĠMar c
daemon ic
DEP TH
ASS IGN
bet ter
Ġcfg data
Ġczas u
ĠTS HE
ĠMH Message
Ġcapt uring
('.') [
$) '].
hk scs
hqx data
ĠVer ificar
Cate gor
ĠInt Enum
Ġserial ized
Ġkol umn
ĠInstance s
mor tem
Ġaff ected
('; ',
ener gy
166 55
]| [
íķ ĺìĹ¬
Ġrestri ctions
Ġdeli ms
ĠDZ E
ĠDZ HE
district Name
ðĿĳİ ðĿĳ
Full name
Ret rieve
æľ Ģ
ĠNEW LINE
Ġcos ine
Ġvo ir
DAY S
Mar ket
downs ampling
Ġgamma variate
pers istent
Ġvisual ize
+- )
sift up
INPUT S
ĠKon queror
Ġabbre vi
CPP FLAGS
SIGN ATURE
nod ot
visual s
Ð¿ Ð¾Ð»
atis fied
ĠCP U
probab ility
Ġpremi Ã¨
"^ <
Aut hentication
rz eczywist
uso id
Ġposter ior
)> $")<
aco es
slo pe
degrees PerAU
aro ot
lappy Bird
depen dency
ĠSpec Obj
uns queeze
ĠDA MAGES
>#================================ <
andatory Release
Ġheur istic
overlap ping
Numeric as
PRIV ILEGED
ĠÃ©lÃ© ments
*[ @
Mat ri
Sal aries
SAT YAM
Vir ginica
recogn ized
Ġ+=======+=======+ =======+<
ĠBl uff
ĠEval uate
ĠMM DF
ysok o
ĠktÃ³ ry
ĠSMTPServer Disconnected
Ġ+----------- +
Ġkolum ny
ĠSprawd Åº
2147 483
KNN Imputer
](?: _?[
å° ı
Reply Error
Ġclar ity
Separ ator
INTEG ER
BLU ETOOTH
EPO CH
Idea Projects
NastÄĻpny m
Tr uth
Une mp
ZMAC ompressor
nume l
vinit solank
Ġazure ml
peÅĤ nion
Ġwari anc
ĠSCO PE
orthog onal
discri minant
macos x
chromed riverLocation
isJo intTrain
getnew args
intos h
>#**************************************************************** ********
ĠRys owanie
ĠRay mond
conne c
ĠPREF IX
ĠOTH ER
opio idDisp
assertAl mostEqual
lowControl Mixin
ĠRequestHandler Class
ĠpoÅĤo Å¼
ĠKUM AR
Ġdiscar ded
ĠchangeFor Average
ourtDe tector
ÅĽwi et
dependentAs sembly
ÑĥÐ½Ðº ÑĨÐ¸
rzeczywist y
vinitsolank i
! =
! ',
' _
' |
' "<
( """<
) ^
* )
+ ?
+ )\
- ')<
- +<
. ",<
/ )<
1 252
2 007
2 039
3 14
5 03
5 87
8 64
9 50
: {
; ')<
= ()):<
> &
> )
A O
A st
A rial
B ound
B roken
B LK
C o
C XX
C LI
D L
D on
D one
D ouble
E nsure
F E
F rozen
F lush
F raction
F lowControlMixin
G T
H ERS
I DE
I AC
J OR
J IS
L R
L s
L ow
L atin
L ength
M SE
N AL
O ut
P en
P ress
P oly
Q Q
R W
R at
R ate
S N
S LA
S cript
S ymbolTable
S helf
S USPEND
T ar
T ING
T LD
T elnet
U ES
U ntagged
V ED
W E
W ND
W ill
W ake
W RON
\ "
\ '
\ )>$")<
] ).<
b res
c flags
d as
d og
e ither
e mbed
e pilog
f F
f at
f ru
f raction
g d
g row
g gest
g cd
h h
h p
h u
h ol
h ide
h rough
h ouse
h ints
h Std
i i
i ver
i lib
i rawq
j outer
l b
l v
l lo
l li
m is
m ix
m length
m ouse
m utex
o ken
o be
p ip
p urpose
r Ã¡
s n
s pe
s iz
u itive
v b
v r
w td
y al
| <
} ({
æ ³
æ ĸ
Ġ æ
Ġ er
Ġ ]:<
Ġ ]*
Ĵ Į
Ł å
se cret
se curity
in files
in lan
in finite
re ction
re sent
re tr
re initialize
Ġt c
Ġt ut
Ġt elnet
or ation
or land
or dered
at ural
de ep
st hrough
le ave
le mburg
Ġi step
lf end
he tic
Ġ' ==
Ġ' ']<
Ġ' :',
Ġc f
Ġc dict
Ġc sock
Ġc ru
Ġf on
Ġf ri
Ġf its
Ġf atal
Ġf ractions
ar row
Ġp w
Ġp ump
Ġp ull
Ġre pl
Ġre entrant
Ġn ts
"" .
ur len
ur lopen
Ġe ste
Ġe ster
Ġe pilog
Ġe lapsed
Ġe hlo
nd ro
Ġs ry
ĠL EN
ĠL ocation
ĠL ittleEndianStructure
ĠL anguage
ĠL imit
Ġ- ------------
ra it
Ġb low
Ġb string
Ġb om
Ġb isect
Ġin de
Ġin clusive
Ġin formative
Ġin consistent
co se
co bj
co efs
Ġde ath
Ġde mo
Ġde sign
Ġd c
Ġd umb
Ġm b
Ġm sc
ue n
ĠS end
ĠS und
ĠS tore
ĠS ami
Ġis module
Ġ( #
Ġ_ ("
ĠC ar
ĠC ALL
ĠC op
ĠC SS
ĠC ertificateError
TER R
ĠT EST
Ġto list
Ġto ok
Ġto day
Ġto filedate
AT AN
ad min
un g
un ge
un install
un readline
un bind
Ġ" ="
Ġ" ["
ĠD er
ĠD one
ĠD EDENT
ĠD ynamicClassAttribute
Ġfor ces
di ameter
th row
il ty
ĠA ction
ĠA UTH
ma nd
ma gnitude
Ġst oring
ch ant
ch anging
__ `
__ ]<
is hes
is ia
is lice
is integer
Ġex per
Ġex cluded
Ġex ceeded
(' </
(' =')<
get val
get width
get pid
get attribute
get prop
get sockname
int err
ex am
ex ited
ex plan
Ġ1 01
Ġ1 80
Ġth resh
() ;<
der s
Ġra ising
file lineno
Ġh r
Ġh Std
Ġcon sum
ON ES
ON ENT
ĠW hitespace
(" _
ĠR ate
ĠR et
ĠR TLD
Ġfile path
Ġdi ag
ĠB NF
Ġ[ '<
ĠP ri
ĠP RE
ĠP unjab
ĠP eso
ns names
Ġle ad
ĠE mp
ĠE min
ĠE VEN
ĠE uro
to lines
to wards
tra cer
ci ph
et s
RE M
RE LE
RE POS
RE USE
Ġ< ==
pre format
data q
Ġdata clean
Ġ* (
put f
ĠO ct
Ġg b
Ġg reen
Ġg ather
Ġg libc
Ġg ues
ĠM in
ĠM AK
ĠM ILLE
ĠM IMENonMultipart
ĠM iscellaneous
Ġline width
Ġline junk
Ġse ns
Ġse cs
Ġse ld
Ġal locate
ist a
am ount
op er
op code
dir file
Ġit n
ĠU ID
25 4
25 7
Ġso mme
ĠV AV
from utc
import ance
ĠG etopt
'] ))<
Ġpro b
Ġpro ceed
ĠH ist
Ġen h
Ġfrom filedate
Ġget params
Ġget mark
Ġget ters
Ġget markers
Ġget compname
Ġget fullargspec
Ġch at
Ġch own
ext sep
pro vision
Ġpre processing
Re quired
Ġr ho
Ġl strip
Ġun ig
Ġun wrapped
ES E
Ġtra cer
pa is
par ame
Ġwe bbrowser
iter ating
ĠX P
ms windows
Ġtest mod
Ġcomp ound
ĠBO DY
ca ref
version predicate
Ġnum bytes
port able
03 99
03 86
03 88
03 92
03 08
03 89
Ġbu s
01 00
01 01
01 10
01 02
01 11
01 36
01 37
Ġnew ly
In it
In complete
Ġ3 8
vi e
add itional
add Clean
EN CES
Ġout files
EF ORE
04 06
write lines
RO OT
ĠDe termine
char junk
Ġla zy
format week
ken ed
place holder
Ġstr ategy
De termine
wa v
by file
QU OTA
Ġsub path
bo olean
85 8
Ġuse c
Ġcol span
Ġcol lapsed
Ġchar buffer
trans pose
ST AR
module name
ĠIn finity
Ġcontext vars
IP PROTO
oc us
max x
max y
Ġsize s
Ġms ilib
own ed
Ġwor st
Ġlog istic
Ġsh or
Ġsh lex
Ġsh ifted
Ġend pats
Ġany where
rc Lines
other wise
ĠY en
ĠY OD
for get
IA B
ok ing
Ġexp diff
SE CT
8859 2
Ġbreak ing
sent ially
Ġopen hook
Ġopt string
ME M
Ġwa keup
Ġab cs
log b
SC I
AN NOTATION
Ġfunc ion
with out
Ġinit args
Ġcount ry
UN WRAPPED
com mend
open ssl
Ġper f
Ġ** _
Ġlast i
loop back
Ġop b
En semble
Pro perty
ĠUn like
IO Mixin
Ġ[' ']<
sep s
Ġnon dirs
ast uple
ast ern
ĠTH AL
ler t
shape poly
Ġad obe
Ġcontinue d
Ġcontinue s
ĠST ATE
15 7
16 5
Ġent ropy
Ġ6 7
Ġcom mlength
strip ped
Ġ(" \
AB ORT
Ġdon de
wait able
ĠJ ap
ĠJ OIN
11 25
Ġstd call
OP EN
url safe
Ġcopy tree
make trans
extra globs
speci fy
He althy
mt putf
Ġ... )<
Ġ'- '<
56 0
SM ALL
Ġ7 6
current bp
can onical
Ġ'/ ':<
Ġlong long
ĠDistutils TemplateError
pol ate
du it
Ġca file
cent ration
pop ulation
compress obj
del attr
ĠOption Group
ĠOption Container
Ġbo dies
Lo cale
Ġlib name
86 0
86 2
86 5
55 5
Ġid string
inter active
Ġthem selves
ĠLo op
ang ular
ian a
reader mode
Ġwait pid
Ġbound s
Ġext reme
ĠError During
den cies
Ġob tain
Ã© r
Ġimp lies
plat stdlib
full module
dete ct
Ġleft digits
Ġ9 5
mk time
fc n
dot ted
Ġdat at
INTER POL
patch header
su bject
Ġconvert s
pu tenv
AS N
Var s
expected Exception
039 1
039 4
039 5
039 6
039 7
Ġtyp ical
ru ary
stop info
Ġiss c
29 5
WS P
Ġlang name
77 99
To mato
Get ModuleHandle
ĠTAB LE
rp c
son ame
:] ])<
bg color
pth read
Ġweek s
rand below
Le ss
ĠEN CODING
ĠSMTP NotSupported
Ġsep len
Ġ--------------------------------- --------<
------- <
ĠSSL Socket
dev major
dev minor
Ġdelim ited
Ġexit ing
Ġexit msg
pair plot
lice nce
SET UP
Ġ^ <
Ġ^ =
Ġnamespace s
hook s
Ġsp urious
ITE M
Dict Reader
Ġinclu sion
User name
Ġdes cent
Ġequal ity
Ġcond group
Ġcond itional
Ġheap ify
No Warnings
RL M
dec rypter
Ġ'* ':<
ĠEn able
Ġseek ing
seq s
Ġren aming
vers ible
36 00
Ġappend to
CF UNCTYPE
Ġspecific ally
]* )*
]* (?:
got onext
NE WOBJ
BO OLEAN
fici al
]+ )
`` .<
Ġ'? '<
Ġavoid s
Ġoccur ring
Ġpk gs
ĠDocTest Finder
Ġblank line
change s
status output
Ġrelative ly
Ġref lect
ĠSUB PATTERN
ĠPy Dialog
ĠPy StringMap
Ġissue d
>################################################################ ########<
turtle s
ĠAss uming
partial method
cum ulate
COMP ILED
dat file
Ġ(? :
[^ %(
ending DeprecationWarning
ĠDi ctionary
ified KFold
Module s
Ġregex p
Ġinsert ing
Ġ$ {
ĠNNTP ReplyError
IM AL
draw poly
Ġpen size
IND ENT
ĠInvalid StateError
Ġperform ing
ĠSub process
ĠSub classes
Ġgre at
MT IME
ĠReg ular
Enum Value
SU RA
Ġassign ment
mar ily
ĠBuffered IOBase
Ġown ed
Ġpp c
Ġexport s
Index Error
ĠUser List
ĠBE LOW
Ġfi gsize
ĠIE EE
Ġfall ing
ĠUp per
ider s
Ġcont line
Ġprevent s
="" ):<
Ġmut ual
ĠRes ult
Ġrespect ive
Proxy File
Ġrequire ment
Buffered IOMixin
Comple x
Comple tion
Ġnom bres
peer cert
inf os
ĠINF O
ĠAssume s
Ġdigest mod
Ġke v
Ġol dest
ĠAd just
ĠExtract Error
ĠPath Like
ĠGenerator Exit
floor div
Ġ'.. ',
ĠInte gral
Ġspe lling
Ġguarante e
ĠAc cept
ĠAc curacy
ĠIter ate
Division ByZero
Ġutili z
ĠCall ing
riv ile
unch er
product dir
Ġvisible name
Dec ision
Dec orator
TE MPLATE
Ġ'> ',
ĠPh oto
Sign ature
tilt angle
Ġadjust ment
rw xr
}) ".
sect name
Ġmix ing
oll ar
Ġminor Version
Ġcfg dict
Ġrand range
203 0
Ġhdr charset
Ġvm info
ĠConnection ResetError
Ġdirective s
Pos ix
Ro unded
fil litem
gr nam
Ġcla use
outline width
ĠUnder flow
Ġtrig ger
Subprocess Transport
pas sthrough
Ġsr ch
Ġbl tinlink
Ġmatri z
Round s
Ġce la
Ġfl ds
ĠFrame Summary
conf str
Ġacces sed
ĠINST ALL
Ret ry
Special Form
LM NOP
Ver ify
åı Ĥ
Ġquick ly
Field Storage
Ninety Percent
pdb rc
backup filename
ĠHelp Formatter
ĠWR ITE
ĠPH RASE
quopri mime
Ġnegot iate
syntax err
Ġencry pted
ĠSU CCESS
gethost name
718 28
MB OL
Poll Selector
RF Y
duplic ates
ĠSY MBOL
Ġpredictor s
ĠOPTION AL
ĠARCH IVE
JK LMNOP
Ġund ocumented
Ġpreference list
Ġ'<{} >'.
crolled Canvas
Ġrespons ible
ĠCHAR SET
DET AIL
QR ST
Space Terminal
bhi lf
Ġsit uation
omb ies
Ġawa kened
Ġsan ity
ĠSK IP
ĠTk inter
setting s
ĠSelector Key
ĠForward Ref
ABCDEFGHI JKLMNOP
Ġadvant age
ĠBackground Browser
Anal ysis
Pick ler
Ġcach ing
ĠnÃº mero
Ġinfinit ies
anal ysis
ĠTe am
ĠTRA DE
Ġorient ation
csisol atin
ĠCOMP ONENT
æľĢ å°ı
>#************************************************************************ **<
WRON LY
Ġester lina
ndro gram
ĠSund ay
ĠTEST FN
Ġthresh ol
REPOS ITORY
Ġgues sed
ĠMAK SURA
Ġseld lg
addClean up
ABORT ED
ĠErrorDuring Import
INTERPOL ATION
! ).<
" >'
% <
' (?:
) ==
) ".
) }")<
* ()
+ \
+ '<
. ,<
. ',
. ),
0 80
1 250
1 253
1 258
2 005
2 008
7 856
8 000
: }".
> [-
> âĢ¢
A v
A VE
A fter
A cc
A bb
A toB
B B
B e
B an
B ache
B db
C lasses
C hen
C hestPain
D ump
D ENT
D OS
D GRAM
D EDENT
D elhi
E CH
F irst
F etch
F IFO
F iltro
F ALSE
G rid
G TH
H inge
H IGHEST
I nd
I tin
J UMP
K ol
K ings
M K
M Y
M ET
M um
M TP
N ag
N RLM
P lot
P AC
P seudo
P ERSID
P rivile
R untimeError
S ort
S ci
S pec
S ERT
S PAR
S chool
T IC
T orch
T URN
T enPercent
T yping
U V
V ec
W nd
W ord
W ords
X Z
X i
X train
Y Z
Y es
[ ...
] ].
a enter
a zy
b ed
b irds
b rick
c ion
c lo
c up
c ity
c Data
c ph
c apping
c Invalid
d type
d nn
e E
e v
e la
e ol
e per
e ek
e ager
f get
f string
g lo
g ith
g mtime
h ab
i om
i map
i ans
k g
k ata
m w
n or
n features
p ment
p ap
p values
p lied
r str
r ative
r src
r arily
r partition
s is
s ually
s now
s cope
s atisfied
t vars
u a
u an
v oting
w z
w file
w acji
x attr
x late
y ch
y als
y dera
z m
z isia
} ]
§ Ģì
® Ĺ
Ð ¼Ð¸
Ñ Į
Ñ İ
å ĴĮ
ç ®Ĺ
ì Īĺ
Ġ um
Ġ ):
Ġ vert
Ġ Ð¸
Ġ },<
Ġ ÑĦ
į nd
ł ķ
se lling
se cut
in cy
in cho
in complete
in decorator
re ly
re nc
re ncy
re cursion
Ġt n
Ġt xt
Ġt tk
or a
or ange
at map
at uration
at ivo
de xt
de ca
de precated
de viation
st aw
st Action
Ġi ca
Ġi ana
Ġi losc
er ature
er ant
lf ormed
Ġ# ////////////////////////////////
he atmap
Ġ' )
Ġ' ))<
Ġ' '):<
Ġ' )))<
Ġ' (-
Ġ' >'<
Ġc ame
Ġc id
Ġc width
Ġc dll
Ġc adata
Ġc flag
Ġc andid
Ġc atalog
me tric
al ore
al ay
al av
Ġf src
Ġf uel
ar z
ar ith
ar win
te le
Ġp on
Ġp name
Ġp od
Ġp ic
Ġp ty
Ġp unk
Ġp run
Ġp ont
Ġp tr
Ġp ressed
Ġre mp
Ġre fe
Ġre init
Ġre vision
Ġre cipients
Ġre construct
Ġre vised
Ġn features
Ġn days
Ġn digits
Ġn gettext
Ġn aming
Ġn ntp
Ġn iÅ¼
"" )
"" :<
Ġo cc
ur y
ur ary
ur andom
Ġe pos
Ġe ast
nd ogram
nd Headers
Ġs ix
ĠL IAB
Ġ- ---
ra ight
ra ble
it rou
Ġb v
Ġb db
Ġin compatible
ro Data
ro lled
ro oms
mp an
nt h
Ġde n
Ġde compressor
Ġde gree
Ġw td
ge s
ge sh
Ġd ro
Ġd ou
Ġd owns
Ġd rwxr
Ġd ollar
Ġm Table
Ġm ingw
ER IC
ER VED
ĠS ingle
ĠS AME
ĠS napshot
ĠS olaris
ĠS chool
ile deg
Ġis file
li di
Ġreturn item
Ġ( "",
ĠC A
ĠC OR
ĠC lear
ĠC ORS
ĠC ourtDetector
an imal
TER M
ĠT ri
ĠT ip
ĠT arget
ĠT YPES
ĠT Navig
ri ser
ri Ã©
AT AL
ad anie
un able
un wrap
un pickling
un setenv
Ġ" ("
Ġ" (%
ETTER S
ve y
Ġ'\ \\\
ĠD are
ĠD olar
Ġfor LoopErr
name set
ĠN x
th an
th ickness
il on
ine ls
Ġco variance
---- -
ĠA re
ĠA sh
ĠA pr
ĠA pri
Ġst item
Ġst raight
ch ay
__ _
as pect
as cript
is future
is stdin
is upper
is nans
Ġex tens
(' $
(' )<
(' '):<
(' )')<
get final
get nframes
get while
up er
># --------<
># ------------------------------------------------
() ],
() [-
Ġbe hind
ĠI tems
ĠI mplements
file mode
file Path
ult ane
Ġh er
Ġh orizontal
el lipsis
Ġ+ ---------------
Ġ+ ++++++++++++++++++++++++++++++++
Ġcon cat
Ġcon sole
Ġcon straints
Ġcon secut
ab bre
ON S
ĠW ND
ĠW riter
ĠW ake
(" ~
bj unk
en tered
AP PRO
ed it
ĠF IL
ĠF ACE
ĠF WS
ĠF rozen
ĠF lush
code set
code sets
ĠR ound
ĠR iders
ation Mode
Ġdi e
ĠB ag
ĠB ang
ĠB yte
Ġ[ {
Ġ[ ],<
con stant
ĠP M
ĠP lots
ĠP KG
ĠP ATTERN
ĠP refer
Ġu ma
ap pa
ap ipe
ack ed
os name
to bytes
tra verse
ig ure
LE N
LE VEL
RE P
RE VER
RE ATE
RE MENTS
Ġ< !
Ġlo cate
class link
Ġan no
Ġan imation
data frame
data gen
Ġ* ("
put line
ĠO f
Ġby Äĩ
Ġg una
ĠM ix
ĠM ulti
ĠM utable
ĠM APP
ow ej
ow aÄĩ
ow eek
Ġse ule
Ġse lections
Ġ2 005
Ġ2 017
Ġ2 046
Ġ2 048
Ġy lo
Ġy olo
Ġal tered
ist ed
ou te
Ġso it
Ġon t
Ġon line
pl ate
out liers
ĠV AR
from file
from list
from lines
Ġos info
Ġos apipe
ĠG AN
ĠG erman
'] >
'] }<
py bytes
py distutils
py game
Ġpro ps
Ġpro hib
sc c
tes pec
ĠH ydera
Ġen force
Ġen velope
Ġget file
Ġget randbits
Ġget preferredencoding
Ġget pwnam
Ġget grnam
Ġch op
Ġarg types
Ġhe alth
pro xies
ds paces
no mb
Ġset item
Ġset nframes
Ġset sampwidth
Ġset nchannels
Ġset framerate
Re sent
Re ference
Re quires
Re vived
IL ING
Ġr it
Ġr hs
Ġun ified
Ġun necess
assert Warnings
assert NoWarnings
mo yenne
Ġv b
Ġx i
Ġx code
Ġx max
Ġthis indent
Ġwe bdriver
Ġlist as
iter acoes
Ġpar ses
Ġpar allel
init fp
Ġtest all
Ġcomp re
Ġcomp osition
Ġcomp anies
str at
str dup
cre lease
time tuple
Ġnum lines
Ġnum Ã©
md ll
port er
port ion
Ġk Äħ
Ġk appa
01 13
01 56
01 17
Ġnew data
Ġnew context
Ġnew docstr
In ah
=' ',<
Ġ3 30
add Test
ĠRe set
ĠRe ader
ĠRe lease
ĠRe present
ĠRe gister
EN OTCONN
UB IC
ty wacji
Ġpath len
). ")<
instance check
ĠDe code
// _
char ref
ak tywacji
format param
Ġ(' %
Ġall Errors
Ġpo inted
Ġpo cis
Ġread only
Ġread frames
Ġdefault dict
ĠĠĠĠĠĠĠĠĠĠĠĠĠĠĠĠĠĠĠĠĠĠĠĠĠĠĠĠĠĠĠĠ ĠĠĠĠĠĠĠĠĠĠĠĠĠĠĠĠĠ
Ġstr za
min Ligne
lic zenie
lic ativo
act ly
QU IT
QU OTE
=" *
scri be
Ġsub s
Ġsub st
Ġsub string
bo ot
bo iledeg
Ġ: ],
') ).
') ;<
Ġuse gmt
Ġcol ormode
fa re
pi a
Ġmo Å¼
Ġj e
us ually
Ġ-- %
trans p
trans actions
trans formed
Ġ4 5
Ġ4 29
ĠEx ecutor
ĠEx pression
ĠEx ternal
ĠIn come
Ġz as
Ġno prefix
ĠK ings
ĠK night
max other
Con sole
Con stAction
Ġsize Resp
22 33
Ġlog o
Ġend chars
new tab
Ġcmd list
12 6
ĠY ield
Ġfirst line
sub set
Ġ` _
Ġexp orted
we bdriver
Ġfa iling
Ġfa ud
8859 1
Ġinter act
Ġinter section
end ings
Ġ5 7
run s
run call
ĠSt rat
ĠSt andardizing
sent ropy
Ex pl
Ġsy nop
Ġdis cu
Ġdis assembly
close fd
close fp
Ġstart line
Ġab bey
ĠUP TURN
be ach
kw list
kw defaults
msg stack
fit ness
ĠZ LIB
arch s
)) (
cor d
cor s
Ġsu bject
Ġsu fficient
): \
Ġinit DataSize
ĠIN TO
ĠIN DENT
ĠSE QU
AD irectory
Ġper m
Ġsc atter
point ers
BIC UBIC
fd open
ld config
MA IL
MA JOR
err pipe
Ġfol dspaces
File s
... )
doc md
Pro duit
ous ly
Ġ[' ',
find iter
Ġobj id
parse addr
ĠTH ESE
Ġho pe
Ġexc name
shape size
Ġ8 2
Ġad jacent
Ġexist ence
win sor
ĠCon dition
Ġgroup index
ĠST AT
iss ym
ĠSe ek
Ġ6 00
Ġstate ErrorLog
ref ined
14 4
14 8
og rad
Ġcls name
color string
ph i
ph one
ph yscologicaly
Ġitem getter
Ġman age
wait Key
ĠJ SON
ĠJ eÅĽli
Decimal Exception
create poly
Ġdiff ers
Ġcopy reg
'\ [
extra s
Base Address
Se ssion
Se oj
Ġ... ],
Ġchange log
06 0
19 87
ĠRE MAINDER
Ġsock type
ĠKey word
Ġindi rectly
sup plied
Ġcomple ter
Ġbuf type
hes is
du ate
Ġ', '.
cro ll
Ġpy dict
Ġpy models
Ġlength s
length s
bin s
assertRaises Regex
block Name
ĠSH IN
sum marize
Ġdebug level
Ġword list
help ful
',' _
Ġlib FOO
KEY CRE
Ġwrap col
Ġchunk name
Ġ"" :<
Ġpickle s
struct s
struct ures
Ġmark ing
Ġmark msg
Ġ", ")<
man y
=[ ('
lection Pad
ĠCh at
ĠCh allen
ĠCh incho
ĠLo cal
Col lection
Col una
na i
0000 00
ĠXXX X
Pre cision
Pre vis
Pre NRLM
locale dirs
locale codesets
over view
gorith ms
ĠData set
ĠError s
Ġmost ly
;< /
return ing
LL C
Ġq size
Ġimp rove
normal ized
ĠArgument Parser
ĠPro vide
ba i
Ġsqu ared
Ġro ku
Inter preter
Ġsend s
CE ILING
Gen der
ale ta
last i
ĠAL ERT
Ġpad y
ĠNo v
ĠNo SectionError
imp ute
ru gesh
Ġ'{ :
Ġmailbox es
Ġrel width
Ġrel height
Ġag greg
Ġpri marily
PRE V
Get Result
ĠException s
Ġshort er
SV R
COM MA
ĠBase Model
:] ]<
Py Torch
ien te
Man ip
ĠClass ifAi
Iter ate
READ Y
Ġ--------------------------------- --------------------------------
dev ils
Ġwin sor
MAX LINES
ÅĤ u
BIN STRING
best j
best objid
Option s
Äħ cu
Ġqueue s
Ġdot lock
Ġ"- "
Create s
PRO C
ĠImage Pool
Ġtorch vision
ĠFile name
Ġcorrespon d
ĠCheck s
tell ing
ĠThere fore
rat ic
Ġsp ot
Ġsp rawd
ETH ER
her n
Ġbit wise
Ġsort s
ĠInter face
CD IFF
Ġì §Ģì
bot frame
ĠAl ternative
ĠPo st
Ġ'-- '
ident ifiers
Ġren dered
oci ate
pad w
site builtins
Ġ<< =
samp ling
Ġput ting
Ġcontrol led
]* )\
clean ed
Ġjoin user
67 295
NE VER
ĠRead s
`` <
STR INGS
angle Ori
++++++++ +++<
ĠDocTest Failure
Ġcent rÃ³
white ned
>################################################################ ###############<
PC A
PC M
YN C
Ġreset s
ĠAss ign
Å¼ esz
ĠÐ ²
Ġpe ek
Ġlookup s
remo ving
Ġrepe ats
black hat
mer ative
CRE ATED
cum ulÃ©e
Ġclear ly
Ġph one
Ġhex tet
UD ING
UD IFF
Ġmove s
Ġhi erarchy
Ġconver ter
COMP LETE
Ġpr z
Ġpr zy
IAN T
coroutine s
Ġpartial s
heap q
Ð° Ð»
Ð° Ð½Ð¸
Ðµ Ð
Ðµ Ð½
Ðµ Ð´
Ġdump s
Ġprobab ilities
Su ffix
Ġsent iment
So up
Ġsw it
radi any
ĠAs cii
ĠMo dify
Ġ'| '.
Run s
cu la
Ġdec data
ĠNNTP DataError
Write PipeTransport
ĠPOINT S
Ġë ²ĶìľĦ
ĠMac OS
Ġcalcul ation
Ġ----------------- --------
suffix es
Ġattemp ting
Ġparticular ly
Ġ~ (
Ġtab size
ĠReg OpenKeyEx
SU CCESS
Ġ"/ "
53 22
Ġdele ting
Ġ'' ',
Ġstyle s
Bu ffer
Emp loyed
Ġ? ",<
ĠLabel s
Image Tk
Ġcare ful
Ġinstanti ating
schedule rs
Convert s
COR O
Ġresume s
Ġinv oking
ĠMy Int
Ð¾Ð ±
Conv Transpose
custom er
Ġ': :'
Wait For
Ġredu ces
Ġupper case
surrogate pass
xml rpc
Ġmut ate
Buffered Reader
pan el
Ġplain text
Ġ19 00
Or ders
click ed
Async ContextManager
Bytes Generator
iment al
tod ay
ash ion
("' %
Ġeas ily
ĠMay be
LAN GUAGE
MS G
Some Version
Some Ints
ìĿ ´
ìĿ ´ë¦Ħ
let te
Ġpage s
Ġgra vity
Ali gnedDataset
ĠRo yals
mapho res
ĠQu inlan
TARGET DIR
multi arch
multi processing
Ġcar ry
Rep ublican
Ġ'.. '<
Ġdeal ing
'[ \
Cor rela
GN ULD
Ġsim ultane
Items View
MOD ULE
Num Py
gray Scale
ktual nej
Ġeq i
rolling min
rolling max
Ġdead line
Ġdead lock
Ġintern ational
Ġbox es
Ġbox plot
aut ograd
ĠALL OC
ĠWork space
ĠPRO GRAM
ĠPick ler
Ref lectionPad
popen args
Ġapprox imate
Ġevalu ating
CONT EXT
Ġjo e
Ġcell s
Ġincorrect ly
ĠField Storage
criterion L
Video Writer
qs l
ĠâĢ ¢
Ġdevi ces
ĠPh oneno
Ġsubstit ute
ÑĢÐ° ÑĨÐ¸
"% \
TMP L
Ġ'[ %
mas ked
ĠInd ia
ĠInd ians
("- "
Ġalt chars
PARAM ETER
99999999 9
Ġasynchronous ly
rok Teraz
Ġconstruct s
ĠMax imum
Ġliter ally
Ġpoly nomial
substitutes Dict
substitutes Arr
125 4
125 7
ĠComple te
ĠFeb urary
//////////////////////////////// /<
sb dataq
yout u
Ġdepen dencies
ĠìĿ ´ë¦Ħ
VC VARS
ĠWh ile
Ġanal ysis
ĠOb liczenie
ocp Proactor
TemporaryFile Args
Mon th
jÄħ c
Ġod leglosc
Ġbaz ie
Ġbaz ÄĻ
Ġcomma s
ĠPolynomial Features
>>> ><
calc Hist
Ġsynt hetic
zyst kie
CORP OR
________________ ________________
decision s
ĠMer ging
ĠMer chant
Ġ--------------------------------------------- <
CL UDING
High School
RD ONLY
Ro yal
Ġws zystkie
Ġconcaten ation
ĠExp and
ĠExp licit
sur vey
sci py
sci kit
Ġslot state
Ġwar toÅĽci
ĠRES ERVED
Ġmatri ces
166 87
Ġquot ation
Ġimput ar
114 0
Er ro
Somme cumulÃ©e
YE AR
ko i
Ġfl us
Ġrestri ction
ĠFizycz na
ĠEmocjonal na
Ġcomput ation
============ <
Keys View
pc build
Ġ({} )'.
ĠPort erStemmer
amb ien
ĠVAL UE
ĠVAL UES
bh g
ĠÃ įnd
Ġbas is
INIT VAR
Ġ(.*) ",<
ĠGra duate
Ġintro duced
Pure Path
Ġcygwin ccompiler
cell vars
ĠRest ore
ayer Discriminator
OPTION AL
Sun riser
eigen vectors
iq r
ĠSafe UUID
ĠXGB oost
SHUT DOWN
ĠNamed Tuple
ĠIntele ktualna
ĠIntele ktualnej
CERT IFICATE
DT D
El lipsis
Mac OSX
WX YZ
Ġmarg ines
ida des
Ġinterpret ation
REQUI REMENTS
BT C
Ġmiesi Äħcu
adpcm state
Ġtrap ped
ĠExper ience
Member s
ĠGener al
Ġ======================= <
Ġsurrogate escaped
Ġrece iving
cen tered
coordin ate
ĠDiv ision
disk usage
ĠWH ETHER
ĠFac ilty
ĠBig EndianStructure
ĠPe ters
ĠGo ogle
Ġsubnet s
mboxMMDF Message
Ġrepetition s
Th al
ëĬ Ķ
Ġpacz ki
ran lib
lik ar
Ġdefin itely
Ġorg gre
Ġdirc mp
ĠJo in
ĠPrevis or
Arrival Data
ĠCOUN TY
ĠBeautiful Soup
BEG IN
Optim isation
Ġmi rror
ĠBound Arguments
ĠEnt ries
ĠIncomplete ReadError
Values View
furn iture
è® ¡
ìĦ ±
Ġlab e
reng ine
Ġcir cum
ĠDime nsion
ĠFit ar
Ġdiccion ario
ĠOp code
xtick s
Develo per
Ġshut ting
ĠSTR ING
Ġsuppri mer
ĠÐ³ ÑĢÐ°
DocXMLRPC Server
ÑĤÐµ ÑĢÐ°ÑĨÐ¸
RIBUT ES
CURS IVE
Matri ciel
2147483 646
Unemp loyed
Ġwarianc ji
ĠpoÅĤoÅ¼ enia
Ast roData
FE ATURE
SUSPEND ED
fru its
æ³ ķ
ĠLEN GTH
ĠEmp loyee
Ġsens ible
ĠGetopt Error
Ġunig rams
ĠJap ones
ĠSMTPNotSupported Error
ĠPhoto Obj
åıĤ æķ°
QRST UV
bhilf d
ABCDEFGHIJKLMNOP QRSTUV
7856 3412
Ban co
Bache lor
Chen nai
Grid ArrivalData
Itin erant
Kol kata
Mum bai
PAC ES
Sci Py
cph Body
cInvalid ationMode
gith ub
zisia j
renc ing
deca y
Ġ#//////////////////////////////// /////////////////////////////////<
Ġcandid ates
alav ra
Ġpic name
Ġpont os
mpan chay
lidi ana
ĠCOR O
ĠTNavig ator
ĠDare devils
ĠAsh ish
getfinal pathname
>#------------------------------------------------ ---------<
Ġ+--------------- +<
Ġ+++++++++++++++++++++++++++++++++ +++++++++++<
Ġconsecut ive
abbre v
ĠFIL ETIME
ĠBang alore
REVER SE
ĠHydera bad
nomb re
charref replace
Ġpocis ku
Ġstrza ÅĤu
boiledeg gs
Ġfaud rait
ĠStrat ifiedKFold
Ġdiscu ssion
ADirectory Error
Produit Matriciel
Seoj un
ĠChallen gers
ĠChincho likar
GetResult Count
Ġì§Ģì łķ
angleOri ent
ĠcentrÃ³ ides
ÐµÐ½ ÑĤ
Correla cao
ĠALLOC ATION
HighSchool Pct
ĠÃįnd ices
Sunriser s
ABCDEFGHIJKLMNOPQRSTUV WXYZ
" --
" ')<
" ][
" [^
# $
' ",<
' [^\
( ""
) (_
) "]
) >")<
+ --------
+ )*
+ |\
/ ')<
1 22
1 999
3 20
4 56
5 000
6 85
6 28
7 28
: ;
; ")<
= >
= "<
> ================
> .*
> [^
> ''')<
A X
A ct
A waitable
B S
B old
B oost
B ATCH
C IP
C HAN
C ould
C ATEGORY
C ygwin
C lamped
D IS
D IST
D IV
D umb
D ITIONAL
E lement
F RO
F ONT
F ork
F UNCTYPE
F lavour
F uncPtr
F ACT
G n
G MA
G MT
G erman
H S
H at
H ow
H INE
H MAC
H ash
H ook
I W
I TER
I MODE
I mplementation
I ronPython
L amb
M ULTIP
M ULAW
N EXT
N CH
N ODE
O HANG
P LA
P olynomial
P erson
R el
S w
S ig
S ys
S ave
S can
S pawn
S OFT
S ym
S afe
S ender
S ndHeaders
T IN
T OT
T ermin
T omor
U A
U NDEF
V N
V ent
V olume
W D
W all
X Y
X HD
Y I
Y i
Y IN
Z EN
[ ~
\ %
] -
] ()<
] }<
` )
a ma
a led
b B
b an
b es
b idden
b race
c am
c ular
d z
d um
d op
d Mo
d under
e re
e bc
f ar
f ma
g m
g led
i res
i ms
i Ã³n
i lfrom
i endo
j ar
k c
k k
k z
k queue
k now
l st
l us
l chmod
l gettext
l notab
m ies
n r
n cia
o pe
o Wrapper
p lease
p seudo
p resumably
p itrou
q sort
r l
r ng
r shift
s mo
s ay
s kew
s mall
t x
u u
u mask
v an
v oc
v olume
w t
w nd
w anted
x h
x ls
z ombies
} -
} -%
} >".
® ĭ
Ã ¢
ä »
æ ®ĭ
ç ļ
Ġ ><
Ġ ing
Į ä¹
in stead
in ches
in cr
in sensitive
in voke
re a
re m
re pl
re cent
re wind
re construct
Ġt shape
Ġt runc
Ġt ambien
on ame
on error
or ry
or ial
at ian
at break
de pends
Ġ= ?
Ġ= ==============<
st ic
st ree
Ġa ri
:< /
Ġ# ...
he mat
Ġ' ]
Ġ' ).
Ġc ip
Ġc ant
Ġc lob
Ġc riter
Ġc ero
al num
Ġf am
Ġf ac
Ġf dict
Ġf names
Ġf mant
Ġf lex
Ġf ocus
Ġp c
Ġp m
Ġp s
Ġp rom
Ġp ub
Ġp ep
Ġp variance
Ġre po
Ġre load
Ġre try
Ġre tr
Ġre feren
Ġre cipient
Ġn atural
Ġo mit
Ġe ss
Ġe value
Ġs ound
Ġs lots
Ġs olution
Ġs ane
Ġs rx
Ġs itu
ĠL D
ĠL ZMACompressor
ct able
Ġ- --------<
ra s
Ġb other
Ġb payload
Ġb light
Ġb race
Ġin struction
ce d
ro mpt
nt uple
ss ize
co ther
Ġde dent
Ġde reference
Ġw nd
Ġw atch
Ġw ide
Ġw elcome
Ġw rote
ge nt
ge nce
ge bra
lo Error
Ġd ct
Ġd uration
Ġd nsnames
ut ing
Ġm ind
Ġm rugesh
IN CREMENT
ĠS we
ĠS ep
ĠS peed
ĠS INK
ĠS QL
Ġis future
Ġis lice
Ġis coroutine
Ġ( >
Ġ( __
Ġ( )),<
Ġ( +-)
ĠC C
ĠC ase
ĠC ache
ĠC lamped
ĠC GI
ĠC REATE
an ger
pt cp
pt ik
ĠT ET
ĠT otal
ĠT YPE
ĠT race
ĠT AH
ĠT AV
ri ef
Ġto file
AT OM
ad ic
un ing
un ified
Ġ" |
Ġ" ,<
ve ct
ve is
ĠD ialog
Ġfor bidden
di dMo
il ding
ine se
Ġco v
Ġco verage
Ġco ordlist
---- --
---- -<
ĠA SS
ĠA YIN
Ġst ub
Ġst em
Ġ""" ,<
__ "<
__ ?<
as sed
as array
is builtin
is logical
set mode
set profile
get file
get result
get long
get doc
get addr
get sampwidth
get nchannels
get framerate
get mro
get capabilities
get atime
line buf
int ro
ex plain
() +
() /
() }<
() )))<
Ġbe long
ĠI F
ĠI d
Ġra ng
file pos
file Mailbox
ult inomial
Ġh on
Ġh ass
Ġh asta
Ġcon tra
Ġcon ven
Ġcon struction
ab cs
ab bb
ĠW IN
(" *
(" ="
ĠF ol
ĠF our
ĠF rance
ĠF igure
code name
Ġas ked
id o
id ual
ĠR ED
ĠR AND
ĠR untimeWarning
Ġdi ed
ĠB in
ĠB ET
ĠB orland
Ġ[ ]:<
Ġ[ ]):<
ĠP S
ĠP r
ĠP atch
ĠP UN
ĠP ORT
ĠP RI
ĠP endingDeprecationWarning
ff f
ĠE scape
ĠE AGAIN
ĠE astern
Ġel t
ig int
-------- +--------
ci de
ci as
ci bly
RA GMA
path OrFile
RE EN
RE CO
Ġlo mant
data gram
Ġdata length
ĠO ptim
IC T
Ġg d
Ġg at
Ġg vars
Ġg rouped
ĠM ime
ĠM AR
ĠM achine
Ġ2 24
Ġal gebra
ist ext
am in
op a
op ad
op args
dir fd
Ġma crelease
Ġma ilfrom
Ġso le
ĠV ector
ĠV alid
ĠV RFY
sh r
sh allow
ĠG IME
'] )]<
py d
py int
py list
py dict
py tuple
Ġpro mp
sc he
ĠH ET
ĠH as
ĠH EX
ĠH tml
ĠH IGHEST
ĠH KEYS
Ġfrom data
ac quired
Ġget members
Ġget addrinfo
Ġget refcount
Ġch ksum
Ġhe lo
Ġhe av
no stic
Ġset default
Ġpre p
Ġpre exec
Ġpre serving
Ġpre sence
Re pr
Re fs
Re cipients
ust ar
append left
IL TIN
Ġr f
Ġr t
Ġr gb
Ġr mtree
Ġun lock
Ġun define
Ġun buffered
Ġun usable
Ġtra cking
IS LNK
IS FIFO
mo difi
Ġv on
Ġv min
Ġv max
Ġv oid
col l
col width
Ġstring EndArchive
iter keys
iter rows
comp anies
Ġtest repr
UT C
UT ILS
ca pt
ca file
port map
Ġk o
Ġk nn
Ġk ris
01 03
01 22
01 12
01 16
01 30
01 78
01 45
01 46
01 39
Ġnew s
Ġnew path
Ġnew addr
Ġnew headers
=' %
=' *',
Ġ3 4
vi a
Ġsys root
ild card
ĠRe member
ĠRe curse
EN V
print f
write back
write frames
write ln
Ġ>> ><
.. ..
po variate
arg ar
arg values
ĠDe v
train X
Ġla ddr
format year
format month
Ġ(' .
place d
ĠĠĠĠĠĠĠĠĠĠĠĠĠĠĠĠĠĠĠĠĠĠĠĠĠĠĠĠĠĠĠĠ ĠĠĠĠĠĠĠĠĠĠĠĠĠĠĠĠĠĠĠĠĠĠĠ
Ġstr s
Ġstr ptime
Ġstr tobool
De mo
wa ke
lic ing
Ġsub tle
rou ver
St andard
Ġmo strar
ib ull
obj table
ent ries
ĠEx port
ĠIn struction
Ġz replace
DE LAY
IP V
oc cur
max linelen
Con fig
Con stants
ant o
Ġms gs
Ġsh own
Ġsh adowed
default mod
Ġcmd tuples
rc ParseError
Ġformat annotation
ĠY es
ĠDIGIT S
ĠReturn ed
sub parts
sub actions
men u
LO AT
for ge
Ġmax line
Ġmax col
Ġ'. ')<
we red
end ly
Ġ5 2
Ġ5 4
ĠSt ats
Ex tended
Ex plained
Ġopt parse
Ġsy non
Ġdis assemb
Ġab stra
log reg
ĠZ AIN
ĠZ AH
ĠZ AY
Ġerror msg
build out
)) -
)) ])<
cor p
Ġcor rection
Ġsu ggest
las ma
): ]
WN OHANG
UN ARY
UN RECO
com munication
PE P
Ġsc hed
item getter
ld shared
ĠQU IT
ĠQU OTE
Ġtoken izer
Ġover all
SS A
File name
File Type
Ġdel attr
doc strings
Pro gram
ĠUn less
ĠUn fortunately
ĠUn expectedException
Ġiter ables
sy nch
ide al
EX E
Ġpart ies
Ġcalled funcs
Ġnext file
vo ir
Ġ8 7
IF C
mod ulo
Ġevent ually
ĠCon trol
ĠCon crete
Ġthere of
Ġsome what
Ġatt ack
message s
Ġprefix ed
16 2
16 00
exp an
Ġstop lineno
Ġcom munication
strip spaces
Ġ(" _
Ġqu incy
Ġfollow links
tri p
tri es
bit wise
bit field
Ġbuild time
Ġrandom ization
ph an
ĠJ ython
11 00
Ġbin hex
(* _
Ġallow Zip
has free
Ġlocal spec
Ġlocal tm
Ġhere by
ans wered
Ġdiff lib
Ġdiff Ã©
url handler
Ġcopy stat
'\ $
'\ \\
Stream Server
ĠImport s
sa ving
Base V
Base d
Base Browser
He loError
skip keys
top op
top level
ax es
ĠRE H
Ġ7 20
update counter
Ġfind all
gn ant
Ġorder s
ĠFor king
reg ar
reg ular
Un pickler
ĠDistutils Module
ĠDistutils Arg
Ġfinal izer
('- ')<
('- '*
18 030
ĠBRA NCH
ĠDEV NULL
EXT ENDED
EXT RACT
Ġhost mask
The se
ĠQ OF
Ġass umption
Ġbo unded
Ġport ions
Comp atibility
90 90
Ġreal path
Ġ{} \
Ġ{} })<
Ġpickle code
Ġpickle tools
17 5
inter action
inter polate
void resp
Ġ", "
Ġali ased
Ġunder score
ts pace
Ġfull bcount
WO ULD
eg acy
Def ine
ĠCh inese
Ġzip path
LI ED
send to
24 0
Ġext sep
pass wd
Ġmon otonic
ĠPre tty
diff lib
BU ILTIN
pending cr
Ġcache s
Ġright most
ssl context
Ġgot o
Ġsepar ately
Ġprogram ming
Ġrest ype
ĠPro duct
LIC IT
exec vpe
sig mask
Ġpla ys
Ġ9 7
Ġ9 8
Ġmain loop
optim ized
specifi cation
Inter active
exe cl
tr ust
writer ow
ĠComp at
Ġ". %
AS YNC
Var Guard
Ġpad x
Ġwould n
ĠMe mber
Ġsubclass ing
post er
post ers
Ġsplit chars
Ġcallable s
Ġdifferent ly
Ġdesc r
To RE
To Tensor
Ġpri me
Ġet b
Ġshort name
Ġpop s
Ġpop item
Ġstrip quotes
ĠPL ACE
ĠBase Server
cros sentropy
"] ):<
fin ish
ien ted
------- +<
Ġdeta ched
DO CTYPE
DO CUT
1234 567
abstractmethod s
ĠFile s
ĠFile IO
Ġcolumn Types
CON DITIONAL
TO KEN
ĠNO OP
('/ ')
Ġaccess ing
stamp Items
Ġnet bios
017 2
017 3
alias ing
Ġsort ing
dr wxr
ĠStreamReader Protocol
Ġcap abilities
go od
single fileMailbox
Ġ'* '<
display ing
seq ToRE
Ġshow ing
description s
VAR IANT
ĠNe ighbors
Int Flag
Ġsimple r
Ġsimple st
requi re
Ġ'" %
Ġ'" '<
ĠLinear SVC
git b
Ġest ablished
Ġaccept able
unicode stringnl
angle Offset
hist plot
hist roy
pp m
spawn ve
Ġindic ator
ĠFILE NAME
Ġalias ing
ĠPy PI
hex tet
hex digest
hex tets
Ġinteg rate
Ġabstract method
Generator Exit
Time RE
Ġpatch level
cum ulative
UD PServer
Ġ'=' :<
('< ')
Ġclean ed
Ġpartial method
Ġ'@ ':<
ĠVari ous
scale b
Module Type
Ġ64 0
Ġret code
Ġinher itable
ĠSystem Error
Ġmaint ainer
msvc rt
Ġconversion s
loor div
ĠNNTP Permanent
ĠAddress List
Ġconnect or
ĠOver view
ĠOver ride
draw n
gre edy
ĠID NA
ĠSub normal
mun ge
Ġasyn core
Ġgre eting
sw apped
ĠOr der
Ġprog name
mult iline
Ġnl pos
Socket Transport
NL CRE
Ġaut hentic
cons ist
Ġ{" _
Mapping View
ĠCal culating
ĠCal cula
Meta class
Mo vie
mm mm
accept ing
ĠSpeci fic
Ġ"' ":<
Ġconsume s
Ac quire
ane se
ĠLe ave
fallback s
ĠLAM ED
ĠHeader Regist
undobuffer size
eval u
UST OM
Ġfall s
ĠWin DLL
encoder s
ĠMy C
ĠUp dated
Ġadds ite
CV S
Ġseg ments
Ġseg mentation
MAC HINE
ĠHandle s
Ġparsed ate
Ġpredicate s
Ġinner most
ĠHelper s
rm ul
Ã¡ veis
windows version
decomp ose
Ġtok num
ĠRaw ConfigParser
Ġcanon ic
LONG NAME
LONG LINK
}: {:
Ġcer ts
Async Generator
epoch s
Ġmis match
("' ",
ĠBu ilding
Parameter Kind
Unix CCompiler
ln gettext
CHAR S
Ġke epends
Ut ilities
cri minant
ĠCor oWrapper
ĠAp ache
Ġeg gs
Ġmult icast
Ġmult iline
ĠAli as
Ġcreation flags
ĠQu oted
ĠGeneric Browser
Com ment
multi column
Ġ199 8
Check er
ĠSer ies
ĠCON NE
GN IZED
Ġspe ll
CLASS ES
ticle Info
decl startpos
Ġinherit ance
Linear Regression
Proactor Base
Main Thread
high er
Ġjump s
Ġevalu ate
Dummy Command
Ġrefer ring
-------+ --------+--------
DocTest Suite
Ġfore ver
Ġsmtp lib
Ġradi x
Ġradi ans
Ġmanip ulate
Ġmanip ulating
SHORT EST
Ad am
Fe edParser
NNTP Base
Ġcr pos
Ġhit ting
Ġarreg los
Contain s
?? ?
Ke ep
gan ancia
ming w
ĠFeb ruary
ĠBytes Warning
ĠBytes Generator
ĠBroken Barrier
Ġsuc ceeded
Ġcertificate s
Ap ple
HTTP Server
Ġdaemon ic
Missing Required
SY SC
ĠLZMA Decompressor
Ġconvent ions
ĠWh ite
HANDLE S
={} ,
ASS ERT
clas stree
Ġcle ver
Ġdev null
Ġrand int
Ġrand below
Ġcapt ura
Ġmaintain ing
FRAME WORK
SUB SC
SUB JECT
gu y
Ġ--------------------------------------------- -<
rev ations
ĠNL CRE
REQU EST
Named Tuple
Max Pool
Ġul y
Ġpus hes
Ġstamp id
ĠRES H
Ġ*** '
STD IN
NON AUTH
RT LD
Ġdeli very
('\\ ',
Ġcomput ing
(... ):
Any Str
ĠSPECIAL METHODS
Ġsect dict
.*? )
ĠTho se
ĠTho mas
Ġ"\\ ":<
ĠAg ain
ĠOper a
ADD R
SDK s
Weak Set
Pure Proxy
sift down
Ġban ner
transfer cmd
kwonly argcount
ĠcentDir Count
Predicate Str
vvvv vvvv
La uncher
Visual Studio
Ġ'** '
Ġdecor ated
ament o
ĠClean ing
Ġstand alone
Ġencry ption
aaaaaaaa aaaaaaaa
TCP Server
ĠTemp late
ĠTemp orary
Ġbehave s
ida de
Ġsec ure
REQUI RED
Code Type
æį ®
Ġreli able
Ġremo tespec
ĠSun OS
ĠDAL ET
Ġseri e
Ġdistin ct
Exp and
Datagram Server
deli ms
('@ ',
ĠUD PServer
Ġ327 68
Execut ing
Char set
Ġdecla re
SPECIAL S
(""" \<
Writ ing
å·® å
Ġnest ing
Ġ"$ "
Ġ+-------+-------+ -------+--------+--------
ĠOVER VIEW
ĠMOD IFIER
Ġrm dir
minimum width
ĠComparison s
ĠInteractive Console
BUT A
wcs dup
ĠCluster ing
Ġsubtra ction
ĠSeleccion ar
Builtin FunctionType
BYTE CODE
Ext TestCase
äº Įä¹
leator io
Ġclo ses
Ġbrow se
ĠIMP LIED
ĠOri ginal
Ġbytest ream
Ġunambiguous ly
Ġxg boost
ĠContain er
Ġgran ted
Ġabbrevi ated
Bound ary
Script s
Tar Error
sn printf
Ġtc setattr
urlen coded
ĠDer ived
explan atory
Ġ<== >
Ġbus iness
Ġcharbuffer type
æľĢå°ı äºĮä¹
SPAR SE
glo merative
ĠSAME KH
ĠMix in
Ġflus hed
BEGIN NING
è®¡ ç®Ĺ
Ġcircum stance
BATCH SIZE
FRO ZEN
FACT ORY
Lamb da
Tomor row
Vent as
dum mies
dop rompt
ebc dic
}-% {
çļ Ħ
Ġing res
Ġreferen cias
Ġsitu ations
INCREMENT AL
didMo dify
getlong resp
ultinomial NB
Ġhass pace
Ġconven ient
ĠRED UCE
ĠMAR BUTA
ĠGIME L
ĠHtml Diff
Recipients Refused
Ġabstra ction
ĠZAY IN
UNRECO GNIZED
synch ronous
ĠDistutilsModule Error
ĠDistutilsArg Error
WOULD BLOCK
DOCUT ILS
ĠHeaderRegist ry
MissingRequired Value
Ġ+-------+-------+-------+--------+-------- +<
æľĢå°ıäºĮä¹ ĺ
! ')<
" ;
" ?
$ "<
' ><
' ***
' ([\
( .
( ([
( \.\
) ].
) ?<
+ \.
+ ================================================
, \
, ))
- \
- ]+
/ $
2 34
4 20
5 30
9 87
: ,
: ],<
= ,
> /
> ################################
> '),<
> -------------------------------------------------------------------------------<
> ################################################
? ')<
A test
A uthor
A IFF
A ttributes
A IFC
A leatorio
B C
B D
B R
B it
B test
B ED
B IO
B ag
B otnet
B YE
B EFORE
C DE
C AN
C ore
C ores
C lash
D K
D Z
D rows
D river
D uplicate
E d
E limin
E mocjonal
E BADF
F J
F S
F ET
F im
F unc
F PS
F lappyBird
G ra
G ot
G ive
G PT
H i
H EXT
H orizontal
I E
I con
I ENT
K D
L ice
M ESS
M ulti
M IMENonMultipart
N I
N V
N Z
N ESS
N RI
O p
O SE
O pioidDisp
P ower
P ickle
P lasma
R P
R ad
R GS
R oute
S c
S to
S ample
S ized
S croll
S orry
T up
T ON
T am
T itle
T OP
T imer
T CS
T ABILITY
U sed
U ATION
U tt
U uidCreate
V ote
V otes
V ARA
W TER
W ine
W ritten
W ickets
[ {
] }")<
] ?\
_ ')
_ '))<
a lect
a ciÃ³n
b ing
b lo
b ath
b box
b io
b tc
c w
c la
c int
c zy
c logo
c racy
d dir
d ta
d buf
d itional
d ane
d ana
d angling
e th
e value
e mb
e cho
e uro
f list
f act
f lam
g ly
g raph
g ather
h x
h it
h ape
h yper
h ops
h asta
h yphens
i and
i ors
i FieldStorage
j ap
k n
k ÄĻ
l args
l iter
l ator
l just
l legal
l ongs
l GetResultCount
m g
m h
m r
m il
m aries
m matizer
n m
n Model
n ntp
p il
p am
p format
p ublic
q content
r d
r k
r le
r ho
r Ã©
r just
r ather
r ational
s ol
s plat
s niff
s pectral
s mtputf
t ight
t break
t runc
u gate
u zu
v or
v ise
v text
v string
v iso
v illageLevel
w on
w ave
w ers
w intypes
x plot
x dead
x imo
y t
y fi
z b
| %
| |
| \.
} %
} _
} :<
} ':
¤ ÑĥÐ½ÐºÑĨÐ¸
° ìĿ´
µ ìłľ
· æľ
½ æķ°
Ã µ
á ¹
ã Ĥ
è ¡
è ¯
é ĩ
ë ³
ë ł
í Ħ
Ġ Î
Ġ í
Ġ lif
Ġ 92
Ġ ////////////////
Ġ qualname
Ġ ]['
Ġ Å¼y
ĩ ½æķ°
ĭ Łå
Ĳ ì
Ĳ Ī
Ĳ ëĬĶ
ĺ ĲëĬĶ
Ļ ðĿĳ¢
ł ·æľ
se ll
se aborn
in ds
in cremental
in ations
in has
in formation
in dependent
in cluded
in structions
re po
re aded
re raised
re commend
Ġt ss
Ġt text
Ġt ak
Ġt ien
Ġt mm
Ġt enPercent
Ġt ilde
or arily
at ial
at ched
at omends
de ptarget
Ġ= "
st or
st md
st item
st dev
Ġa ds
Ġa just
Ġa ka
le ver
le ast
Ġi start
Ġi stra
er tain
Ġ# ----------------------------------------------------------------
he ma
he bre
he appush
Ġ' """
Ġ' >>
Ġ' '),
Ġ' ::
Ġc one
Ġc as
Ġc code
Ġc time
Ġc len
Ġc pos
Ġc compiler
Ġc rop
Ġc submit
Ġc rypt
Ġc gitb
me s
al ty
al pn
Ġf la
Ġf ft
Ġf stack
Ġf chmod
Ġf latten
ar p
ar s
Ġself ref
te l
te p
te cted
Ġp ue
Ġp rue
Ġp type
Ġp ress
Ġp hi
Ġre tained
Ġre folded
Ġn x
Ġn ro
Ġn di
Ġn os
Ġn iter
Ġn avig
Ġn apis
Ġn arz
Ġo pens
Ġo pioidDisp
ur k
Ġe mp
ion Level
nd bm
Ġs b
Ġs get
Ġs iz
Ġs code
Ġs am
Ġs ms
Ġs ca
Ġs po
Ġs wo
Ġs vc
Ġs aw
Ġs atis
ĠL S
ĠL i
ĠL en
ĠL oc
ĠL ines
ĠL ower
ĠL PARAM
ĠL MTP
ra ke
ra ses
it to
it Ã©
Ġb ure
Ġb sup
Ġb lake
Ġb attery
Ġb azy
Ġb rief
Ġin o
Ġin so
Ġin cl
Ġin for
Ġin verse
Ġin ferred
Ġin tact
Ġin tention
ce mber
ro st
ro om
nt a
co we
co erce
co ords
Ġde x
Ġde crement
Ġde signed
Ġde litem
Ġde ndogram
Ġw ri
Ġw sk
Ġw iÄĻ
Ġw intypes
Ġw ysoko
ge te
ge tenv
Ġd ont
Ġd ru
Ġd oraise
Ġm and
Ġm dict
Ġm us
Ġm max
Ġm diff
urn ament
ue ur
IN DEX
ER ENCE
ER CHAN
ĠS C
ĠS L
ĠS am
ĠS AM
ĠS aving
Ġis data
Ġis firstline
li p
li fe
li eve
li fied
AL ED
AL INE
Ġ( *
Ġ( """
Ġ( ==
Ġ( ?<
ĠC M
ĠC a
ĠC one
ĠC atch
ĠC ython
ĠC allback
ĠC FLAGS
ĠC apture
ĠC AMERA
ĠC RT
ĠC ALC
ĠC NRI
ĠC ertain
""" \
Ġdef er
an ext
an ny
an cing
ĠT W
ĠT AT
ĠT ORT
ĠT ARGET
ĠT itulo
ĠT ires
ri ch
ri as
Ġto desc
Ġto uch
Ġto dos
AT IO
ad s
ad am
ad ania
un set
un used
un handled
un ordered
Ġ" ...
Ġ" '\
Ġ" ###
ve tic
IT LE
IT IS
IT IES
IT NESS
ĠD S
ĠD od
ĠD ay
ĠD IST
ĠD ane
Ġfor th
name list
ĠN ested
th h
Ġco mplement
ul us
ĠA ng
ĠA ttribute
ĠA uto
ĠA ug
ĠA zure
ma j
Ġst n
Ġst range
Ġst andardizing
val i
Ġ""" ,
ata ures
__ ),
as m
as z
is ub
is method
is reg
is dst
is Open
is recursive
is keyword
is oweek
Ġex cess
Ġex pi
Ġex plan
set pos
set uid
ke ting
ke eper
(' :
(' ^
(' {
(' =?
get set
get ref
get member
get full
get comptype
get mtime
get initargs
get defaultlocale
get shapepoly
get statusoutput
up relu
up On
ex pt
ex istent
Ġ1 25
Ġ1 13
Ġ1 23
Ġ1 55
Ġ1 43
># --
() "
() )[
() )])<
ver bosity
fi d
fi la
ĠI ns
ĠI ll
ĠI dent
ĠI ocpProactor
Ġra in
Ġra jouter
file dialog
Ġh a
Ġh mac
Ġh yp
Ġh yphens
el ling
el Discriminator
Ġ+ -
Ġ+ ---
Ġ+ /-
Ġcon na
Ġcon catenate
ab o
ĠW ould
ĠW ARN
ĠW AVE
(" .")<
(" _",
(" ------------------------------------------------
(" ==========
en ie
en aming
ĠF a
ĠF lags
ĠF lag
ĠF LAG
ĠF ields
ĠF rench
ĠF ITNESS
ption s
== "
Ġas king
Ġas sembly
ĠR C
ĠR ew
ĠR EST
ĠR osen
ĠR ushing
ĠR ATIO
ĠR enaming
def ines
def ining
", ".
Ġor gan
ĠB U
ĠB en
ĠB IG
ĠB atting
ĠB etter
Ġ[ ]).
Ġar t
con current
con straints
con firm
con centration
ĠP op
ĠP HO
ĠP unctuation
ĠP aleta
ĠP AX
Ġu so
Ġu nter
Ġu gly
os ite
ĠE ven
ĠE quivalent
ĠE OO
ĠE INVAL
RA DI
path lib
et ting
bu cket
RE ST
RE CURSIVE
list funcs
Ġ< ---
Ġan alog
Ġme m
Ġme ch
Ġme ets
pre set
pre gnant
), ))<
Ġ* ********************************
put Text
ĠO ptik
IC A
Ġg one
Ġg ap
Ġg ave
ĠM a
ĠM AS
ĠM ERCHAN
age n
Ġline End
Ġline nos
art ic
Ġse ed
Ġse quential
Ġse cret
Ġse maphores
Ġ2 009
Ġ2 60
Ġ2 37
Ġ2 015
Ġy f
am ro
rue div
op name
op map
op hist
op eration
read all
Ġma lformed
fo x
fo is
fo od
25 9
lib file
lib names
Ġon click
out going
ĠV isible
from keys
ule r
Ġos x
ic ated
ĠG u
ĠG lobal
'] (
'] }
'] [:
py debug
py unicode
Ġpro tos
sc ure
sc ula
test file
test ed
AR FLAGS
ĠH int
ĠH ave
ĠH ouse
ĠH RESULT
ĠH etting
Ġen closed
Ġen ables
Ġen caps
Ġfrom desc
ac l
ac ted
ac ao
Ġget Last
Ġget defaultlocale
Ġarg tuple
per m
per form
per ties
ext n
ext s
pro duce
pro perties
Ġset context
Re coder
Re quest
Re cursively
Re cData
==== <
ust rative
att ree
append ing
IL LED
fe bab
Ġr x
Ġr cur
Ġr frame
Ġr mode
Ġr Ã³
Ġl g
Ġl s
Ġl w
Ġl sock
Ġl ru
Ġl java
Ġl rx
Ġl hs
Ġun condition
Ġun related
mat ure
mat rice
red it
Ġtra ject
IS E
IS ON
IS ING
IS SOCK
IS REG
IS CHR
Ġv ide
Ġv oting
Ġx d
Ġthis line
col lection
ms gs
Ġpa is
Ġpa lette
ho pen
Ġcomp uter
Ġcomp osite
low est
cre vise
time it
Ġnum s
Ġnum ery
Ġnum Vars
len coder
03 01
03 85
03 90
03 685
ht m
Ġk las
Ġk aÅ¼
01 50
01 48
Ġnew set
Ġnew format
In sert
In itVar
In voke
Ġ3 7
ĠRe pr
ĠRe quest
ĠRe cursively
EN AMES
Ġout going
[: ])<
04 9
04 03
04 02
04 55
04 09
Ġoption list
Ġpath lib
print ing
fix ed
string lit
Ġkey board
arg min
arg parse
arg where
ĠDe pending
char acters
ak a
Ġla unch
Ġ(' ''
dex p
Ġpo i
Ġpo cz
Ġread sms
De compress
De leted
wa ga
min ated
by name
Ġsub key
Ġ: )<
ste men
') \
') )])<
ich Users
St ats
pi e
pi o
opt name
Ġmo is
Ġmo ving
Ġj ava
us parse
UL ATING
da de
Ġ4 096
64 2
ĠIn stantiate
Ġup norm
Ġz ro
Ġz adania
ten ant
Ġno yau
ĠAC C
oc tets
ĠK AS
ĠK ILLED
ERT AIN
US ERS
US AGE
split ter
max headerlen
dent ation
Con cept
Con stant
Con crete
Con venience
IZ ING
22 20
======== =
Ġwhich users
Ġlog arith
Ġsh ield
Ġend match
new file
new Line
UM NS
Ġcmd loop
Ġformat month
tain ing
Ġdist ancia
ĠY ears
Ġfirst NinetyPercent
sub dirs
sub parsers
AC C
AC CES
LO bject
LO UT
LO OP
sk i
for ks
for cibly
tro ff
net Block
Ġmax Var
Ġmax imal
Ġmax SpeedButton
Ġexp m
Ġfe ataures
Ġfa ut
app le
app data
check points
check Read
Ġinter rupted
width s
state ErrorLog
state Report
Ġ5 1
Ġ5 0000
lp fn
lp adding
20 5
CT OR
run Error
cmd loop
cmd queue
ĠSt ates
sent inels
Ġap k
Ġap art
result sign
ENT RI
'. ')<
ME MO
Test Suite
Ġversion info
Ġversion PredicateStr
Ġwa ste
long opts
np n
np ack
Ġab cd
log y
count plot
SC REEN
Ġframe list
be g
be come
be ef
msg in
decode string
decode bytes
ĠZ adanie
)) [:
cor relation
++ +
++ <
++ ',
Ġencode bytes
with in
Ġsu ck
ĠNot ice
Ġ<= <
Ġinit log
Ġinit fp
UN TIL
rit ical
ĠIN CLUDING
ĠDE LI
com m
UR ONS
ĠSE LECT
source file
source forge
LA S
Ġlast line
Ġlast cs
Ġlast pos
Ġlast header
Ġlast space
Ġlast elt
Ġlast TenPercent
Ġ\ ?
PE CT
Ġ'< =',
Ġsc hema
the se
Ġtrans ition
Ġtrans formation
group widths
02 1
]) ')<
]) ])<
]) ",<
err write
cond name
Ġover loaded
File Writer
ID X
Ġloop back
Ġop name
Ġop posed
Ġcontin uous
Pro to
ĠCONT RACT
ĠUn i
IO US
Ġ[' _
find linestarts
raw input
Ġobj s
Ġiter keys
sy nt
sy stemen
Ġ'% ':<
ast ro
Ġ/ <
Ġvari es
Ġnext cs
Ġdir contents
Ġaddress of
shape trafo
Ġ8 21
Ġad rstr
Ġexist ed
xa o
ĠCon tin
ĠCon caten
ĠCon venience
ĠCon sider
Ġoff er
Ġ10 7
16 1
Data Set
Data Generator
ory tm
exp lo
Ġstop ni
Ġ6 8
strip id
Ġ(" %
Ġstate Data
Ġstate Name
ref lect
og raph
bit bucket
Ġback end
Ġback prop
right Eye
Ġbuild up
Ġbuild no
offset s
Ġafter wards
install root
Ġindex ed
derr s
Ġwhere as
ph ic
local ized
ARE QUAL
Ġstat ist
Ġman ages
ĠJ ack
ĠJ ava
11 8
has hopen
xf rm
sp atial
Ġstd lib
Ġstd scr
Par is
Ġlocal context
Ġblock Name
create line
abc abc
Ġcopy fileobj
'\ (
'\ .
'\ <
Ġact s
vide os
rid able
Base Transport
Base Protocol
Base Dataset
Base PyPIRCCommandTestCase
TH IRD
ĠHE LP
13 5
13 9
13 3333
abs file
skip ped
"), ),<
Ġsuper net
Se ek
Ġ... "
Ġ... ]<
06 51
19 8
19 88
next tok
Ġver files
Ġver sa
token L
tar open
Ġ7 2
Ġ7 7
Ġ7 00
HE Y
gen res
gn usparse
PAR ISON
ĠRFC s
reg ion
Ġerr print
Un der
Un register
ĠDistutils Error
Ġenum er
AM P
Ġpy list
Ġarch iving
ĠEND MARKER
('- '
queue s
gram Name
bin int
bin ding
bin bytes
bin ascii
bin unicode
ORT OK
VER ED
cent dir
cent roid
block ed
Ġtop ad
Header MissingRequiredValue
event ually
ĠSH ALL
Ġold value
lear ing
CH LD
Ġattr getter
Ġbo ot
Comp ressed
short s
rest ing
Ġ{} "<
Ġskip s
Ġskip docs
17 2220
Di ffer
Di vis
Di alect
Ġssl proto
Ġrow span
Ġ", (
=[ <
=[ ],
{} .
{} {}'.
Ġvar names
pri m
pri ors
tk owej
ĠPO ST
float nl
Ġfp name
na v
na ire
Ġsum ming
send mail
75 80
75 79
Ġmon it
very thing
over flow
ĠData Prepare
Name To
stream s
month dates
ĠAN ON
Ġright pos
return s
headers only
Ġmultip lier
Label Frame
Ġimp ly
Ġimp lib
Ġgot it
Ġprogram mer
full match
first member
au cracy
Ġstruct s
ĠCOM BIN
LIC INGS
Ġ16 384
bc def
cy ch
ustom er
sig ns
Ġexec utes
Ġinformation al
Ġmeta cls
mk temp
Ġro le
Ġmain ly
Ġsend mail
Ġsend sms
case fold
Ġfix er
ale s
initial ization
AS ES
stop Words
Ġreg res
cap ability
]] ).
Ġlimit ations
Ġ12 00
SSL Method
Ġsplit s
Ġdescrib es
left Eye
difi c
77 77
To o
Ġnormal SpeedButton
Get Proc
Ġet ique
Ġshort hand
Ġpop Keys
ĠEX IST
ĠPL AT
typ ically
Ġtermin ation
COM PARISON
ĠBase d
"] ]<
Py Bytes
Py Long
fin ally
ĠUN LESS
ĠUN TIL
ien ie
DIC TION
rand range
Read PipeTransport
65 4
Le mmatizer
xfe c
('. ')]<
ĠEN OTCONN
cho lib
ĠSMTP HeloError
Ġsep al
fill ing
bl att
ÅĤ ad
Address ValueError
NO ME
NO OP
BIN SIZE
DO UBLE
1234 56
Not Done
Äħ tkowej
Ġqueue d
Ġ"- ":<
Create Pipe
PRO P
ĠImage DataGenerator
Ġ": "
ĠDoc File
ĠCheck ing
Ġmultiple Replace
Handle Future
complete key
Res ize
Ġfont weight
Ġdiv iding
Ġfilter ing
ny u
zy j
Ġnet s
Ġnet rc
Ġip address
User List
User String
Ġtb info
Ġshe arfactor
017 0
017 1
ĠCF uncPtr
ĠInter net
ufe c
inte gers
Ġcap itals
ĠAl ready
Ġheap replace
connect ing
ERR ORTOK
ĠUse ful
045 2
045 3
045 8
End RecData
Ð¸ ÐµÐ½ÑĤ
Ch rome
lem matizer
cmp error
ĠAS PECT
allow Zip
unique Id
49 67295
Ġput ter
]* )'<
Ġtz off
Ġcluster ing
non local
Ġappe ared
NE URONS
Pipe Proto
sen der
pick lable
Ġcolon s
gb k
Ġest ablish
)] ),<
Key Dictionary
Ġgen der
Ġauto matic
SMTP Exception
SMTP ResponseException
Ġappropri ately
Ġ'? ':<
need one
47 7580
WR APPER
fram ing
pens ing
ARG EST
Ġ`` _
Ð¾ ÑĤ
Ð¾ ÑģÑĤ
ĠINITIAL IZING
Ġappear ance
Text IOBase
euc KR
Ġeigen vector
Ġuni q
parent s
}' ")<
Ġcross val
Ġincrement ing
some thing
015 1
015 2
015 3
015 7
Ġref count
Ġref use
ĠPy CompileError
ĠCol lect
ĠCol lection
Ġinteg r
Ġinteg ral
Ġdown conv
exact ly
comment ers
ĠÐ ¡
ĠÐ º
ĠÐ ¤ÑĥÐ½ÐºÑĨÐ¸
ĠGet ModuleHandle
Thread ingMixIn
Ġdt dst
Ġclear stamp
ĠUUID s
Ġhex digits
Ġhi mant
Default EventLoopPolicy
dat aroot
Ġclean ing
Ġpr Ã³
factor ing
72 03685
Ð½ ÐµÐ½Ð¸Ñı
}/ {
12345678 12345678
NOT OK
Su bject
Ġct dll
ĠText IO
ĠText Wrapper
Ġunicode string
leg ÅĤo
alt chars
Ġsw ap
Ġbp list
Ġbp number
Action Text
selector s
ĠDi vide
Windows Path
ĠAs Param
ĠMo strar
ĠMo Å¼esz
prog name
Argument Group
Ġloc ally
Ġdouble SpeedButton
gree k
Sh are
sin usoid
ĠOver flow
ĠTurtleScreen Base
IM UM
Imp ossible
Ġ11 01
Ġalign ed
ĠPOINT ING
Ġë ĺĲëĬĶ
ĠMac intosh
Object ID
Ġ----------------- ------------
Ġbad line
Ġdecl type
mapping s
Ġouter boundary
Ġtab licy
Ġeval uation
Ġbig rams
Ġhist or
Ġhard coded
ĠReg EnumKey
Method Wrapper
mro s
Ġarbit rarily
namespace s
Mapping ProxyType
Ġut c
FFFF FFFF
Ġmedi a
Ġprece de
Ġprece des
poll Selector
Add r
Ġdetect ing
Ac cept
Ġmac ver
AGE GRP
Ġinstanti ation
Ġgu ard
Ġmulti Part
ĠBE ING
quant ile
Ġ------------------------------------------------- ---<
Ġhappen ed
Random Crop
aj ÄĻ
Ġil nyu
Ġpercent s
destroy All
ĠHeader ParseError
sd ss
Ġ31 01
ynam ically
064 0
TR UNC
she bang
ĠTime Series
Ġcomb ining
Ð¾Ð ·
contin uous
recv from
ĠConvert ir
Over flow
Over ride
Over runError
Wait HandleFuture
Ġredu ction
Ph one
fr ontal
xml charrefreplace
lex ists
ĠRes netGenerator
Work Items
Ġbug gy
Print able
des cent
>#---------------- -----------<
############## +================================================
CODES IZE
Ġfs path
pat ches
pat ched
Ġbra ku
ĠNew s
Ġactiv ate
tod ata
Ġmis c
Instance s
Instance Error
Ġlay out
Ġaddition s
Parameter s
Ġstripped line
don othing
ĠIs Window
Ġfinish ing
Unix Browser
Ġmedian a
BIT MIME
Cancel Dlg
ln k
Ġli fe
('_ ',
LAN G
MS IG
Some one
cz ne
Ñģ ÐºÐ°
let ter
ĠPredi cted
ĠCor rela
ATT ING
ATT RIBUTES
ĠAd apted
ĠExtract ing
UNC ERTAIN
And Size
And roid
And NotDone
Ġtr uth
ĠAR RAY
ĠAR GS
ĠAR ISING
ĠQu ery
Pass Warning
Abstract ContextManager
inv ocation
ĠLO OP
ĠLO CALE
ĠInte l
As cii
As CompletedWaiter
Qu oted
mut ated
Ġspe nt
Ġsim ulate
ĠBad OptionError
'\\ '<
batch Size
delay value
hel vetic
conflict s
conflict ing
Ġsen der
Product s
Call Items
aut hentic
ĠWork er
ĠPlot ting
Division Undefined
Table Html
zas ieg
Ñĥ ÑģÐºÐ°
Ġescaped state
Ð½Ð¸ Ð¼Ð¸
Ġcell spacing
Ġ"# "
Ġsear ches
Ġinteractive ly
ĠDecisionTree Regressor
)+ "%\
Dlg Font
Mutable Sequence
Skip Test
ÅĦ cowe
ĠâĢ ľ
increment alencoder
rep lied
dead state
Ġ'> ':<
('* ')<
Ġsubstit ution
LOG IN
difference s
Ġterminator s
DocTest Runner
Build ExtTestCase
Ġurod zenia
Ġsmtp d
Ġdeci des
begin ning
Ad ding
NNTP Error
wit ness
dep loy
Ġign or
ĠES R
weet s
Transfer Encoding
ĠbÅĤÄĻd y
Ġ================================= ================
Ġ================================= ============<
Ġincre asing
ĠCre ated
ĠCre ating
ĠNet rcParseError
ĠEl lipsis
creating Poly
Ġaccur ately
At tempt
POL LIN
POL LOUT
xca febab
ĠSET TING
==' __
REG TYPE
START TLS
ĠKNN Classifier
Ġsynch ronous
Ġminim ize
Perceptron Classifier
Sendfile Mode
bat ches
Ġmatter s
={} ):<
Long Tensor
gv Orders
jÄħ ce
ë¦ ¬ì
Ġod pow
Ġaccum ulate
Ġcapt ures
3333 3333
Ġë³ Ģ
Ġë³ µìłľ
Ġwynik u
App Error
App lication
App lies
OVER VIEW
preprocess or
ĠConnection Error
Ġ--------------------------------------------- --<
ĠInterpolation SyntaxError
ĠPerform ing
White Pct
æķ° æį®
Pos icao
mid dle
tw isted
star imports
ĠNL ayerDiscriminator
Ġserial ize
ĠUnet Generator
percent age
ĠInst anci
Ġhook s
Subprocess PipeProto
Description HelpFormatter
Ġwyk resu
Ġwyk orzyst
Do es
GU I
glu cose
pas v
comb ined
ĠAnal ise
four ier
ĠVersion Predicate
ENCE METHODS
does n
Byte String
ti ff
Ð´ Ð¸ÐµÐ½ÑĤ
decompress obj
ĠLine al
ĠPass ing
ĠPass word
Ġlamb d
dapt er
requested Execut
requested Privile
ðĿĳĽ ðĿĳİ
âĢĿ ,
Ġsucceed s
({} .
Ġfraction al
Ġbroadcast ing
ĠTwo Pix
ĠTwo AlignedDataset
Ġconf l
Ġsect name
Ġvo it
docstring dict
ĠWeb Driver
Param s
Ġimplicit ly
Ġdivis a
Support s
EXTENSION S
Tra jek
je ction
åı ĺ
ĠÃ ł
Ġlive s
Ġtot alf
Ġnie uzu
Ġens uring
Ġbas ically
ĠCHO OSE
ĠAg glomerative
assertNot Equal
SCHE ME
categor ies
Show Window
;' >
CUT OFF
Ġ'... '<
Ġban co
([^ \
usersite packages
EXIT ED
EXIT STATUS
ABIL ITIES
COMPRESS ED
HOST FLAG
ĠSocket IO
SIGN ALED
war ded
Ð¿ ÑĥÑģÐºÐ°
ĠÑģ Ð¿ÑĥÑģÐºÐ°
Ġhar m
Ġhar monic
Ġdistrict Name
ĠGreg or
Ġpremi er
ĠRegist ro
FileName Path
ðĿĳľðĿĳ ĻðĿĳ¢
ĠDiff erent
scalar s
ĠDETE CTED
ĠDETE CTOR
'( \.\
FUNCTION S
NORMAL IZE
Ġtweet s
Ġ################################################# ##############<
Ġbi orytm
Regist ers
ILLE MET
ĠUnknown FileError
Ġ655 36
Ġ655 35
ĠDisplay ing
~~~~~~~~~~~~~~~~ ~~~~~~~~~~~~~~~~
"} :<
"} ),
Custom ers
Jan uary
Pa ir
onkey press
Ġir re
Ġremo val
Ġmiesi Äħc
ĠDes cent
fire fox
Ġaspect s
ĠRUN CHAR
apis z
ĠObject s
Ġrule r
1415 9
ðĿĳĺ ðĿĳľðĿĳĻðĿĳ¢
Ġ======================= =<
?, ?,
Ġqual ified
Ġ'// *[@
Ġdas hes
ĠTermin ate
resolve d
ĠUD P
omor phic
ĠUnique AddressHeader
Ġmilli seconds
ĠIGNORE CASE
Gaussian Bl
Single Object
gamma variate
Ã± o
Ġcel u
Ġcel lpadding
Ġmd or
conver ters
ĠHand ling
Ġpare ns
ĠYO U
ĠChild ProcessError
ĠDataProcess SimpleImputer
ĠDataProcess KNNImputer
PREDICT ORS
Ð½Ð¾Ð ³Ð¾
ĠOPEN CV
Ġirys ami
611 728
Net Lemmatizer
Ġ"> ":<
diag onal
ĠWord NetLemmatizer
ĠRed acted
ĠBinary IO
ĠEjecut ar
Ġmet amro
ĠGU ILLEMET
Ġvil les
Ġxml ns
Ini cio
Ġ39 77
Ġfair ly
lookbehind groups
MIS PACE
tor ia
Ñī ÐµÐ
Ñĭ Ð¿Ð¾Ð»
âĪ Ĵ
Ġtip os
Ġeff ort
ĠTyp ically
ĠWy ÅĽwiet
ĠFun cao
ĠFAIL URE
ĠPosition als
Ġpropa g
Democrat Vote
Ġcontinu ations
ĠConversion Error
Ġquad ratic
Ġmanag ers
blk size
ĠATT RIBUTE
ĠÐ¿ ÑĢ
ĠSubsequent ly
FromString AndSize
ĠgramLevel Rows
Categor ias
16655 84
ĠpremiÃ¨ re
Authentication Error
ĠktÃ³ry m
discriminant s
'| '.
Double Var
GT ITLE
HERS HEY
NAL DATE
RW Pair
Telnet Selector
WE EL
retr lines
Ġfon ctions
Ġinde pend
ĠCop per
TERR OR
interr upt
Ġconsum er
ciph ers
RELE ASES
Ġshor test
MEM BER
SCI IL
Ġdatat ypes
]*(?: \\.
ĠAccept s
Posix Path
>[- +
Av g
Acc racy
Wnd Proc
clo ser
wz rost
ĠÐ¸ ÑĤÐµÑĢÐ°ÑĨÐ¸
Ġpod staw
Ġremp la
Ġnntp lib
ĠLIAB LE
Ġdowns ampling
uper set
ĠWND PROC
APPRO VAL
ĠMutable Mapping
ĠMAPP ING
ĠkÄħ t
Ġ429 4967295
2233 7203685
ĠChat GPT
Ġaggreg ated
Ġsprawd z
ĠÐ² ÑĭÐ¿Ð¾Ð»
WaitFor SingleObject
ĠÐ³ÑĢÐ° Ð´Ð¸ÐµÐ½ÑĤ
mpanchay at
>.* ))?
XHD TYPE
jar at
smo oth
Ġtrunc ating
Ġfam ili
ĠASS ERT
getfile systemen
Ġcontra variant
Ġalgebra ic
sche mas
ĠHEX DIGITS
Ġmaxline length
expan der
phan um
Ġplays ound
trust Info
evalu ated
ĠBrokenBarrier Error
Ġcircumstance s
æľĢå°ıäºĮä¹ĺ æ³ķ
+\. |\.
>################################ ##############+================================================
>################################################ ###
CDE CL
Clash Error
Drows iness
Ed it
Emocjonal na
FET CH
Gra mpanchayat
Give upOn
HEXT ET
Lice nse
MESS AGES
Rad io
TON DOWN
Utt ar
VARA RGS
WTER MSIG
hasta gs
liter als
viso es
xdead beef
°ìĿ´ íĦ
ĠÅ¼y cia
ĭŁå ĲĪ
ł·æľ ¬
incremental decoder
recommend ations
Ġistra ceback
Ġ#---------------------------------------------------------------- ----------<
hebre w
Ġcone x
Ġfft pack
Ġfchmod at
Ġpue de
Ġprue ba
Ġndi mage
Ġnavig ate
Ġsca led
Ġspo za
Ġsvc classifier
Ġsatis fy
Ġbure aucracy
Ġinso far
Ġwysoko ÅĽci
ĠCone xao
ĠCALC ULATING
ĠTAT WEEL
ITIS M
ĠAng le
isOpen ed
Ġexplan ation
getref num
ĠIll ustrative
("------------------------------------------------ ---
("========== ")<
ĠFLAG S
ĠRosen blatt
Ġunter minated
ĠEOO H
RADI US
ĠMERCHAN TABILITY
artic les
Ġ237 3
ophist icated
ĠHetting er
ĠgetLast ObjId
Ġuncondition ally
Ġtraject ory
Ġvide os
Ġpocz Äħtkowej
Ġlogarith m
checkRead able
lpfn WndProc
ENTRI ES
MEMO IZE
ĠDELI VERED
172220 7579
NameTo Info
ĠCOMBIN ING
GetProc Address
ĠEXIST S
ERRORTOK EN
ĠÐ¤ÑĥÐ½ÐºÑĨÐ¸ Ñı
ĠmultiPart FileWriter
destroyAll Windows
ĠTimeSeries Split
ĠCorrela Ã§Ã£o
AndNotDone Futures
helvetic a
Ð½Ð¸Ð¼Ð¸ Ð·
xcafebab e
Ġë³µìłľ íķĺìĹ¬
ĠInstanci ar
requestedExecut ionLevel
requestedPrivile ges
ĠWebDriver Wait
Trajek toria
Ġnieuzu peÅĤnion
ĠAgglomerative Clustering
ðĿĳĺðĿĳľðĿĳĻðĿĳ¢ ðĿĳļ
GaussianBl ur
ĠWyÅĽwiet l
DemocratVote Share
22337203685 477580
ĠÐ²ÑĭÐ¿Ð¾Ð» Ð½ÐµÐ½Ð¸Ñı
ĠÐ³ÑĢÐ°Ð´Ð¸ÐµÐ½ÑĤ Ð½Ð¾Ð³Ð¾
+\.|\. +)',
>##############################################+================================================ =============<
GiveupOn Sendfile
°ìĿ´íĦ °
! "
" (
" +
" -
" ])
$ <
$ )',
% ':<
' ~
' ':<
' ')
) #
) `
) ])
) ":<
) ][
) ")
) (?:
* /
* \.\
+ =
+ ),
+ ))?
- (
- +
. +
. :<
. ',<
. ".
. ''')<
/ __
/ ')
/ '+
1 16
3 50
3 65
4 10
4 096
5 11
5 80
7 23
8 75
? )<
? ",
? =<
A pe
A lert
B in
B as
B ias
B MP
B AS
B ayes
C B
C c
C l
C nt
C FLAG
C II
C ost
C BA
C USTOM
D ER
D rop
D EST
D BM
E V
E val
E ach
E ng
E VER
E EXIST
F O
F ill
F TP
F Info
F older
F ITS
G IAN
H ex
H EX
H ome
L IG
L dir
L FLAG
L WS
L arge
L ayer
L ARGE
M F
M ON
M SVC
N P
N EG
O x
O ct
O ther
P at
P ing
P ack
P ED
P INT
P unjab
R H
R N
R ed
R est
R IFF
R MSE
S ue
S AL
S imilar
S cores
S kew
S oname
S tep
T op
T out
T RAN
T race
U Z
U INT
U npack
V is
V IS
V MS
W I
W eb
W alk
W hat
W elcome
W ARD
W hether
W ISE
W EXITSTATUS
[ .
] =
] {
] ][
^ %(
_ ':<
_ '),<
a vail
b n
b q
b t
b on
b ine
b as
b path
c x
c ame
c ise
c ab
c ram
c amera
c atalog
d ge
d lib
d log
d lopen
d Completion
e qui
e quivalent
f set
f ault
f array
f del
f ish
f mant
f walk
f ragment
g G
h ns
h att
h ne
h mac
h oriz
h scroll
i ff
i et
i add
i log
i va
i mplement
i mag
i rable
j emp
j ulian
k de
k er
k an
k ri
k len
l k
l seek
m j
m one
m list
m ir
m times
m cygwin
m uch
m ises
n x
n id
n uth
o sed
o ols
p name
p pend
p ho
p ink
p variance
r sub
r fd
r wb
s f
s ch
s ized
s ume
s bin
t v
t item
t gz
u f
u er
u ck
u abcd
u scula
v n
v fs
v scroll
w p
w ide
w rites
w apped
w rote
x p
y r
y st
y hat
y stems
z f
z ed
| -
} "
} [
} ...
} ")
} ={
} >'<
} $'<
¯ å
Ã ĥ
å ¾
å Į
æ ĺ
Ġ Å
Ġ ,<
Ġ ).
Ġ rid
Ġ rough
Ġ serving
Ġ atext
>< !
se ur
se ries
in ci
in formative
in odes
re w
re ally
re direct
re constructor
re curse
Ġt ill
Ġt ie
Ġt uning
Ġt rouver
on om
on screen
or iented
at iv
at ura
de le
de qu
de codable
de ndrogram
st ime
Ġa gen
Ġa rial
Ġi b
Ġi sex
er ci
lf oo
Ġ# ('
Ġ' )')<
Ġ' )',
Ġc he
Ġc ab
Ġc str
Ġc mode
Ġc ram
Ġc las
Ġc pp
al gorithm
al gorithms
Ġf c
Ġf urn
Ġf ma
Ġf get
Ġf ed
Ġf header
Ġf resh
Ġf tps
Ġf qdn
ar ly
Ġp res
Ġp ou
Ġp dir
Ġp error
Ġp ip
Ġp frame
Ġp end
Ġthe ory
Ġthe week
Ġre ve
Ġre cal
Ġre indent
Ġre fc
Ġre generate
Ġre members
Ġre initialize
Ġre lies
Ġre building
Ġre produce
Ġn ue
Ġn th
Ġn ic
Ġn lines
Ġn rows
Ġn cols
Ġn dbm
Ġn odata
ur i
ur ations
Ġe max
Ġe specifi
nd hdr
Ġs l
Ġs z
Ġs ch
Ġs mo
Ġs pect
Ġs io
Ġs lower
Ġs caling
Ġs anitize
Ġs leep
Ġs olaris
Ġs niff
Ġs ndhdr
ĠL a
ĠL u
ĠL um
ĠL ast
ĠL arge
ĠL PL
ct ures
ing Classifier
ra st
it mo
Ġin ve
Ġin form
Ġin str
Ġin use
Ġin structed
Ġin verted
Ġin corp
ro file
co very
co variant
Ġde co
Ġde termin
Ġde codable
Ġw est
Ġw ave
Ġw sp
Ġw ish
Ġd Ã©
Ġd ÃŃ
Ġd angling
Ġd anger
Ġd ynamically
Ġd klen
ut ch
Ġm do
Ġm token
Ġm Ã¡
Ġm unge
Ġm fid
IN SERT
ĠS G
ĠS to
ĠS out
ĠS ample
ĠS cale
ĠS ampling
ĠS ymbolTable
ĠS crolledCanvas
Ġis code
Ġis frame
Ġis stdin
Ġis generator
Ġis bjunk
li ance
li que
ot ate
Ġ( )
Ġ( ):<
Ġ( ("
Ġ( "<
Ġ( ['.
Ġ_ )
ĠC V
ĠC ream
ĠC OL
ĠC LA
ĠC ancel
ĠC HAN
ĠC VS
ĠC lick
Ġdef n
Ġdef Text
an on
an ag
an chor
pt s
pt on
pt ParseError
one cmd
TER MIN
ĠT ra
ĠT AKEN
ĠT Pen
Ġto lower
Ġto das
Ġto urnament
ck er
ad jacent
un encoded
un registered
Ġ" '''
IT T
ĠD Y
ĠD ER
ĠD IS
ĠD IR
ĠD rop
ĠD av
ĠD NS
ort hern
di co
di ds
ĠN or
ĠN ET
ĠN ON
ĠN EXT
ĠN ORMAL
ĠN anny
ĠN orthern
th ose
il le
Ġco ule
Ġco vers
ul ing
ul ations
ul tex
ĠA lp
ma cs
ma ndo
ma king
ma cholib
ma ker
Ġst y
Ġst orage
Ġst andardi
val Reference
ch atter
ch ors
ch Mailbox
', )),<
Ġ""" (
__ ('
__ ).
__ ["
__ }')<
__ }")<
is generator
is lnk
Ġex pen
Ġex og
Ġex cluding
Ġex cel
Ġex posed
set items
set tiltangle
ke le
(' ~
(' {}
(' =',
(' ----------
(' (')<
get s
get size
get lang
get userbase
get compname
get gr
get tempdir
get fqdn
get sockopt
get peercert
ex per
ex pect
ex povariate
Ġ1 92
Ġ1 87
># --------------------------------
Ġth rown
() (
() ",
() ",<
() `.<
Ġbe ne
Ġbe lieve
ath row
ath dr
ĠI AN
ĠI ris
Ġra n
Ġra re
Ġra ces
file path
file Ref
Ġh x
Ġh is
Ġh key
ter se
Ġ+ ------------
Ġcon tri
Ġcon tr
ab r
ab out
ab ling
ĠW ill
ĠW IDTH
(" :
(" =
(" ***
en te
ed ad
ed Ref
ĠF red
ĠF IX
ĠF ilter
ĠF NAME
ĠF etch
ĠF latten
ĠF UNCFLAG
ĠF IFO
id le
ĠR SET
Ġfile lineno
ation ship
ĠB os
ĠB ax
ĠB LK
ĠB rian
Ġar row
Ġar ranges
con da
res a
ĠP ol
ĠP AR
ĠP ress
ĠP UB
ĠP atterns
Ġu u
Ġu mask
Ġu chunks
ap pe
Ġ== >
ĠE g
ĠE limin
ĠE CONN
ĠE ric
ĠE arly
to file
to filedate
Ġ% -
Ġel lipsis
tra s
ig u
ig lob
-------- ---
LE MENT
ci om
ci dent
ime d
ime zone
Ġelse where
qu z
bu y
RE AL
RE CORD
RE SP
list ener
Ġ< %
Ġ< ,
Ġlo gs
class ic
Ġan chors
Ġme ss
Ġme dio
Ġme tod
Ġme mor
Ġname prep
Ġdata Frame
Ġ* _
Ġ* __
Ġ* ([
ĠO ur
ĠO ops
IC METHODS
Ġby e
Ġg z
Ġg ur
Ġg ztar
ĠM ODE
ĠM SD
ĠM ixed
ĠM etadata
ĠM ultinomialNB
form atting
ly nx
age Results
Ġline terminator
est atura
and annotation
Ġ2 40
Ġ2 47
text wrap
text domain
Ġy hi
Ġy fin
Ġy Hat
am s
read ahead
ĠU uidCreate
ĠU STAR
ĠU sually
OR GIAN
Ġso lo
lib System
Ġon ward
ĠV oting
from filedate
Ġres cale
Ġres ultex
ic as
sh util
lab ility
ĠG B
ĠG O
ĠG MT
py profile
Ġpro ve
Ġpro be
Ġpro tect
sc ap
test fn
ĠH mm
ac c
ir it
Ġget pos
Ġget addr
Ġget tempdir
Ġarg var
pro f
pro t
pro gb
no pts
Ġset append
Ġset heading
Ġset upt
Ġpre defined
Re mote
Re direct
Re versible
ust a
ust rial
append s
Ġare a
Ġr l
Ġr w
Ġr pt
Ġr key
Ġr fn
Ġl l
Ġl stat
Ġl iterator
Ġl notab
Ġun readable
Ġdo stime
ip name
cur rency
ES SE
Ġfun ny
Ġtra iler
mo dify
Ġv ary
Ġx bar
Ġx gb
Ġx status
Ġthis Type
Ġwe ighted
iter monthdays
ĠX OVER
ms dn
comp act
init y
init iate
Ġcomp func
Ġcomp liance
str tok
Ġ{ _
UT ION
Ġnum array
Ġnum topop
len cia
ED A
03 13
03 84
03 31
Ġk f
Ġk m
Ġk wo
Ġk inds
01 64
01 55
01 65
01 47
01 62
Ġnew name
Ġnew func
Ġnew level
Ġnew params
Ġnew stats
Ġnew Line
In v
In st
In ser
In formation
In correct
=' *
=' +
=' ),<
Ġ3 40
Ġ3 147
vi ces
add ch
ne got
ĠRe cursive
ĠRe sets
ĠRe quires
ĠRe cord
mal lest
EN I
Ġout f
Ġout msg
ty le
04 00
04 96
attr getter
fix es
Ġ>> =
Ġtime val
im os
ĠDe al
ĠDe cl
ari an
Ġla ppend
Ġne ces
Ġne gate
Ġne ighbors
format warnmsg
pos ite
ifi c
ifi cations
Ġread module
Ġread func
ĠĠĠĠĠĠĠĠĠĠĠĠĠĠĠĠĠĠĠĠĠĠĠĠĠĠĠĠĠĠĠĠ ĠĠĠĠĠĠĠĠĠĠĠĠĠĠĠĠĠĠĠĠĠĠ
Ġstr start
Ġstr tok
De pth
lic ate
cal ar
QU OT
scri pted
Ġsub strings
Ġsub stats
Ġsub directory
Ġsub mitted
Ġsub entry
Ġ: ',
ste al
') ],
') ).<
Ġcall Text
St rictVersion
base dir
opt arg
opt dict
date scale
iel ding
Ġat omends
ink s
trans lation
Ġ! <
Ġ4 3
Ġ4 4
Ġ4 6
obj list
Ġint uitive
64 5
64 7
64 32
ent ity
Ġdire ctions
ĠIn sert
ĠIn her
ĠIn icial
ĠIn dentation
Ġz ef
DE LETED
Ġno tes
Ġno tests
IP Address
ĠAC E
pr t
ĠK H
ĠK nuth
inal ia
max dict
max levels
Ġtext group
Ġcal ib
Con figure
OT YPE
22 6
22 9
Ġac cident
======== <
10 2
Ġlog b
Ġlog file
Ġlog dir
Ġlog ged
cket ing
Ġend points
frame info
Ġcurrent Thread
new func
default dict
Ġcmd line
of ficial
Ġcheck sum
ĠY train
ĠY ee
sub scribe
IR WX
Ġ` (
Ġ` __
AC H
var name
var set
var prog
var progb
LO ST
Ġsource lines
ok er
Ġfe e
encode key
encode string
Ġbase dir
server thread
8859 5
(( -
(( _
load ing
check cache
check Writ
Ġinter pol
Ġinter ior
end point
end og
end chars
end rec
Ġ5 8
Ġ5 000
lp AttributeList
CT RL
CT UATION
ENT IAL
Ex ponent
Ġopen mode
dist class
Ġopt val
'. *
Ġfiles ystems
Ġdis pon
Ġdis crete
Ġdis allowed
Ġdis covered
header written
Ġab i
Ġab orted
log dir
AN Y
kw arg
ĠZ ero
Ġdoc tests
config uration
arch ical
arch iver
)) )-
ep s
Ġcor rÃ©
std scr
Ġencode key
): ",
Ġinit scr
Ġinit iate
ĠIN DIRECT
open fp
open hook
open pty
UR I
ĠSE MISPACE
AD PCM
Ġper c
Ġper taining
Ġ** {
Ġspecifi ers
Ġ\ \\
Ġ'< ',
Ġ'< ':<
Ġsc r
Ġsc ann
the n
the y
the month
param kind
02 6
stat cmd
stat istics
item configure
UP INFO
UP DATE
va lencia
Ġtoken L
Ġextra ction
context lib
cond itional
Ġover writing
File IO
File Input
File NotFoundError
ID D
sys root
user home
... >,
temp prefix
temp dirs
Ġop s
Ġop ponent
En v
En queue
En abled
ĠUn ited
Ġdecode s
find Soname
gh lan
gh dr
Ġobj dump
Ġiter monthdates
stem med
Ġfin ishes
parse gen
Ġ'% %
Ġ'% (
EX PORT
EX CL
ast y
Ġ/ =
Ġpart y
Ġpart ially
ible s
Ġmake path
Ġ8 4
IF Y
IF REG
IF OTYPE
Ġsign ify
Ġsign aled
Ġad apted
ore an
ĠCon v
ĠCon stant
ĠCon nect
ĠCon sume
ĠST ORE
15 6
15 29
ĠAr reg
ĠAr ticleInfo
copy fileobj
16 7
Ġ6 9
Ġcom mented
14 0
Ġback test
][ ^%(
items ize
ph p
AB CD
Ġman ner
ĠJ une
ĠJ ulian
ĠJ uan
11 01
ron ization
Ġbin ding
(* ,
has local
ag ain
part ies
create image
OS AS
link path
abc de
OP I
OP ERATOR
Ġsingle ton
Ġsingle dispatch
OF S
ĠImport ar
ĠImport ant
sa f
Base Selector
TH READ
Ġsuper class
Ġ... ")<
Ġ'- ',
GE ORGIAN
06 3
06 65
next file
IX USR
Ġver bosity
ĠRE ADER
ĠRE PEAT
pack ager
ĠKey edRef
Ġposition s
HE AD
Ġindi cation
update pos
gen ops
100 0000
100 00000000
can Ventas
Ġ'/ ',
Ġ'/ ')<
Ġ'/ '.
Ġcomple tions
fol ding
fol ds
23 5
23 6
23 7
vai lability
PAR SER
Class ified
EL F
ĠFor ce
Ġ'_ '<
Ġ'_ '.
Ġlong name
Ġlong opt
Ġtemp erature
Ġtemp orarily
Un lock
Un expected
ĠDistutils Internal
Ġ', ')<
Ġstri des
Ġcharset s
Ġpy pi
Ġrequi ring
18 3
VER SAL
FF MC
pop item
exit status
Ġbyte order
Ġflag list
Ġold root
__, )<
Ġass umptions
Me an
ĠOption ally
Ġattr name
Ġbo ok
Ġbo ost
Ġport able
Comp are
Ġinstall s
short name
33 7
Lo okup
Ġlib re
Ġsave s
less FileLoader
lower case
member descriptor
Ġlook ahead
Ġ"" ):<
Ġ"" ),
17 3
17 6
17 85
Ġcons ult
Ġid le
inter mixed
Ġpipe pager
struct CentralDir
Ġraw sock
Ġraw block
{} ?
{} ]+
ĠStream Recoder
Ġunder st
\\ \\
PA X
Ġ[" -
Ġarchive name
Ġfull circle
Invalid Base
88 2
ĠCh rome
global names
reader s
0000 0003
Ġwait time
Pre process
pass line
ĠPre cision
over ageResults
RAC E
Name Sequence
Ar rays
Ġob serv
fake out
Ã© todo
ORD ER
mark length
Ġmultip ly
Ġmultip lied
Ġimp ossible
plat include
Ġ{' _
(? !
au g
YP ED
Ġ"% (
bc de
cy cle
Ġdll s
Ġexec v
Ġ9 3
Ġ9 59
ert ical
Ġmodules byfile
ccess fully
ale on
ĠWindows Path
ĠComp iled
Ġpad chars
ĠMe di
stop ping
Trans late
Ġday secondsfrac
Ġ'{ !
Ġ12 6
Ġ12 345678
SSL Protocol
Ġrel ationship
Ġaddr s
Ġag re
To ol
bar s
which db
chine se
87 4
Get Exit
Ġpop ulated
Ġstrip Arch
norm variate
CLA IM
Ġawait able
ob type
Read s
Le ft
('. '))<
cho ose
ĠSMTP DataError
ĠSMTP ResponseException
ĠSMTP RecipientsRefused
Ġ--------------------------------- ---------------<
ĠSSL Error
dev anag
Ġwin inst
MAX REPEAT
"\ $
SET ITEM
cul ates
Ġcolumns pan
DO C
DO CS
best i
66 66
Ġ"- //
09 55
Path s
Ġdispatch er
Ġcomplete key
ĠDoc TestCase
ĠDoc Server
Ġmultiple x
desc r
Ġaccess or
Res olve
Ġsp irit
Dict Writer
Ġshe l
poly item
poly trafo
Ġdes de
Ġdes cend
ĠCF unction
bab ly
Ġsig int
ĠMIME Base
ĠStreamReader Writer
)( .*)
medi um
contain ers
ĠAl gorithm
ĠPo inter
gra il
Ġ'-- ',
Ġ'-- '<
ERR NO
ĠEn code
045 9
ident s
()' ;
Ġshow warning
regist ries
vers ally
vers ity
Ġtmp l
('% ')<
Ġour selves
lack ware
Ġdomain s
ĠNe ither
Ġmodifi cations
45 8
Ġjoin ing
Ġ'" ')<
ĠLinear Dis
bad module
non multipart
non ctext
reduce d
Ġaccording ly
Ġextract s
Ġest ad
ĠPar sing
Key words
Key boardInterrupt
Per form
]+ [
WR ITES
td out
Ġseconds frac
ARG COUNT
Ġmy offset
Ġmy cmp
Text Calendar
spawn v
ĠDocTest s
euc TW
parent ly
Ġindic ators
rpm build
}' ".
015 4
015 8
015 9
Ġref num
ĠPy OS
ĠPy cInvalidationMode
hex version
Ġinteg ration
PC build
ĠAss umptions
Ne arest
Ġsyntax es
ĠContent s
Thread ing
Thread PoolExecutor
Ġtag ged
Ġpatch ing
Ġiterator s
expand vars
Ġclear s
Ġph rases
Ġhex lify
pickle code
async contextmanager
Up date
Up load
inner frames
Ġtre es
('< ',
41 22
deta il
Ġpr Ã©
Ġbar f
ĠNEG ATE
Su chMailbox
ĠRET R
ĠDi abetes
ĠHel ler
Ġunpack ed
Ġspeed ing
ĠName s
ĠName space
ĠMo zilla
Ġsite dir
Ġsite packages
this guy
Simple Dialog
Simple Queue
Ġpat ched
common path
common prefix
Ġdelay func
unix ccompiler
54 863
Sh ort
Sh ared
ĠAddress Header
ĠOver ridden
ĠAny Str
EH LO
draw turtle
ĠID s
ĠInvalid HeaderError
Doc TestCase
ĠSub Pattern
Ġcalcul ations
Training Data
Ġ'[' :<
Ġ----------------- --<
mapping proxy
ĠINT AR
Ġ~ /.
ĠIO CP
Ġ[(' __
ĠReg res
ĠReg ressor
IAS ES
ABC s
Internal date
Ġaut hobject
cpp flags
Ġassign ments
Ġsafe repr
For ward
ĠSup press
ĠCal ler
ĠBuffered Random
cr le
cr ctable
(', ')
CCompiler Error
Line Item
Mo st
power point
Ġve z
Ġve ct
Ġnamedtuple s
Ġdetect s
Ġrecent ly
RED UCE
Ġcare fully
Ġcare tspace
ĠUser Dict
Ġmk dir
Ġmk time
Ġmk temp
ĠSome times
Random Forest
Random NameSequence
Ã§ Ãµ
Ġfi fo
Ġes mtp
Ġes sentially
Ġpercent ile
Ġpercent ages
ĠHeader s
ze ch
Ġfg col
012 34
Ġcomb inations
Ġ[- >
Ġspawn ed
Wait Cancel
Ġur len
Ġconv olution
compat ibility
Ġmut ated
termin ate
Ġencoder s
Ġrequire ments
ĠEnum Meta
Ġplain pager
ĠThread ing
CODES ET
Queue dCompletion
WA VE
ier archical
regex p
Ġtok val
Ġ19 80
ĠProcess ing
structured Header
Ġcer can
Ġbra cketing
ĠSte ve
ĠNew Type
Ġactiv ity
Async Iterator
Async Iterable
Bytes Defect
LIST S
Ġpure ly
INST ANCE
Ġprodu cer
ĠZip AppError
UNI VERSAL
Ġexe mple
Ġconst s
Gu jarat
Ġnt path
('_ ')<
ĠJan sen
yield from
Ġtransl ating
CALL S
Ut ility
nop ic
nop rofile
Ġcategor icas
Al low
Ġreache s
ĠAR TIC
Ġtransp uest
NET NAME
Ġcar ri
ĠTrans form
ĠTrans port
ĠTrans late
Ġ199 5
ĠFin der
ARCH FLAGS
NEW TRUE
ĠLO SS
ĠCON SEQU
Ġunexpected ly
Ġedge colors
Cor rupt
GN UTYPE
Qu ery
SPE C
Ġsci kit
Ġexclude s
ĠFe edParser
profile r
poss ibilities
CLASS VAR
Temporary Error
beta variate
decl stringlit
Ġnone mpty
Ġasynch at
und is
und oc
recor ds
ĠWork s
("/ ")<
Ġvs base
Proactor EventLoop
CONNE CT
Ġalternative s
Wh ichUsers
Ġhack ed
ĠPipe Handle
LIMIT ED
Of Block
Of Ninety
await able
css class
product s
world coordin
ĠKe ys
Construct s
Ġrot ate
Ġrot ated
cygwin ccompiler
Mutable Set
TEST ED
increment s
Ġdevi ations
('* .
Ġsubstit uted
DocTest Finder
MD d
Stop Iteration
TUPLE S
ĠStart ing
Ad ds
both seps
ĠLog in
buff erent
/. /
=? ",
Ġdu ck
ĠCre ar
Ġextend s
ĠBytes Parser
ĠINTER NALDATE
Ġadv ance
Ġadv ancing
CONN LOST
At tention
Ġdos date
ĠSET UP
Ġ+-------- -+
HTTP RequestHandler
Ġquant a
Ġquant ity
Missing OptionError
Ġmer ged
Ġatom ic
Ġfinder s
Ġbackslash replace
ĠWeak ValueDictionary
Access or
Empty Error
NA O
Store ConstAction
Ġreceive s
ĠApp ly
asyn ciom
Ġthink ing
produ cing
super net
success or
Ġtreat ment
Ġcover dir
White SpaceTerminal
Ġsurro gates
Ġendian ness
Environ ment
Ġtrick s
mor pho
pas sed
sur vived
Ġvent a
Ġcatch ing
Ġwar rant
Ġwar nopts
Ġstamp s
iscoroutine function
ĠRES ULT
Ġ*** ')<
HTML Doc
HTML Calendar
STD CALL
Ġquot a
Ġquot ient
Arg Spec
Byte CompileError
GROUP REF
LINK AT
NAMES PACE
Ġ; -
Ġismethod descriptor
ĠImplement ing
scroll region
Ġvariant s
Ġinterest ed
ĠProper ties
microsoft cp
âĢĿ .
ĠSDK s
ipy es
Ġelimin ating
Ġ"* "
ĠPAS V
ĠEvent Loop
Ġgame s
ĠAPPEND S
Ver dana
Ġmone da
INIT PRE
dic ion
ĠOper ations
ĠGra il
Negative Infinity
drawing LineItem
Weak ValueDictionary
'^ [
DY LD
Last Error
har monic
Ġ'... '
Ġcss class
Ġdevelo ped
ĠGEN ERATOR
note book
ĠDebug ging
ĠDebug Runner
ĠChunk s
COMPRESS ION
ĠcentDir Size
ĠcentDir Offset
FOO TER
Turn s
crypt o
Ġamb igu
Ġskew ed
Ġinc dirs
Ġstand ards
Ġlp AttributeList
ĠRegist ration
Ġcorner s
ĠSTD IN
Framework s
ĠDiff erence
ĠNamed TemporaryFile
sun os
sun au
uso ids
Ġ################################################# ###############<
Ġdecre ases
Ġmarg inalia
ĠSu ccessfully
ĠImp Importer
STOP PED
ĠInitVar s
Code Process
Output Checker
Pa rent
With Arrays
WIF EXITED
WIF SIGNALED
duplic ated
ĠDes cri
ĠNaive Bayes
getmodule name
Ġdistin ction
Ġquopri mime
Member DescriptorType
ĠEngine ering
OBJECT S
Ab ort
Mark er
dw Flags
fre es
zer opad
valor Total
ĠPa rent
ĠVER SION
Ġviol ation
mailcap file
Ġadvert ise
Ġadvert ising
Ġmilli second
Ġtechnique s
Cache Info
cle ver
mem set
mem move
Ġ+-------+-------+ -------+<
conver ter
contra variant
Ġgetsource file
Ġgetsource lines
Ġfinds ource
Ġvers us
BUF SIZE
ĠInteractive Interpreter
ĠLibrary Loader
ĠMacOSX OSAS
Ġanaly ze
bak file
Ġfre ed
Ġev olve
Ġmim ics
Ġ"; "
ĠAut hentication
ĠEjecut a
Ġvil le
ĠExecut ion
THRESH OLD
clearstamp s
Ġhighlight s
kfm client
PLAT FORM
ĠStatistic Diff
'.. '<
BP F
Cho ose
RET R
who le
åĪ °
Ġven v
derivative s
Ġpet al
Ġpract ice
Ġ"? "
ĠRand AL
track calls
Ġparen lev
Conversion Syntax
Ġadminist ered
ĠMemory Error
ĠNeural Network
ĠShort cut
ASSIGN MENT
ASSIGN MENTS
ĠPREFIX ES
CLI ENT
Wake up
embed ded
lli do
mis placed
æĸ ¹
Ġtut orial
ĠLimit OverrunError
uen code
Ġexper imental
REM OVE
REUSE PORT
oper and
Ġenh anced
caref ul
GetModuleHandle W
Ġutiliz ando
Ġthreshol ds
Be fore
ECH O
[... ]
Ġ'(- *
Ġprun ed
Ġocc as
Ġ"(" :<
('$ $',
ĠRound s
Ġ*(" ,"
Ġprohib ited
Ġunnecess ary
ĠExternal ClashError
Ġsynop sis
MAXLINES IZE
Ġsimultane ously
ĠOpcode Info
#$ %
("" ):<
>================ ==
Cygwin CCompiler
DIST UTILS
PLA IN
Sw aps
Spawn Dialog
Ġclob ber
Ġcriter ion
Ġwnd class
ĠFol low
ĠPUN CTUATION
Ġsole ly
Ġpromp ts
Ġheav ily
capt ura
argar ita
Extended Context
Ġsynon ym
Ġsched uling
ĠForking MixIn
spawnve f
ĠNNTPPermanent Error
ĠSpecific ally
criminant Analysis
ĠCONNE CTION
ĠTemporary File
Tam il
jap anese
Ġtien e
urk ish
Ġinfor mac
Ġintention ally
Ġwri ted
rich cmp
getset descriptor
Ġha cia
Ġhyp hen
Ġorgan ised
Ġ********************************* ****************
ĠMAS K
LAS TERROR
ĠContin ue
hashopen ssl
Printable Defect
ĠGregor ian
Ġpropag ated
Ġindepend iente
getfilesystemen coding
phanum eric
+), (\
Ape llido
CUSTOM IZED
LIG ENCE
Sue ld
TRAN S
equi v
hns on
jemp lo
mone tary
mises variate
decodable BytesDefect
Ġisex tended
Ġpou voir
Ġrefc nt
Ġnic er
ĠLPL PINT
Ġincorp or
ĠdÃŃ a
ĠmÃ¡ s
ĠCream os
ĠDIS CLAIM
ĠDIR TYPE
ĠDav id
getgr gid
Ġbene fit
ĠIAN A
fileRef Cnt
ĠFIX ME
ĠBos n
ĠBax ter
ĠBLK TYPE
ĠPAR SER
ĠPUB LIC
Ġmemor ia
Ġyfin ance
ĠVoting Classifier
Ġresultex p
Depth Error
datescale ndar
ĠInher it
IPAddress Base
checkWrit able
Ġdispon ibles
ĠZero DivisionError
ĠcorrÃ© lation
Ġscann ed
ĠArreg los
ĠDistutilsInternal Error
Lookup Error
GetExit CodeProcess
devanag ari
ĠCFunction Type
)(.*) ",<
ĠLinearDis criminantAnalysis
SuchMailbox Error
Ã§Ãµ es
WaitCancel Future
QueuedCompletion Status
ĠARTIC LE
ĠCONSEQU ENTIAL
worldcoordin ates
bufferent ries
asynciom odule
ĠMacOSXOSAS cript
! ",
! ),
! ).
! ="
" *
" [
" _
" ."""<
" ([
" :'
" ))
" },<
$ )')<
' !
' /
' =
' >
' ':
' //
' ([
' >,
' '\<
( (<
( "")<
( .*?)
) :'
) ).<
) "))<
) '.<
) ]),
) }'<
) `,
* $
* ([\
+ ----------------
+ ([
, ):<
, --
, ),<
, ...
, :]<
, :])
- ",
- '<
- #<
- ]?\
. :
. [
. """
. ]<
. ).
. ]*
. ::<
/ "
1 85
1 12
1 32
1 0496
2 003
2 65
2 046
3 64
3 22
3 34
3 0408
3 049
4 04
4 000
4 19
5 84
6 88
7 20
7 11
7 34
7 56
7 158
8 19
8 192
9 22337203685477580
: (
: +
; ',
; ")
= $
> --
> ",<
> '):<
> ["
> [^\
? )
? @
? "<
? ?<
@ <
A E
A UT
A ctions
A pi
A DE
A IX
A nn
A reshape
A lt
A tom
B i
B to
B ig
B AR
B LO
B cc
B EL
B reshape
B ERS
B LACK
B rian
B atched
B RACE
B ORDER
C G
C U
C a
C el
C OP
C ross
C CD
C RAM
C OFF
C GI
C lick
C ela
D M
D N
D R
D Î
D ULL
D WORD
D NS
D ynamicClassAttribute
D zisiaj
E nt
E ns
E OT
E top
E MIN
E WS
E uc
E igen
E quivalent
E AGAIN
E BC
E ACCES
F Î
F ig
F ast
F amily
F eb
F undo
F EM
F lask
F STAT
F izycz
F rance
G e
G ray
G hi
G MENT
G ETTERS
H AT
H qx
H older
I Q
I o
I ts
I MER
J ul
J ak
J ython
J kl
J ava
K Z
K a
K Best
L ic
L CH
L SV
L PC
L APPED
L USH
L ittleEndianStructure
L etter
L ARGEST
L bpath
M I
M N
M a
M all
M OR
M ust
M ay
M TYPE
M ARY
M OUS
M ALE
M ATCH
M andatoryRelease
N an
N OF
N ATIVE
N PN
O w
O OT
O ID
O pioid
O ptParseError
P G
P ort
P layer
P ublic
P USH
P lain
P assed
P RAGMA
Q B
Q DN
R le
R ule
R IX
R SET
S L
S W
S q
S r
S ur
S port
S ep
S INGLE
S ysroot
S olaris
S JIS
S crolledCanvas
T A
T K
T M
T an
T ri
T el
T ake
T wo
T WO
T SCII
T hat
T CV
T han
T witter
T YPED
T IMER
U nsupported
V ARK
V iol
V isible
V ista
V ESSE
V ertical
W on
W ar
W it
W ONT
W INFUNCTYPE
W BITS
W ysoko
W ildcard
X P
X app
Y O
Y train
Y ields
Y ears
[ <
\ -
\ ']).
] ;
] "<
] //
] ]))<
] ))))<
] :]])<
^ -
^ \
^ _
_ )
_ ')<
_ '<
_ [:,
_ "]<
_ ]*
_ ]\
_ ]+)
` ,<
` ),
` ."""<
` ).
a el
a ken
a ware
a ÅĽ
b al
b el
b ol
b ho
b input
b db
b ling
b lobs
b atting
b sd
b ier
b rian
b isect
b attery
c in
c get
c def
c ance
c str
c ratio
c quantity
c pio
c ritical
d j
d y
d text
d ual
d rag
d quote
d tags
d uplex
d IDX
e at
e me
e verything
f x
f an
f rench
f ashion
g ar
g mail
g ments
g libc
g raphics
g Abb
h n
h ot
h ap
h com
h stack
h ls
h yp
h uman
i j
i ct
i ro
i ot
i pt
i ated
i char
i ers
i mplemented
i Äĩ
i gsize
i cio
i ciÃ³n
j du
j av
j unto
k b
k on
k ow
k ms
k bd
k ÅĤad
k orean
l c
l al
l data
l ated
l ural
l bf
l java
l hs
m v
m se
m min
m cls
m uth
m Ã¡
m nie
n z
n test
n ak
n File
n exit
n fs
n locals
o i
o z
o le
o ct
o led
o ctal
p v
p parts
p ics
p nl
p loy
p unct
p bm
p alavra
q r
q NaN
r r
r ar
r file
r frame
r mod
r du
r ins
s at
s ad
s gs
s port
s ib
s ans
s quote
s zy
s Action
s ando
s ze
s HelpFormatter
s weet
s under
s Func
t M
t al
t body
t ori
t runcated
t weets
u i
u ss
u ge
u dar
u hyper
u uencode
v ot
v ic
v format
v stack
v gl
v anced
w he
w ch
w ink
w net
w ning
x Z
x code
x min
x html
y a
y b
y i
y parse
y view
y Å¼
y tick
y ki
y olo
z z
z et
z iel
z ia
z field
z na
z cy
z ba
z Äħ
{ |
| *
| [
| ^
| '<
| \\
| :\
} ~
} "]
} })<
} )')<
} )'<
} )"<
¡ å
¢ Ħ
¤ ê
¤ ĳ
¦ Ī
¨ ¡å
® ļ
± tal
² ½
² Ð°Ð½Ð¸
µ bug
¶ ľ
¼ Į
¿ Ðº
ã ĥ
ä ½
å Ģ
æ ī
æ ĭŁåĲĪ
æ ł·æľ¬
æ ¨¡å
ç »
ç İ
é Ļ
é ¢Ħ
ê ²½
ë Ĥ
ë Ł
ë ²ĶìľĦ
ì ĺ
ì ļ
ì Ľ
ì ĥĿ
í ĺ
ï ¼Į
Ġ Ï
Ġ lf
Ġ sert
Ġ ],
Ġ ðĿĳ
Ġ ÅĽ
Ġ license
Ġ ðĿĳĸ
Ģ ëĬ
ģ Ŀ
ĥ ģ
ĥ Ī
ĥ ī
ĥ Ĳì
ī ðĿĳİðĿĳ
ĭ ľ
Į Ģì
Ĳ ë
Ĺ ´
ļ ©
ļ ci
ł ðĿĳ
Ń ä»
>< ?
se ns
se ms
in a
in ance
in pa
in cl
in ten
in root
in ference
in finity
in ien
in DataFrame
in serted
in dented
in cip
in dext
re ch
re ci
re open
re ts
re used
re ason
re rs
re cipients
Ġt lock
Ġt ape
Ġt end
Ġt alk
Ġt itulo
on ne
on python
on release
or u
or sk
or zy
or rar
de crement
de mocrat
de rer
Ġ= ['
Ġ= =============<
st one
st ata
st able
Ġa ck
Ġa md
Ġa fs
Ġa lert
Ġa dequ
le ge
le pt
le ktualna
Ġi i
Ġi di
Ġi ch
Ġi ci
Ġi sep
Ġi stop
er z
er al
er gy
er Pct
lf w
Ġ# '
Ġ# ################################
Ġ# #<
Ġ# ----------<
he red
he size
he nsion
Ġ' '])<
Ġ' ')]<
Ġ' ()'<
Ġ' ='<
Ġc i
Ġc z
Ġc ro
Ġc nt
Ġc ub
Ġc np
Ġc com
Ġc item
Ġc break
Ġc height
Ġc application
Ġc heap
Ġc fws
Ġc lave
Ġc libname
Ġc zyst
Ġc scaler
Ġc country
Ġc selling
Ġc thickness
Ġc entered
me la
me dio
Ġ0 1
al ab
al and
al am
al ir
al ready
al most
Ġf h
Ġf ue
Ġf set
Ġf id
Ġf ault
Ġf cre
Ġf obj
Ġf rit
Ġf color
Ġf del
Ġf ire
Ġf walk
Ġf sencode
Ġf lappy
Ġf ashion
ar ct
ar pa
ar flags
ar bit
ar ked
te q
Ġp file
Ġp ap
Ġp size
Ġp format
Ġp tin
Ġp df
Ġp orted
Ġp color
Ġp layers
Ġp Percent
Ġp lik
Ġp resumably
Ġp alavra
Ġp TrainingData
Ġthe file
Ġthe clever
Ġre le
Ġre ap
Ġre sent
Ġre create
Ġre strict
Ġre member
Ġre distribution
Ġre raise
Ġre dire
Ġre written
Ġre cording
Ġre ject
Ġre define
Ġre ferred
Ġre compiled
Ġre producing
Ġn T
Ġn il
Ġn ul
Ġn is
Ġn ag
Ġn ale
Ġn ormp
Ġn calls
Ġn finished
Ġn astÄĻ
Ġn uest
Ġn hops
Ġn sems
"" ',
Ġo up
Ġo tro
Ġo tt
ur ar
ur red
Ġe i
Ġe lf
Ġe qu
Ġe date
Ġe ps
Ġe leg
Ġe strat
Ġe scap
ion e
nd im
nd ay
nd iff
Ġs f
Ġs ile
Ġs list
Ġs pa
Ġs ne
Ġs date
Ġs ake
Ġs ie
Ġs alid
Ġs pread
Ġs vr
Ġs aturation
Ġs ophisticated
Ġs calar
ĠL ong
ĠL ANG
ĠL egacy
ĠL inhas
Ġ- ")<
Ġ- (-
ra ine
ra ft
ra dio
it P
it re
it ness
00 000
Ġb ow
Ġb ir
Ġb num
Ġb lt
Ġb lack
Ġb abyl
Ġb lah
Ġin ode
Ġin files
Ġin stream
-- '
-- ',
ce j
ce des
ro Ex
mp son
mp dec
nt o
nt ro
nt ree
nt wo
la re
la nt
la ps
pe ps
pe fully
co efficient
co ordlist
Ġde b
Ġde e
Ġde be
Ġde sp
Ġde als
Ġde notes
Ġde ntro
Ġw d
Ġw file
Ġw id
Ġw ÅĤ
Ġw css
Ġw ickets
Ġw itness
ge z
ge xF
lo an
Ġd la
Ġd code
Ġd raining
Ġd ado
Ġd DF
Ġd inv
Ġd under
Ġd uplex
Ġd zisiaj
Ġd itto
ut a
ame s
Ġm se
Ġm name
Ġm list
Ġm iÅĤ
ue se
IN PA
IN CORPOR
ER ATION
ER ATED
ĠS F
ĠS P
ĠS c
ĠS ide
ĠS IZE
ĠS cores
ĠS light
ĠS uch
ĠS mall
ĠS aturation
Ġis path
Ġis digit
li Äĩ
ot hesis
ot Atom
AL PN
Ġ( =
Ġ( \
Ġ( ('
Ġ( )):<
Ġ_ __",
Ġ_ ________________________________
ĠC L
ĠC ri
ĠC ho
ĠC md
ĠC OD
ĠC amp
ĠC ould
ĠC ustom
ĠC RAM
ĠC TYPES
ĠC iÄĻ
ĠC aracteristicas
ĠC ela
ĠC idade
ĠC overageResults
Ġdef s
Ġdef eat
an k
an ks
pt in
pt out
ĠT F
ĠT re
ĠT ab
ĠT op
ĠT ake
ĠT ay
ĠT ail
ĠT ons
ĠT AO
ĠT LSV
ĠT aken
ri k
ri cs
ri mir
Ġto date
[...]
