{"<s>":0,"<pad>":1,"</s>":2,"<unk>":3,"<mask>":4,"!":5,"\"":6,"#":7,"$":8,"%":9,"&":10,"'":11,"(":12,")":13,"*":14,"+":15,",":16,"-":17,".":18,"/":19,"0":20,"1":21,"2":22,"3":23,"4":24,"5":25,"6":26,"7":27,"8":28,"9":29,":":30,";":31,"<":32,"=":33,">":34,"?":35,"@":36,"A":37,"B":38,"C":39,"D":40,"E":41,"F":42,"G":43,"H":44,"I":45,"J":46,"K":47,"L":48,"M":49,"N":50,"O":51,"P":52,"Q":53,"R":54,"S":55,"T":56,"U":57,"V":58,"W":59,"X":60,"Y":61,"Z":62,"[":63,"\\":64,"]":65,"^":66,"_":67,"`":68,"a":69,"b":70,"c":71,"d":72,"e":73,"f":74,"g":75,"h":76,"i":77,"j":78,"k":79,"l":80,"m":81,"n":82,"o":83,"p":84,"q":85,"r":86,"s":87,"t":88,"u":89,"v":90,"w":91,"x":92,"y":93,"z":94,"{":95,"|":96,"}":97,"~":98,"¡":99,"¢":100,"£":101,"¤":102,"¥":103,"¦":104,"§":105,"¨":106,"©":107,"ª":108,"«":109,"¬":110,"®":111,"¯":112,"°":113,"±":114,"²":115,"³":116,"´":117,"µ":118,"¶":119,"·":120,"¸":121,"¹":122,"º":123,"»":124,"¼":125,"½":126,"¾":127,"¿":128,"À":129,"Á":130,"Â":131,"Ã":132,"Ä":133,"Å":134,"Æ":135,"Ç":136,"È":137,"É":138,"Ê":139,"Ë":140,"Ì":141,"Í":142,"Î":143,"Ï":144,"Ð":145,"Ñ":146,"Ò":147,"Ó":148,"Ô":149,"Õ":150,"Ö":151,"×":152,"Ø":153,"Ù":154,"Ú":155,"Û":156,"Ü":157,"Ý":158,"Þ":159,"ß":160,"à":161,"á":162,"â":163,"ã":164,"ä":165,"å":166,"æ":167,"ç":168,"è":169,"é":170,"ê":171,"ë":172,"ì":173,"í":174,"î":175,"ï":176,"ð":177,"ñ":178,"ò":179,"ó":180,"ô":181,"õ":182,"ö":183,"÷":184,"ø":185,"ù":186,"ú":187,"û":188,"ü":189,"ý":190,"þ":191,"ÿ":192,"Ā":193,"ā":194,"Ă":195,"ă":196,"Ą":197,"ą":198,"Ć":199,"ć":200,"Ĉ":201,"ĉ":202,"Ċ":203,"ċ":204,"Č":205,"č":206,"Ď":207,"ď":208,"Đ":209,"đ":210,"Ē":211,"ē":212,"Ĕ":213,"ĕ":214,"Ė":215,"ė":216,"Ę":217,"ę":218,"Ě":219,"ě":220,"Ĝ":221,"ĝ":222,"Ğ":223,"ğ":224,"Ġ":225,"ġ":226,"Ģ":227,"ģ":228,"Ĥ":229,"ĥ":230,"Ħ":231,"ħ":232,"Ĩ":233,"ĩ":234,"Ī":235,"ī":236,"Ĭ":237,"ĭ":238,"Į":239,"į":240,"İ":241,"ı":242,"Ĳ":243,"ĳ":244,"Ĵ":245,"ĵ":246,"Ķ":247,"ķ":248,"ĸ":249,"Ĺ":250,"ĺ":251,"Ļ":252,"ļ":253,"Ľ":254,"ľ":255,"Ŀ":256,"ŀ":257,"Ł":258,"ł":259,"Ń":260,"ĠĠ":261,"ĠĠĠĠ":262,"><":263,"ĠĠĠ":264,"ĠĠĠĠĠĠĠ":265,"se":266,"in":267,"re":268,"ĠĠĠĠĠĠĠĠ":269,"Ġt":270,"on":271,"or":272,")<":273,"at":274,"de":275,"Ġ=":276,"st":277,"Ġa":278,"le":279,":<":280,"Ġi":281,"er":282,"lf":283,"self":284,"Ġ#":285,"čĊ":286,"he":287,"Ġ'":288,"Ġc":289,"me":290,"ĠĠĠĠĠĠĠĠĠĠĠ":291,"Ġ0":292,"al":293,"Ġf":294,"ar":295,"Ġself":296,"te":297,"Ġp":298,"Ġthe":299,"Ġre":300,"Ġn":301,"\"\"":302,"Ġo":303,"ur":304,"Ġe":305,"ion":306,"nd":307,"Ġs":308,"ĠL":309,"ct":310,"Ġ-":311,"ing":312,"ra":313,"it":314,"00":315,"Ġb":316,"Ġin":317,"):<":318,"--":319,"ce":320,"ro":321,"mp":322,"nt":323,"Ġif":324,"la":325,"pe":326,"ss":327,"co":328,"Ġde":329,"Ġw":330,"ge":331,"lo":332,"Ġd":333,"ĠĠĠĠĠĠĠĠĠĠĠĠĠĠĠ":334,"ut":335,"Ġ->":336,"ame":337,"._":338,"Ġm":339,"urn":340,"turn":341,"ue":342,"IN":343,"ER":344,"ĠS":345,"ile":346,"Ġis":347,".<":348,"li":349,"ot":350,"AL":351,"Ġreturn":352,"Ġ(":353,",<":354,"Ġ_":355,"ĠC":356,"##":357,"ĠĠĠĠĠĠĠĠĠĠĠĠĠĠĠĠ":358,"\"\"\"":359,"Ġdef":360,"ET":361,"an":362,"pt":363,"one":364,"TER":365,"ĠT":366,"ri":367,"Ġto":368,"ck":369,"AT":370,"ad":371,"un":372,"Ġ\"":373,"ETTER":374,"ĠLETTER":375,"ve":376,"Ġ'\\":377,"IT":378,"ĠD":379,"Ġfor":380,"ort":381,"name":382,"di":383,"ĠN":384,"ate":385,"th":386,"il":387,"ine":388,"Ġco":389,"----":390,"ul":391,"ror":392,"ĠA":393,"ma":394,"Ġst":395,"val":396,"ch":397,"',":398,"Ġ\"\"\"":399,"ata":400,"Ġof":401,"__":402,"as":403,"is":404,"Ġand":405,"Ġex":406,"set":407,"Ġnot":408,"ke":409,"()<":410,"ATIN":411,"ĠLATIN":412,"('":413,"get":414,"up":415,"line":416,"int":417,"ex":418,"Ġ1":419,">#":420,"Ġth":421,"mport":422,"()":423,"rror":424,"lass":425,"ser":426,"Error":427,"ver":428,"ype":429,"Ġbe":430,"der":431,"ĠNone":432,"]<":433,"ath":434,"ction":435,"fi":436,"value":437,"od":438,"ĠI":439,"Ġra":440,"file":441,"ult":442,"rom":443,"gs":444,"Ġh":445,"####":446,"el":447,"ter":448,"Ġ+":449,"ment":450,"ise":451,"))<":452,"iz":453,"Ġcon":454,"ab":455,"ON":456,"um":457,"ĠW":458,"ĠĠĠĠĠĠĠĠĠĠĠĠĠĠĠĠĠĠĠ":459,"all":460,"ALL":461,"(\"":462,"bj":463,"en":464,"AP":465,"ĠSM":466,"ed":467,"ĠF":468,"code":469,"ption":470,"==":471,"ĠSMALL":472,"Ġas":473,"id":474,"ĠR":475,"def":476,"Ġfile":477,"\",":478,"')<":479,"Ġor":480,"ith":481,"ation":482,"Ġdi":483,"ĠB":484,"IG":485,"Ġ[":486,"orm":487,"Ġar":488,"ĠCAP":489,"con":490,"ITAL":491,"ĠCAPITAL":492,"res":493,"ĠP":494,"Ġu":495,"ap":496,"ode":497,"ff":498,"ect":499,"Ġ==":500,"ack":501,"os":502,"ns":503,"ase":504,"Ġle":505,"ize":506,"ĠE":507,"to":508,"Ġraise":509,"Ġ%":510,"Ġel":511,"tra":512,"ig":513,"--------":514,"ted":515,"LE":516,"ci":517,"RA":518,"path":519,"ol":520,"ime":521,"et":522,"Ġelse":523,"qu":524,"es":525,"bu":526,"RE":527,"list":528,"Ġ<":529,"Ġlo":530,"class":531,"ry":532,"Ġan":533,"Ġme":534,"pre":535,"Ġvalue":536,"ring":537,"),":538,"Ġname":539,"Ġ\"\"\"<":540,"data":541,"Ġdata":542,"Ġ*":543,"put":544,"ĠO":545,"IC":546,"Ġby":547,"xt":548,"Ġg":549,"ĠM":550,"',<":551,"form":552,"ys":553,"ly":554,"age":555,"ITH":556,"Ġline":557,"Ġwith":558,"art":559,"est":560,"ĠWITH":561,"bject":562,"ow":563,"rint":564,"and":565,"Ġse":566,"mple":567,"Ġimport":568,"Ġ2":569,"ure":570,"\")<":571,"text":572,"Ġy":573,"Ġ__":574,"Ġal":575,">>":576,"ING":577,"ive":578,"ist":579,"ou":580,"ance":581,"am":582,"rue":583,"op":584,"ew":585,"dir":586,"read":587,"Ġma":588,"ĠĠĠĠĠ":589,"Ġit":590,"ĠU":591,"'<":592,"ta":593,"fo":594,"25":595,"OR":596,"Ġso":597,"able":598,"lib":599,"ader":600,"Ġon":601,"['":602,"pl":603,"ND":604,"out":605,"ĠV":606,"from":607,"ule":608,"Ġos":609,"Ġres":610,"ic":611,"ding":612,"Ġthat":613,"sh":614,"cept":615,"import":616,"lab":617,"ĠG":618,"']":619,".__":620,"pend":621,"py":622,"sert":623,"Ġpro":624,"type":625,"None":626,"sc":627,"test":628,"AR":629,"args":630,"tes":631,"sed":632,"error":633,"odule":634,"ĠH":635,"########":636,"ctor":637,"Ġen":638,"\"\"\"<":639,"Ġfrom":640,"ub":641,"ac":642,"key":643,"__(":644,"ir":645,"Ġget":646,"Ġch":647,"Ġarg":648,"Ġhe":649,"stance":650,"per":651,"ext":652,"':":653,"pro":654,"ĠThe":655,"Ġtry":656,"Ġwh":657,"ds":658,"ault":659,"ary":660,"so":661,"no":662,"ber":663,"ress":664,"alse":665,"ther":666,"Ġset":667,"Ġpre":668,"ument":669,"Ġobject":670,"sion":671,"ĠDO":672,"Re":673,"Ġlen":674,"Ġcode":675,"====":676,"cs":677,"ust":678,"att":679,"append":680,"Ġare":681,"IL":682,"fe":683,"**":684,"Ġr":685,"Ġl":686,"Ġun":687,"Ġdo":688,"ip":689,"que":690,"label":691,"rite":692,"assert":693,"mat":694,"ĠĠĠĠĠĠĠĠĠĠĠĠĠĠĠĠĠĠĠĠĠĠĠ":695,"wor":696,"Ġexcept":697,"cur":698,"ES":699,"Ġclass":700,"Ġfun":701,"red":702,"Ġtra":703,"mma":704,"),<":705,"IS":706,"pa":707,"mo":708,"Ġv":709,"thod":710,"Ġx":711,"par":712,"Ġthis":713,"col":714,"Ġwe":715,"mmand":716,"Ġlist":717,"ind":718,"Ġstring":719,"iter":720,"ĠX":721,"ms":722,"comp":723,"arn":724,"Ġpar":725,"lif":726,"init":727,"HT":728,"ION":729,"Ġpa":730,"ĠĠĠĠĠĠĠĠĠĠĠĠĠĠĠĠĠĠĠĠĠĠĠĠ":731,"dd":732,"coding":733,"ho":734,"pla":735,"Ġtest":736,"pen":737,"rent":738,"cl":739,"Ġother":740,"Ġcomp":741,"ĠBO":742,"str":743,"IGHT":744,"Ġ{":745,"INGS":746,"low":747,"UT":748,"ca":749,"Ġelif":750,"cess":751,"cre":752,"rame":753,"])<":754,"heck":755,"size":756,"Ġresult":757,"time":758,"RAW":759,"unt":760,"version":761,"ĠDRAW":762,"ĠBOX":763,"ĠDRAWINGS":764,"ĠĠĠĠĠĠ":765,"ill":766,"Ġnum":767,"Ġprint":768,"len":769,"md":770,"port":771,"qual":772,"ED":773,"Ġnp":774,"ded":775,"ray":776,".\"\"\"<":777,"ite":778,"Ġtype":779,"03":780,"ht":781,"Ġbu":782,"back":783,"Ġk":784,"01":785,"ĠTrue":786,"jo":787,"Ġnew":788,"urce":789,"----------------":790,"ĠAND":791,"In":792,"util":793,"='":794,"Ġ3":795,"ssage":796,"IGN":797,"vi":798,"add":799,"Ġsys":800,"ne":801,"ave":802,"ild":803,"ĠRe":804,"mal":805,"EN":806,"Ġout":807,"UB":808,"Ġwhe":809,"Ġcan":810,"EF":811,"[:":812,"ated":813,"Ġargument":814,"ty":815,"04":816,"alue":817,"Ġoption":818,"Ġpath":819,"print":820,"attr":821,"thon":822,"fix":823,"string":824,"ĠIf":825,"ĠSIGN":826,"odel":827,"om":828,"Ġ>":829,").":830,"join":831,"():<":832,"Ġkey":833,"mage":834,"write":835,"ream":836,"Equal":837,"Ġ>>":838,"Ġtime":839,"],":840,"\"<":841,"..":842,"Ġmodule":843,"im":844,"assertEqual":845,"RO":846,"uple":847,"UBLE":848,"po":849,"ĠDOUBLE":850,"instance":851,"ign":852,"arg":853,"ong":854,"ctions":855,"cimal":856,"dict":857,"ator":858,"ĠDe":859,"info":860,"uld":861,"ari":862,"'t":863,"Ġ>>>":864,"//":865,"char":866,"Ġhas":867,"ONT":868,"'s":869,"ak":870,"alueError":871,"train":872,"peci":873,"Ġla":874,"Ġne":875,"ĠFalse":876,"if":877,"option":878,"ner":879,"Ġsup":880,"ec":881,"Ġadd":882,"ception":883,"led":884,"REE":885,"ers":886,"format":887,"lock":888,"nce":889,"pos":890,"Ġ('":891,"dex":892,"(<":893,"ses":894,"utils":895,"ition":896,"Ġall":897,"his":898,"ature":899,"Ġmethod":900,"Ġwill":901,"ken":902,"plit":903,"Ġisinstance":904,"ILL":905,"place":906,"Ġpo":907,"Ġnumber":908,"ifi":909,"Ġread":910,"Ġdefault":911,"ĠĠĠĠĠĠĠĠĠĠĠĠĠĠĠĠĠĠĠĠĠĠĠĠĠĠĠĠĠĠĠĠ":912,"Ġstr":913,"De":914,"stri":915,"lose":916,"wa":917,"lags":918,"HA":919,"ally":920,"atch":921,"map":922,"Ġcur":923,"min":924,"errors":925,"ound":926,"by":927,"lic":928,"act":929,"cal":930,"ffer":931,"Ġpass":932,"ĠValueError":933,"CK":934,"lot":935,"QU":936,"ll":937,"=\"":938,"scri":939,"':<":940,"################":941,"Ġsub":942,"array":943,"bo":944,"oth":945,"andle":946,"Ġ:":947,"ste":948,"')":949,"rou":950,"85":951,"Ġuse":952,"([":953,"coder":954,"ich":955,"ython":956,"Ġcol":957,"fa":958,"Ġcall":959,"St":960,"base":961,"idth":962,"roup":963,"fig":964,"pi":965,"opt":966,"ĠThis":967,"VE":968,"Ġchar":969,"Ġmo":970,"date":971,"iel":972,"True":973,"Ġj":974,"Ġat":975,"us":976,"001":977,"Ġ--":978,"Ġcommand":979,"valid":980,"ink":981,"trans":982,"ib":983,"UL":984,"da":985,"Ġ[]<":986,"ample":987,"ST":988,"Ġ!":989,"Ġbytes":990,"ape":991,"YR":992,"vent":993,"ard":994,"Ġused":995,"ctory":996,"000":997,"Ġ4":998,"module":999,"sing":1000,"Ġ!=":1001,"obj":1002,"uct":1003,"Ġint":1004,"Ġargs":1005,"64":1006,"fun":1007,"ial":1008,"ent":1009,"Ġdire":1010,"input":1011,"Ġlabel":1012,"Ġinput":1013,"ĠEx":1014,"ĠIn":1015,"Ġcontext":1016,"Ġup":1017,"not":1018,"Ġz":1019,"ten":1020,"DE":1021,"Ġno":1022,"atter":1023,"nge":1024,"filename":1025,"IP":1026,"ĠAC":1027,"pr":1028,"ĠCYR":1029,"ILLIC":1030,"ĠCYRILLIC":1031,"Ġ@":1032,"oc":1033,"object":1034,"mb":1035,"vel":1036,"num":1037,"Ġ+=":1038,"ĠK":1039,"pec":1040,"ERT":1041,"tin":1042,"arning":1043,"hould":1044,"ump":1045,"Ġmust":1046,"US":1047,"Ġfunction":1048,"ger":1049,"inal":1050,"split":1051,"ĠGREE":1052,"ĠGREEK":1053,"Ġpl":1054,"max":1055,"reak":1056,"Ġtext":1057,"dent":1058,"plt":1059,"Ġcal":1060,"Con":1061,"Ġsize":1062,"arts":1063,"ix":1064,"tle":1065,"IZ":1066,"].":1067,"007":1068,"OT":1069,"ant":1070,"004":1071,"22":1072,"Ġms":1073,"Ġac":1074,"own":1075,"========":1076,"Ġwhich":1077,"10":1078,"Ġwor":1079,"Ġlog":1080,"ĠLEF":1081,"005":1082,"ĠLEFT":1083,"003":1084,"tent":1085,"pace":1086,"rap":1087,"root":1088,"Ġsh":1089,"ĠRIGHT":1090,"lob":1091,"cket":1092,"Ġhave":1093,"irst":1094,"Ġend":1095,"frame":1096,"ures":1097,"009":1098,"ribu":1099,"Ġcurrent":1100,"new":1101,"UM":1102,"Ġsk":1103,"Ġmode":1104,"libr":1105,"Ġmessage":1106,"default":1107,"006":1108,"Ġbut":1109,"IGIT":1110,"Ġshould":1111,"Ġcmd":1112,"Ġany":1113,"Ġpos":1114,"of":1115,"rc":1116,"compile":1117,"Ġheader":1118,"ameter":1119,"gist":1120,"\",<":1121,"Ġformat":1122,"work":1123,"Ġspeci":1124,"008":1125,"qui":1126,"tain":1127,":'":1128,"UTE":1129,"other":1130,"df":1131,"crement":1132,"Ġgive":1133,"Ġoutput":1134,"Ġcheck":1135,"Return":1136,"12":1137,"Ġfilename":1138,"bug":1139,"Ġdist":1140,"ĠY":1141,"ĠDIGIT":1142,"ĠReturn":1143,"plot":1144,"rix":1145,"Ġfirst":1146,"gener":1147,"sub":1148,"tocol":1149,"clu":1150,"men":1151,"main":1152,"IR":1153,"}<":1154,"Ġ`":1155,"Ġwhen":1156,"urtle":1157,"AC":1158,"var":1159,"LO":1160,"sk":1161,"002":1162,"Ġmsg":1163,"ĠĠĠĠĠĠĠĠĠĠĠĠĠĠĠĠĠĠĠĠĠĠĠĠĠĠĠ":1164,"for":1165,"arget":1166,"ICAL":1167,"'):<":1168,"tro":1169,"())<":1170,"Ġsource":1171,"net":1172,"Ġmax":1173,"ĠPython":1174,"ĠDecimal":1175,"IA":1176,"Ġ'.":1177,"ypeError":1178,"Ġencoding":1179,"nsion":1180,"Ġwhile":1181,"buffer":1182,"ĠVERT":1183,"ĠVERTICAL":1184,"ok":1185,"model":1186,"Ġexp":1187,"Ġfe":1188,"ree":1189,"****":1190,"call":1191,"we":1192,"Ġgiven":1193,"SE":1194,"encode":1195,"False":1196,"Ġfa":1197,"Ġbase":1198,"row":1199,"word":1200,"Ġone":1201,"server":1202,"ight":1203,"odec":1204,"app":1205,"ield":1206,"Ġtuple":1207,"ces":1208,"trol":1209,"stall":1210,"lim":1211,"859":1212,"mented":1213,"image":1214,"ATION":1215,"8859":1216,"but":1217,"unk":1218,"((":1219,"emp":1220,"load":1221,"Ġbreak":1222,").<":1223,"check":1224,"Ġinter":1225,"ache":1226,"width":1227,"ek":1228,"state":1229,"ity":1230,"ackage":1231,"end":1232,"Ġ5":1233,"ARK":1234,"ĠĠĠĠĠĠĠĠĠĠ":1235,"Ġrange":1236,"Ġcre":1237,"lp":1238,"ĠACUTE":1239,"20":1240,"CT":1241,"Ġtrain":1242,"run":1243,"cmd":1244,"ĠSt":1245,"ĠHOR":1246,"OL":1247,"Ġ|":1248,"sent":1249,"255":1250,"Ġap":1251,"result":1252,"ENT":1253,"ONTAL":1254,"IZONTAL":1255,"ĠHORIZONTAL":1256,"move":1257,"Ġlines":1258,"old":1259,"mplemented":1260,"Ex":1261,"orted":1262,"Ġopen":1263,"dist":1264,"Ġopt":1265,"'.":1266,"Ġonly":1267,"ME":1268,"its":1269,"cale":1270,"Test":1271,"Ġversion":1272,"cremental":1273,"command":1274,"(),":1275,"Ġfiles":1276,"ESIS":1277,"Ġsy":1278,"ndom":1279,"Ġdis":1280,"Ġdoes":1281,"close":1282,"Ġwa":1283,"Ġrun":1284,"ull":1285,"().":1286,"Ġstart":1287,"long":1288,"np":1289,"process":1290,"header":1291,"ĠLIGHT":1292,"ined":1293,"99":1294,"index":1295,"ifier":1296,"riter":1297,"atform":1298,"lines":1299,"'))<":1300,"Ġab":1301,"Ġinstance":1302,"transform":1303,"log":1304,"round":1305,"count":1306,"Ġcl":1307,"Ġmat":1308,"SC":1309,"Ġnames":1310,"nc":1311,"32":1312,"Ġframe":1313,"pon":1314,"acy":1315,"use":1316,"types":1317,"Ġpi":1318,"ĠUP":1319,"be":1320,"AN":1321,"ative":1322,"ange":1323,"kw":1324,"ations":1325,"'])<":1326,"msg":1327,"Ġite":1328,"Ġmay":1329,"fore":1330,"are":1331,"decode":1332,"fit":1333,"ĠZ":1334,"']<":1335,"lobal":1336,"Ġdoc":1337,"config":1338,"arch":1339,"func":1340,"gth":1341,"Ġerror":1342,"build":1343,"))":1344,"cor":1345,"ep":1346,"ies":1347,"Ġ\"<":1348,"ribute":1349,"mode":1350,"loat":1351,"xF":1352,"Ġcor":1353,"(_":1354,"ont":1355,"Ġtheta":1356,"Ġfunc":1357,"Ġdirectory":1358,"++":1359,"std":1360,"Ġencode":1361,"nter":1362,"tt":1363,"umpy":1364,"control":1365,"INGLE":1366,"quest":1367,"fter":1368,"with":1369,"INE":1370,"ram":1371,"ĠSINGLE":1372,"ĠMARK":1373,"ml":1374,"fiel":1375,"Ġvalues":1376,"Ġsu":1377,"Ġuser":1378,"mon":1379,"tension":1380,"mber":1381,"Ġcontain":1382,"xB":1383,"learn":1384,"Ġ.":1385,"las":1386,"ĠNot":1387,"):":1388,"ĠTypeError":1389,"Ġ<=":1390,"WN":1391,"xC":1392,"clude":1393,"Ġinit":1394,"Ġcount":1395,"UN":1396,"rit":1397,"Ġwas":1398,"ake":1399,"curacy":1400,"cls":1401,"options":1402,"ach":1403,"ĠIN":1404,"ĠDE":1405,"256":1406,"sign":1407,"com":1408,"Ġpd":1409,"lable":1410,"Ġsklearn":1411,"open":1412,"UR":1413,"method":1414,"ĠSE":1415,"AD":1416,"ecut":1417,"attern":1418,"cation":1419,"source":1420,"LA":1421,"[-":1422,"Ġgener":1423,"core":1424,"Ġcompile":1425,"Ġper":1426,"Ġinto":1427,"Ġ**":1428,"encoding":1429,"Ġarguments":1430,"Ġlast":1431,"ORM":1432,"Ġspecifi":1433,"uff":1434,"Ġ\\":1435,"flags":1436,"IRC":1437,"Ġcodecs":1438,"PE":1439,"Ġ'<":1440,"Ġsc":1441,"the":1442,"loop":1443,"param":1444,"ng":1445,"ft":1446,"xD":1447,"vert":1448,"Ġparameter":1449,"point":1450,"ght":1451,"ĠOS":1452,"BIC":1453,"values":1454,"Ġtrans":1455,"fd":1456,"group":1457,"wo":1458,"prefix":1459,"02":1460,"Implemented":1461,"[:,":1462,"stat":1463,"item":1464,"UP":1465,"])":1466,"ual":1467,"Ġstream":1468,"ld":1469,"va":1470,"ĠARA":1471,"ĠARABIC":1472,"ĠQU":1473,"Ġdescri":1474,"PO":1475,"xb":1476,"atures":1477,"xE":1478,"Ġcase":1479,"Ġfeature":1480,"MA":1481,"Ġtoken":1482,"Ġextra":1483,"context":1484,"err":1485,"cond":1486,"tuple":1487,"Ġover":1488,"ĠDIA":1489,"ear":1490,"Ġfol":1491,"ERESIS":1492,"ĠDIAERESIS":1493,"Ġval":1494,"Ġmodel":1495,"Ġstack":1496,"Ġdistutils":1497,"bution":1498,"Ġexception":1499,"dirs":1500,"matrix":1501,"SS":1502,"ote":1503,"ĠNotImplemented":1504,"ĠĠĠĠĠĠĠĠĠĠĠĠĠĠĠĠĠĠĠĠĠĠĠĠĠĠĠĠĠĠĠ":1505,"mplement":1506,"File":1507,"ID":1508,"replace":1509,"Ġloop":1510,"aise":1511,"sys":1512,"user":1513,"xA":1514,"...":1515,"temp":1516,"library":1517,"Ġdel":1518,"Ġwrite":1519,"Ġthen":1520,"Ġop":1521,"Ġpredi":1522,"Ġusing":1523,"LEX":1524,"Ġnumpy":1525,"En":1526,"doc":1527,"Ġserver":1528,"ush":1529,"ROL":1530,"Ġcontin":1531,"FLEX":1532,"lease":1533,"UMFLEX":1534,"IRCUMFLEX":1535,"Pro":1536,"repr":1537,"ĠCONT":1538,"ĠCIRCUMFLEX":1539,"ous":1540,"ĠUn":1541,"ĠDOWN":1542,"lement":1543,"ĠOF":1544,"tended":1545,"Codec":1546,"IO":1547,"Ġdecode":1548,"Ġ['":1549,"find":1550,"sep":1551,"raw":1552,"Ġcharact":1553,"Ġerrors":1554,"ped":1555,"Ġ>=":1556,"gh":1557,"vir":1558,"Ġobj":1559,"bytes":1560,"Ġflags":1561,"Ġiter":1562,"Ġplt":1563,"mail":1564,"quence":1565,"ĠCONTROL":1566,"ark":1567,"Ġnon":1568,"stem":1569,"sy":1570,"Ġfin":1571,">##":1572,"ide":1573,"ceback":1574,"parse":1575,"viron":1576,"Ġ'%":1577,"Ġthread":1578,"EX":1579,"ast":1580,"lay":1581,"uture":1582,"lag":1583,"--------------------------------":1584,">_":1585,"cate":1586,"ĠTH":1587,"Ġ/":1588,"Ġpart":1589,"losed":1590,"Ġho":1591,"ONE":1592,"Ġcalled":1593,"Ġvari":1594,"debug":1595,"ittest":1596,"Ġexc":1597,"indow":1598,"off":1599,"table":1600,"Ġnext":1601,"like":1602,"names":1603,"ible":1604,"Ġaction":1605,"omp":1606,"ler":1607,"Ġdir":1608,"Ġaddress":1609,"Ġpoint":1610,"Ġmake":1611,"Ġsupport":1612,"files":1613,"ey":1614,"vo":1615,"start":1616,"Ġinte":1617,"shape":1618,"Ġ8":1619,"Ġturtle":1620,"pected":1621,"IF":1622,"rence":1623,"Ġsign":1624,"ctionary":1625,"mod":1626,"Ġad":1627,"Ġevent":1628,"Ġexist":1629,"Ġhandle":1630,"win":1631,"ore":1632,"ISO":1633,"Ġcontinue":1634,"xa":1635,"Ġoper":1636,"itle":1637,"ĠCon":1638,"Context":1639,"xe":1640,"ĠDist":1641,"handle":1642,"Ġsocket":1643,"ression":1644,"late":1645,"Ġgroup":1646,"Ġsame":1647,"ĠST":1648,"keys":1649,"Ġdataset":1650,"Ġthere":1651,"Ġoff":1652,"Ġsome":1653,"ĠOSError":1654,"15":1655,"iss":1656,"ute":1657,"Ġatt":1658,"perty":1659,"\":<":1660,"ĠAr":1661,"Ġ10":1662,"Ġprotocol":1663,"Ġmethods":1664,"cted":1665,"copy":1666,"################################":1667,"ĠReturns":1668,"message":1669,"lasses":1670,"Ġimage":1671,"Ġprefix":1672,"16":1673,"Data":1674,"ory":1675,"Ġent":1676,"Ġmatch":1677,"ĠSe":1678,"exp":1679,"Ġneed":1680,"ain":1681,"Ġfound":1682,"xx":1683,"Ġstop":1684,"ĠFORM":1685,"TP":1686,"],<":1687,"Ġ6":1688,"rain":1689,"Ġcom":1690,"OM":1691,"ormal":1692,"strip":1693,"ponse":1694,"Ġ(\"":1695,"Ġstate":1696,"Ġqu":1697,"Ġobjects":1698,"Ġfollow":1699,")]<":1700,"ref":1701,"14":1702,"csv":1703,"mpty":1704,"otal":1705,"ask":1706,"og":1707,"box":1708,"'),<":1709,"ay":1710,"tri":1711,"ATOR":1712,"RAVE":1713,"ĠGRAVE":1714,"bit":1715,"lect":1716,"Ġelement":1717,"Ġback":1718,")):<":1719,"cache":1720,"__<":1721,"Ġthan":1722,"right":1723,"Ġcls":1724,"05":1725,"Ġbuild":1726,"Ġrandom":1727,"color":1728,"offset":1729,"][":1730,"wh":1731,"ĠĠĠĠĠĠĠĠĠĠĠĠ":1732,"Ġimplement":1733,"Ġarray":1734,"present":1735,"KE":1736,"db":1737,"ĠĠĠĠĠĠĠĠĠ":1738,"Ġafter":1739,"Ġdict":1740,"install":1741,"Ġindex":1742,">#<":1743,"ancel":1744,"address":1745,"action":1746,"derr":1747,"items":1748,"gister":1749,"Ġwhere":1750,"ph":1751,"ĠĠĠĠĠĠĠĠĠĠĠĠĠ":1752,"ating":1753,"byte":1754,"Ġitem":1755,"nel":1756,"reen":1757,"local":1758,".,":1759,"Ġreturned":1760,"Ġparser":1761,"Ġdate":1762,"aries":1763,"cii":1764,"property":1765,"Ġoptions":1766,"output":1767,"'),":1768,"AB":1769,"ARE":1770,"level":1771,"Ġdon":1772,"Ġmin":1773,"ĠWe":1774,"loc":1775,"Ġstat":1776,"Ġhelp":1777,"xc":1778,"ingle":1779,"Ġits":1780,"Ġ&":1781,"Ġman":1782,"codecs":1783,"wait":1784,"ble":1785,"ĠJ":1786,"hed":1787,"ie":1788,"Ġwork":1789,"Ġlabels":1790,"11":1791,"ron":1792,"Ġbin":1793,"vector":1794,"Ġkw":1795,"(*":1796,"Ġtarget":1797,"Ġrepresent":1798,"ized":1799,"Ġallow":1800,"34":1801,"play":1802,"Ġreturns":1803,"Ġglobal":1804,"labels":1805,"Ġ{}<":1806,"aises":1807,"has":1808,"xf":1809,"Ġtwo":1810,"ĠĠĠĠĠĠĠĠĠĠĠĠĠĠĠĠĠĠĠĠ":1811,"Incremental":1812,"script":1813,"Ġmore":1814,"ag":1815,"sp":1816,"Ġstd":1817,"Ġbefore":1818,"Ġcreate":1819,"Par":1820,"part":1821,"Ġlocal":1822,"Ġhere":1823,"nal":1824,"Ġ'__":1825,"Ġcv":1826,"Decimal":1827,"vars":1828,"OW":1829,"ume":1830,"Ġsupp":1831,"ero":1832,"Ġblock":1833,"\":":1834,"create":1835,"ans":1836,"Ġload":1837,"OS":1838,"link":1839,"stra":1840,"zip":1841,"erate":1842,"abc":1843,"Ġdiff":1844,"Ġdictionary":1845,"Ġyou":1846,"Ġcodec":1847,"arnings":1848,"OP":1849,"Ġtar":1850,"url":1851,"Ġsingle":1852,"Ġcopy":1853,"stribution":1854,"exception":1855,"Ġus":1856,"pred":1857,"Ġbuil":1858,"OF":1859,"TION":1860,"ckle":1861,"exc":1862,"'\\":1863,"wise":1864,"Ġeach":1865,"Ġassert":1866,"////":1867,"Stream":1868,"mit":1869,"Ġempty":1870,"make":1871,"extra":1872,"ready":1873,"Ġact":1874,"etwork":1875,"package":1876,"ĠImport":1877,"vide":1878,"sa":1879,"feature":1880,"cc":1881,"ps":1882,"rid":1883,">\"\"\"<":1884,"speci":1885,"Ġroot":1886,"predi":1887,"Base":1888,"do":1889,"ĠIP":1890,"He":1891,"ting":1892,"andard":1893,"words":1894,"TH":1895,"mt":1896,"pect":1897,"python":1898,"ĠHE":1899,"ucture":1900,"13":1901,"predict":1902,"show":1903,"match":1904,"fields":1905,"Encoder":1906,"abs":1907,"skip":1908,"80":1909,"FC":1910,"Ġlink":1911,"Ġoffset":1912,"sock":1913,"********":1914,"\"),":1915,"ision":1916,"rect":1917,"ols":1918,"addr":1919,"Ġ)<":1920,"Ġsuper":1921,"Se":1922,"top":1923,"Ġ...":1924,"Ġ'-":1925,"ĠAB":1926,"Ġparam":1927,"GE":1928,"licy":1929,"56":1930,"ax":1931,"lean":1932,"ultip":1933,"'].":1934,"Ġchange":1935,"06":1936,"19":1937,"icode":1938,"next":1939,"ton":1940,"nore":1941,"ACE":1942,"LOCK":1943,"IX":1944,"cv":1945,"Ġver":1946,"token":1947,"Ġalso":1948,"\".":1949,"target":1950,"only":1951,"Ġtimeout":1952,"ĠExtended":1953,"SM":1954,"ias":1955,"ĠRE":1956,"Reader":1957,"Ġwidth":1958,"ascii":1959,"Ġyield":1960,"Ġsock":1961,"ĠĠĠĠĠĠĠĠĠĠĠĠĠĠĠĠĠĠĠĠĠĠĠĠĠĠ":1962,"tar":1963,"Ġ7":1964,"INT":1965,"nection":1966,"pipe":1967,"pack":1968,"Ġcontent":1969,"Ġinteger":1970,"iso":1971,"idx":1972,"ither":1973,"UTF":1974,"Ġhasattr":1975,"ĠKey":1976,"Ġposition":1977,"HE":1978,"[\"":1979,"imple":1980,"lector":1981,"Ġclose":1982,"Ġindi":1983,"Ġexample":1984,"update":1985,"ical":1986,"libraries":1987,"indows":1988,"BRE":1989,"Writer":1990,"gen":1991,"current":1992,"ĠExtendedContext":1993,"100":1994,"can":1995,"sup":1996,"Ġfind":1997,"features":1998,"Ġstrings":1999,"\"),<":2000,"wrap":2001,"stract":2002,"Ġ'/":2003,"host":2004,"================":2005,"XX":2006,"our":2007,"Ġcomple":2008,"Ġbuf":2009,"Ġfloat":2010,"fol":2011,"ESS":2012,"Ġbuffer":2013,"OTATION":2014,"gn":2015,"hes":2016,"Ġlevel":2017,"Ġprocess":2018,"apping":2019,"23":2020,"Ġans":2021,"Ġspecified":2022,"Ġthey":2023,"Ġgetattr":2024,"vai":2025,"PAR":2026,"Ġinfo":2027,"Ġorder":2028,"ĠNotImplementedError":2029,"Class":2030,"EL":2031,"io":2032,"ĠFor":2033,"ĠRFC":2034,"day":2035,"score":2036,"reg":2037,"Ġtrue":2038,"Ġpackage":2039,"fp":2040,"Ġsequence":2041,"untime":2042,"modules":2043,"Ġfinally":2044,"Ġvariable":2045,"vailable":2046,"Ġ,":2047,"Ġerr":2048,"Ġpas":2049,"utf":2050,"ceptron":2051,"stdout":2052,"''":2053,"YPE":2054,"ript":2055,"ecutable":2056,")))<":2057,"ward":2058,"Ġ'_":2059,"Ġlong":2060,"Ġtemp":2061,"ĠĠĠĠĠĠĠĠĠĠĠĠĠĠĠĠĠĠĠĠĠ":2062,"ling":2063,"ICE":2064,"position":2065,"ufffe":2066,"ĠQUOTATION":2067,"Un":2068,"platform":2069,"stru":2070,"ĠDistutils":2071,"IAL":2072,"pol":2073,"Ġenum":2074,"strict":2075,"ULL":2076,"AM":2077,"du":2078,"Ġfinal":2079,"ody":2080,"Ġlineno":2081,"CKET":2082,"Ġ',":2083,"ttribute":2084,"cro":2085,"onent":2086,"Ġstri":2087,"Ġcharset":2088,"src":2089,"Ġca":2090,"Ġpy":2091,"Ġrequi":2092,"ĠIt":2093,"Ġarch":2094,"resh":2095,"ĠEND":2096,"buf":2097,"ĠĠĠĠĠĠĠĠĠĠĠĠĠĠĠĠĠĠĠĠĠĠĠĠĠĠĠĠ":2098,"view":2099,"Ġcolum":2100,"PACE":2101,"ĠBLOCK":2102,"compiler":2103,"]:<":2104,"cp":2105,"down":2106,"ning":2107,"Ġmod":2108,"Ġlength":2109,"length":2110,"ared":2111,"thread":2112,"('-":2113,"queue":2114,"Ġinitial":2115,"18":2116,"Case":2117,"gram":2118,"thing":2119,"lineno":2120,"ĠBRA":2121,"ĠDEV":2122,"bin":2123,"ĠĠĠĠĠĠĠĠĠĠĠĠĠĠĠĠĠ":2124,"ORT":2125,"stead":2126,"kwargs":2127,"EXT":2128,"VER":2129,"Ġposs":2130,"Ġhost":2131,")[":2132,"Raises":2133,"ving":2134,"cent":2135,"Ġalready":2136,"title":2137,"ĠONE":2138,"ference":2139,"face":2140,"Set":2141,"gor":2142,"starts":2143,"environ":2144,"assertRaises":2145,"cause":2146,"callback":2147,"FF":2148,"block":2149,"nown":2150,"pop":2151,"Ġss":2152,"Ġtop":2153,"exit":2154,"Ġbyte":2155,"RIP":2156,"Type":2157,"pattern":2158,"Ġresults":2159,"Header":2160,"The":2161,"Ġtk":2162,"Ġremove":2163,"event":2164,"gative":2165,"ĠQ":2166,"Ġflag":2167,"ĠSH":2168,"ify":2169,"TestCase":2170,"ĠBRACKET":2171,"Ġvalid":2172,"Ġold":2173,"ALF":2174,"compress":2175,"sum":2176,"igh":2177,"Decoder":2178,"PARATOR":2179,"Ġmember":2180,"ĠSEPARATOR":2181,"ĠDEVICE":2182,"prec":2183,"Ġnamed":2184,"ĠĠĠĠĠĠĠĠĠĠĠĠĠĠĠĠĠĠĠĠĠĠĠĠĠ":2185,"\")":2186,"real":2187,"creen":2188,"Ġdoesn":2189,"issing":2190,":]<":2191,"Ġdebug":2192,"__,":2193,"accuracy":2194,"ĠKeyError":2195,"50":2196,"curs":2197,"Ġfield":2198,"Ġbet":2199,"Ġ\\<":2200,"CENT":2201,"Ġass":2202,"ilter":2203,"ĠAP":2204,"limit":2205,"Me":2206,"ctype":2207,"uth":2208,"ILDE":2209,"rough":2210,"del":2211,"ssion":2212,"Ġwrit":2213,"ĠTILDE":2214,"ular":2215,"ĠOption":2216,"LAG":2217,"vari":2218,"lear":2219,"Ġjust":2220,"CH":2221,"Ġattr":2222,"Ġbo":2223,"Ġextension":2224,"Ġtypes":2225,"Ġword":2226,"ping":2227,"foo":2228,"Ġplatform":2229,"help":2230,"Ġport":2231,"Ġinstead":2232,"Ġcolor":2233,"xd":2234,"Str":2235,"Comp":2236,"ique":2237,"Ġinstall":2238,"short":2239,"gument":2240,"hen":2241,"mask":2242,"mbda":2243,"Ġbeen":2244,"Ġcallback":2245,">###":2246,"\"):<":2247,"33":2248,"Ġeither":2249,"rive":2250,"','":2251,"dataset":2252,"socket":2253,"CTION":2254,"ĠIPv":2255,"Ġpassed":2256,"Lo":2257,"final":2258,"Ġlib":2259,"Ġsave":2260,"KEY":2261,"ose":2262,">__":2263,"FLAG":2264,"ered":2265,"ful":2266,"font":2267,"less":2268,"Ġwrap":2269,"Ġchunk":2270,"lower":2271,"member":2272,"---":2273,"ĠĠĠĠĠĠĠĠĠĠĠĠĠĠĠĠĠĠĠĠĠĠ":2274,"ttributeError":2275,"86":2276,"://":2277,"Ġavailable":2278,"Ġig":2279,"ists":2280,"Ġdiffe":2281,"55":2282,"MIN":2283,"ĠĠĠĠĠĠĠĠĠĠĠĠĠĠĠĠĠĠ":2284,"outine":2285,"ILE":2286,"gits":2287,"rest":2288,"Ġ''<":2289,"unittest":2290,"bose":2291,"raining":2292,"90":2293,"Ġparts":2294,"abel":2295,"Ġlook":2296,"Ġcompiler":2297,"Ġreal":2298,"Ġ100":2299,"conds":2300,"ĠHALF":2301,"Ġ{}":2302,"Ġ\"\"":2303,"ĠĠĠĠĠĠĠĠĠĠĠĠĠĠ":2304,"folder":2305,"OD":2306,"wd":2307,"year":2308,"erator":2309,"Ġskip":2310,"Ġpickle":2311,"Ġparameters":2312,"layer":2313,"17":2314,"Di":2315,"Ġcons":2316,"ĠĠĠĠĠĠĠĠĠĠĠĠĠĠĠĠĠĠĠĠĠĠĠĠĠĠĠĠĠĠĠĠĠĠ":2317,"ermin":2318,"tend":2319,"Ġinclude":2320,"Ġwarnings":2321,"Ġunt":2322,"Ġoptional":2323,"ways":2324,"ĠAPI":2325,"parts":2326,"Ġlike":2327,"mean":2328,"ens":2329,"MP":2330,"Ġid":2331,"random":2332,"rop":2333,"inter":2334,"Ġclassifier":2335,"42":2336,"ager":2337,":'\\":2338,"plotlib":2339,"Ġpipe":2340,"Ġssl":2341,"Ġrow":2342,"Ġ#<":2343,"ell":2344,"timeout":2345,"ULT":2346,"Ġattribute":2347,"startswith":2348,"my":2349,"struct":2350,"argument":2351,"opts":2352,"void":2353,"closed":2354,"Ġmark":2355,"Ġ\",":2356,"ility":2357,"andas":2358,"Ġcharacters":2359,"ground":2360,"man":2361,"reate":2362,"ries":2363,"extension":2364,"Ġconfig":2365,"content":2366,"=[":2367,"Ġraw":2368,"{}":2369,"Ġthem":2370,"ĠStream":2371,"LY":2372,"ince":2373,"Ġali":2374,"Ġindent":2375,"lection":2376,"Ġclasses":2377,"Ġrequest":2378,"ily":2379,"Ġunder":2380,"Ġdefaults":2381,"\\\\":2382,"Ġthrough":2383,"Ġvar":2384,"Ġbinary":2385,"30":2386,"SION":2387,"ia":2388,"pri":2389,"ts":2390,"indent":2391,"lections":2392,"head":2393,"Ġmatrix":2394,"Ġcharacter":2395,"EG":2396,"PA":2397,"tk":2398,"ĠLINE":2399,"ils":2400,"Ġ[\"":2401,"Ġfunctions":2402,"number":2403,"Ġaccuracy":2404,"network":2405,"Ġarchive":2406,"Ġfull":2407,"ĠPO":2408,"Ġwithout":2409,"charmap":2410,"WO":2411,"eg":2412,"wn":2413,"remove":2414,"stack":2415,"ven":2416,"Ġbecause":2417,"Ġsection":2418,"Ġ20":2419,"Invalid":2420,"rowser":2421,"eric":2422,"NDEF":2423,"protocol":2424,"88":2425,"IME":2426,"float":2427,"spec":2428,"stant":2429,"Ġrepr":2430,"ĠNote":2431,"ification":2432,"Def":2433,"ields":2434,"gression":2435,"Ġfp":2436,"Ġemail":2437,"ĠCAR":2438,"Ġuntil":2439,"AME":2440,"Ġctypes":2441,"Ġins":2442,"ĠCh":2443,"ĠCodec":2444,"Ġbest":2445,"field":2446,"ĠLo":2447,"ang":2448,"HAN":2449,"Ġencoded":2450,"ffix":2451,"ÄĻ":2452,"Ġty":2453,"Ġpattern":2454,"global":2455,"range":2456,"ĠCED":2457,"ILLA":2458,"Ġzip":2459,"Ġscript":2460,"ĠCEDILLA":2461,"Col":2462,"LI":2463,"ian":2464,"ync":2465,"reader":2466,"INED":2467,"Ġsecond":2468,"ĠUNDEF":2469,"ĠĠĠĠĠĠĠĠĠĠĠĠĠĠĠĠĠĠĠĠĠĠĠĠĠĠĠĠĠĠ":2470,"chars":2471,"ĠUNDEFINED":2472,"OVE":2473,"na":2474,"writ":2475,"lete":2476,"0000":2477,"Ġdf":2478,"ics":2479,"ĠXXX":2480,"Info":2481,"charset":2482,"Ġapp":2483,"Ġwait":2484,"Ġfollowing":2485,"?<":2486,"esca":2487,"uster":2488,"argv":2489,"++++":2490,"theta":2491,"ĠTHREE":2492,"dll":2493,"rst":2494,"Ġdefined":2495,"iling":2496,"response":2497,"trics":2498,"ches":2499,"yload":2500,"Ġsum":2501,"Ġbound":2502,"ĠAn":2503,"Ġorig":2504,"Ġsee":2505,"ouble":2506,"ributes":2507,"Pre":2508,"green":2509,"send":2510,"izer":2511,"ount":2512,"24":2513,"ually":2514,"Ġlibrary":2515,"register":2516,"Ġfut":2517,"Ġspace":2518,"dis":2519,"__.__":2520,"Ġext":2521,"pass":2522,"ĠĠĠĠĠĠĠĠĠĠĠĠĠĠĠĠĠĠĠĠĠĠĠĠĠĠĠĠĠ":2523,"amples":2524,"Ġmatplotlib":2525,"Ġitems":2526,"fer":2527,"request":2528,"Ġpandas":2529,"Ġ(<":2530,"Ġexpected":2531,"ids":2532,"Ġupdate":2533,"params":2534,"Ġtransport":2535,"structor":2536,"75":2537,"IVE":2538,"RON":2539,"Ġoc":2540,"Ġmon":2541,"frames":2542,"Ġprediction":2543,"seek":2544,"Ġio":2545,"rans":2546,"annot":2547,"adata":2548,"very":2549,"ĠPre":2550,"ĠHEBRE":2551,"ĠHEBREW":2552,"locale":2553,"__)<":2554,"serve":2555,"ĠIS":2556,"colum":2557,"IPS":2558,"lat":2559,"over":2560,"annel":2561,"ĠNOT":2562,"Ġstep":2563,"RAC":2564,"Ġmail":2565,"Ġimplementation":2566,"fut":2567,"stderr":2568,"Ġthese":2569,"ĠSQU":2570,"ulti":2571,"Ġparse":2572,"ĠABOVE":2573,"gorith":2574,"ĠSQUARE":2575,"ĠData":2576,"Ġchild":2577,"oted":2578,"pk":2579,"ĠError":2580,"org":2581,"decoding":2582,"Ġnewline":2583,"Ġmost":2584,"Structure":2585,"now":2586,"Ġax":2587,"Ġwant":2588,"ĠTWO":2589,"ween":2590,"Ġcontaining":2591,"GAN":2592,"amp":2593,"rb":2594,"alled":2595,"diff":2596,"strings":2597,"HARAC":2598,"ancelled":2599,"Ġstdout":2600,"HARACTER":2601,"BU":2602,"Name":2603,"bd":2604,"stream":2605,"Ġdone":2606,"asos":2607,"Ġlock":2608,"icro":2609,"ctories":2610,"Ġsystem":2611,"Ġabout":2612,";<":2613,"Ar":2614,"hi":2615,"ice":2616,"nect":2617,"ould":2618,"Ġtotal":2619,"lan":2620,"ATED":2621,"Ġalways":2622,"pending":2623,"Ġdatetime":2624,"ODE":2625,"grid":2626,"ource":2627,"den":2628,"Ġnorm":2629,"Ġob":2630,"itive":2631,"verage":2632,"Ġtraceback":2633,"ddress":2634,"fake":2635,"month":2636,"eded":2637,"ytes":2638,"Ġcache":2639,"une":2640,"Ġform":2641,"Ġparent":2642,"ors":2643,"Ġmap":2644,"fileobj":2645,"Ã©":2646,"section":2647,"ĠList":2648,"ĠAN":2649,"Ġhow":2650,"formation":2651,"ORD":2652,"hash":2653,"\"]<":2654,"cb":2655,"Ġright":2656,"Ġrelease":2657,"Ġ[<":2658,"Ġotherwise":2659,"results":2660,"Ġpossible":2661,"II":2662,"sv":2663,"try":2664,"return":2665,"ĠCUR":2666,"ĠAttributeError":2667,"Ġraised":2668,"Ġresp":2669,"Ġunittest":2670,"Ġheaders":2671,"headers":2672,"Ġcorrect":2673,"Ġdescription":2674,"ĠSee":2675,"92":2676,"LL":2677,"ail":2678,"fu":2679,"mark":2680,"Ġq":2681,"ren":2682,"gest":2683,"ates":2684,"84":2685,"aa":2686,"Ġfields":2687,"ssl":2688,"come":2689,"Ġmultip":2690,"extend":2691,"\"))<":2692,"Label":2693,"include":2694,"Ġimp":2695,"convert":2696,"Ġgot":2697,"(-":2698,".\")<":2699,":\",":2700,"normal":2701,"Ġsepar":2702,"Ġbetween":2703,"cf":2704,"ĠCHARACTER":2705,"().<":2706,"plat":2707,"escape":2708,"''<":2709,"aN":2710,"ws":2711,"Ġround":2712,"Ġim":2713,"ects":2714,"Ġprogram":2715,"tespace":2716,"fy":2717,"full":2718,"yn":2719,"zen":2720,"Ġlibraries":2721,"first":2722,"Ġ{'":2723,"ĠACCENT":2724,"(?":2725,"au":2726,"warn":2727,"dete":2728,"Ġrest":2729,"Ġnow":2730,"ĠTest":2731,"term":2732,"allback":2733,"paths":2734,"most":2735,"21":2736,"78":2737,"exists":2738,"Ġ15":2739,"traceback":2740,"Ġlocale":2741,"Ġalgorith":2742,"ĠArgument":2743,"Ġentry":2744,"NAME":2745,"YP":2746,"Ġ\"%":2747,"Ġbeing":2748,"ĠPro":2749,"Ġkeyword":2750,"Ġwaiter":2751,"distribution":2752,"LED":2753,"ART":2754,"Ġstruct":2755,"Ġenumerate":2756,">'":2757,"List":2758,"tmp":2759,"als":2760,"ĠCOM":2761,"Ġwhat":2762,"Ġcannot":2763,"LIC":2764,"OUR":2765,"raise":2766,"Ġboth":2767,"comple":2768,"exec":2769,"Ġ16":2770,"ĠIncremental":2771,"bc":2772,"cy":2773,"tadata":2774,"Ġdll":2775,"ĠFE":2776,"IncrementalDecoder":2777,"cision":2778,"fn":2779,"uid":2780,"lap":2781,"readline":2782,"ustom":2783,"SCII":2784,"ĠImportError":2785,"Ġmonth":2786,"THAN":2787,"ba":2788,"sig":2789,"Ġtake":2790,"Ġsince":2791,"ĠSUP":2792,"Ġexec":2793,"html":2794,"mlink":2795,"IncrementalEncoder":2796,".*":2797,"bound":2798,"Ġfuture":2799,"Ġpla":2800,"Ġsqu":2801,"Ġinformation":2802,"ĠTo":2803,"Ġleft":2804,"Ġmeta":2805,"Ġcontains":2806,"safe":2807,"Ġ9":2808,"Ġnetwork":2809,"ĠSHA":2810,"ĠTraining":2811,"Ġ\"__":2812,"verse":2813,"curses":2814,"parameter":2815,"044":2816,"transport":2817,"Compile":2818,"lank":2819,"mk":2820,"Ġro":2821,"Ġtable":2822,"order":2823,"ĠTurtle":2824,"ĠWhen":2825,"Ġmain":2826,"Ġproto":2827,"Exception":2828,"Ġabs":2829,"support":2830,"Warning":2831,"fc":2832,"node":2833,"ert":2834,"Ġregist":2835,"\",\"":2836,"'],":2837,"optim":2838,"defaults":2839,"weight":2840,"specifi":2841,"uthor":2842,"Inter":2843,"hand":2844,"iloc":2845,"itespace":2846,"dest":2847,"chunk":2848,"exe":2849,"Ġhtt":2850,"Ġsend":2851,"Ġmodules":2852,"Color":2853,"CE":2854,"case":2855,"dot":2856,"ernel":2857,"Ġclosed":2858,"Ġreplace":2859,"Ġdat":2860,"ĠEOF":2861,"Ġyear":2862,"scatter":2863,"Ġattributes":2864,"untimeError":2865,"201":2866,"Gen":2867,"fs":2868,"rel":2869,"ĠTHA":2870,"keep":2871,"factory":2872,"Ġalgorithm":2873,"ORE":2874,"Ser":2875,"ccess":2876,"Ġfix":2877,"utdown":2878,"INTER":2879,"Ġstandard":2880,"scape":2881,"Ġcreated":2882,"07":2883,"Frame":2884,"ale":2885,"finit":2886,"zinfo":2887,"ically":2888,"initial":2889,"Ġcompat":2890,"QUAL":2891,"Ġzero":2892,"Ġkwargs":2893,"Ġsupported":2894,"ĠTHAI":2895,"drop":2896,"patch":2897,"Ġkeys":2898,"Ġreference":2899,"lied":2900,"ĠTEXT":2901,"ĠOR":2902,"=',":2903,"su":2904,"tr":2905,"writer":2906,"ersion":2907,"Ġtheir":2908,"Ġsure":2909,"peg":2910,"Ġstderr":2911,"Ġconvert":2912,"ĠWindows":2913,"buil":2914,"minator":2915,"IZE":2916,"Ġadded":2917,"LET":2918,"]))<":2919,"rt":2920,"tree":2921,"ĠComp":2922,"Ġhand":2923,"(\"%":2924,"RAN":2925,"Ġgo":2926,"handler":2927,"cursive":2928,"DEF":2929,"TYPE":2930,"classes":2931,"future":2932,"pu":2933,"invalid":2934,"ater":2935,"ntax":2936,"last":2937,"Ġdest":2938,"ading":2939,"Ġ\".":2940,"Ġmean":2941,"function":2942,"AS":2943,"Var":2944,"ging":2945,"ĠAL":2946,"Ġ'#":2947,"Ġfd":2948,"Ġpad":2949,"Ġwould":2950,"Ġmapping":2951,"ĠNo":2952,"ĠRuntimeError":2953,"Ġdistribution":2954,"ĠMe":2955,"shake":2956,"objects":2957,"MAP":2958,"vc":2959,"Ġscreen":2960,"Ġsubclass":2961,"'.<":2962,".\"<":2963,"08":2964,"imp":2965,"Ġurl":2966,"ord":2967,"Ġinst":2968,"Ġmissing":2969,"vals":2970,"expected":2971,"abstract":2972,"Ġresponse":2973,"ĠDOT":2974,"039":2975,"vious":2976,"Ġtyp":2977,"TypeError":2978,"ru":2979,"stop":2980,"Ġiss":2981,"ural":2982,"Ġsorted":2983,"...<":2984,"29":2985,"space":2986,"Ġreg":2987,"rag":2988,"ceive":2989,"classifier":2990,"Ġprovide":2991,"post":2992,"Ġevents":2993,"////////":2994,"AIL":2995,"Trans":2996,"WS":2997,"cap":2998,"eof":2999,"ported":3000,"orch":3001,"metrics":3002,"Ġremain":3003,"Ġevery":3004,"Ġday":3005,"ish":3006,"[:-":3007,"Ġlang":3008,"StreamReader":3009,"]]":3010,"]),":3011,"sort":3012,"Ġlimit":3013,"Ġ'{":3014,"ĠĠĠĠĠĠĠĠĠĠĠĠĠĠĠĠĠĠĠĠĠĠĠĠĠĠĠĠĠĠĠĠĠĠĠ":3015,"Ġ12":3016,"Ġclassification":3017,"SSL":3018,"Ġopcode":3019,"ĠArgs":3020,"Ġmailbox":3021,"finity":3022,"sr":3023,"Ġsplit":3024,"uto":3025,"__.":3026,"isual":3027,"Ġconnection":3028,"EST":3029,"licit":3030,"Ġdirectories":3031,"Ġcallable":3032,"predictions":3033,"Ġinspect":3034,">\"\"\"":3035,"Ġrel":3036,"ked":3037,"executable":3038,"Ġdigits":3039,"Ġ*,":3040,"Ġhash":3041,"Ġaddr":3042,"enter":3043,"Ġspecial":3044,"empty":3045,"Ġdescrib":3046,"pha":3047,"Ġverbose":3048,"Ġdifferent":3049,"ensure":3050,"'re":3051,"done":3052,"ystem":3053,"Ġag":3054,"left":3055,"Ġdesc":3056,"difi":3057,"except":3058,"ressed":3059,"Ġleast":3060,"trace":3061,"Ġcommands":3062,"POINT":3063,"StreamWriter":3064,"77":3065,"ASE":3066,"To":3067,"UND":3068,"bar":3069,"save":3070,"ðĿ":3071,"here":3072,"Ġpri":3073,"ĠSPACE":3074,"Ġtoo":3075,"respon":3076,"SCRIP":3077,"ðĿĳ":3078,"SCRIPT":3079,"31":3080,"PRE":3081,"clear":3082,"yle":3083,"Ġnormal":3084,"Ġescape":3085,"ĠLOW":3086,"ados":3087,"pyplot":3088,"parser":3089,"Ġcommon":3090,"which":3091,"Ġglobals":3092,"Ġignore":3093,"=(":3094,"~~":3095,"ATE":3096,"chine":3097,"setup":3098,"waiter":3099,"OLATED":3100,"Ġparams":3101,"ctypes":3102,"ĠCARON":3103,"ĠISOLATED":3104,"87":3105,"Get":3106,"flag":3107,"Ġ[(\"":3108,"andom":3109,"lication":3110,"Ġfeatures":3111,"AULT":3112,"ommand":3113,"ww":3114,"Ġet":3115,"Ġ-=":3116,"Ġsearch":3117,"screen":3118,"Ġdirect":3119,"ĠException":3120,"Ġgenerated":3121,"points":3122,"IFT":3123,"fusion":3124,"DLE":3125,"NOW":3126,"ipe":3127,"seconds":3128,"eros":3129,"Ġmath":3130,"ĠSet":3131,"ments":3132,"Ġ%<":3133,"ough":3134,"ĠExample":3135,"Ġshort":3136,"****************":3137,"Ġpop":3138,"ERSCRIPT":3139,"ĠTAB":3140,"('\\":3141,"(),<":3142,"ĠEX":3143,"pawn":3144,"Ġwhether":3145,"Ġsubprocess":3146,"ĠSTART":3147,"Ġstrip":3148,"ĠSUPERSCRIPT":3149,"AK":3150,"PORT":3151,"SV":3152,"nn":3153,"lambda":3154,"ĠSS":3155,"ĠTON":3156,"ĠPL":3157,"Ġnecess":3158,"Ġneeded":3159,"processing":3160,"Ġpredictions":3161,"Parser":3162,"Classifier":3163,"ĠTONOS":3164,"=_":3165,"GLE":3166,"norm":3167,"rp":3168,"son":3169,"Ġpython":3170,"ntry":3171,"INAL":3172,"ization":3173,"codec":3174,"Ġwords":3175,"reshape":3176,"annels":3177,")),":3178,"Des":3179,"URE":3180,"task":3181,"Ġ]<":3182,"selection":3183,"Ġspec":3184,"Ġinvalid":3185,"rozen":3186,"typ":3187,"Ġinterface":3188,"Ġsuffix":3189,"Ġoriginal":3190,"Compiler":3191,"This":3192,"mory":3193,"Ġtermin":3194,"iteral":3195,"vided":3196,"ibility":3197,"week":3198,"OLON":3199,"Ġdisplay":3200,"stdin":3201,"Ġsuch":3202,"vectors":3203,"Ġcontents":3204,"ĠOptional":3205,"CLA":3206,"COM":3207,"rate":3208,"ged":3209,"ilar":3210,"ĠBase":3211,"ffff":3212,"Ġpair":3213,"imilar":3214,"Ġinterpre":3215,"template":3216,"cros":3217,"Ġaxis":3218,"\"]":3219,":]":3220,"Py":3221,"Version":3222,"af":3223,"flow":3224,"uint":3225,"release":3226,"Ġnode":3227,"cores":3228,"ĠFOUR":3229,"ĠESC":3230,"times":3231,"Ġpolicy":3232,"Ġdocument":3233,"Ġtarinfo":3234,"Ġrequired":3235,"ĠESCAP":3236,"MIC":3237,"bg":3238,"fin":3239,"just":3240,"total":3241,"used":3242,"Ġawait":3243,"pth":3244,"ĠUN":3245,"ift":3246,"lots":3247,"Ġcalls":3248,"Ġoperation":3249,"restype":3250,"={":3251,"GAR":3252,"Network":3253,"ien":3254,"ome":3255,"second":3256,"Ġcli":3257,"Ġregister":3258,"uron":3259,"dio":3260,"dire":3261,"edColor":3262,"RACTION":3263,"Ġ{<":3264,"ifest":3265,"delta":3266,"ĠListedColor":3267,"ĠANGLE":3268,"POINTING":3269,"ĠESCAPE":3270,"ĠListedColormap":3271,"Man":3272,"ValueError":3273,"ob":3274,"sq":3275,"search":3276,"mension":3277,"ĠSOL":3278,"ĠOn":3279,"Ġenviron":3280,"perceptron":3281,"Ġkind":3282,"Ġpaths":3283,"Ġcaller":3284,"Ġappro":3285,"Ġcoroutine":3286,"ĠUnicode":3287,"AREN":3288,"FILE":3289,"Oper":3290,"dated":3291,"ire":3292,"Ġfn":3293,"ĠClass":3294,"ĠFRACTION":3295,"Ġweek":3296,"ULATION":3297,"Ġactual":3298,"Ġvariables":3299,"ĠTABULATION":3300,"DIC":3301,"Iter":3302,"bb":3303,"ef":3304,"gin":3305,"ha":3306,"nch":3307,"uage":3308,"Ġident":3309,"rand":3310,"gex":3311,"loss":3312,"ris":3313,"ribution":3314,"Ġexact":3315,"ĠPAREN":3316,"Ġlow":3317,"Read":3318,"lobs":3319,"Ġway":3320,"THESIS":3321,"#<":3322,"65":3323,":-":3324,"Le":3325,"xfe":3326,"ĠTRAN":3327,"('.":3328,"ĠEN":3329,"quote":3330,"Ġprovided":3331,"Ġnegative":3332,"IDUS":3333,"precated":3334,"ĠCURLY":3335,"ĠFEED":3336,"ĠSHADE":3337,"ĠSOLIDUS":3338,"ĠPARENTHESIS":3339,"91":3340,">@":3341,"ye":3342,"ATA":3343,"ĠACK":3344,"cho":3345,"Ġexecutable":3346,"ĠSMTP":3347,"ignore":3348,"READ":3349,"Ġsep":3350,"ends":3351,"ĠSHIFT":3352,"ĠTRANSM":3353,"').":3354,"ML":3355,"SIZE":3356,"ited":3357,"Ġsrc":3358,"Ġ---------------------------------":3359,"-------":3360,"__',":3361,"fileno":3362,"Ġconstructor":3363,"ĠEQUAL":3364,"ISSION":3365,"Ġfail":3366,"LEDGE":3367,"builtin":3368,"NOWLEDGE":3369,"ĠSSL":3370,"ĠACKNOWLEDGE":3371,"ĠTRANSMISSION":3372,"Temp":3373,"av":3374,"fill":3375,"ick":3376,"orig":3377,"dev":3378,"Ġeven":3379,"Ġdelim":3380,"Ġwin":3381,"Ġexit":3382,"Ġasync":3383,"Ġlet":3384,"pair":3385,"Ġnumbers":3386,"Ġpositive":3387,"MAX":3388,"Ġexists":3389,"Message":3390,"ceived":3391,"Close":3392,"after":3393,"bl":3394,"Ã³":3395,"ÅĤ":3396,"lice":3397,"inear":3398,"ĠVUL":3399,"Ġknow":3400,"Ġface":3401,"ĠPLUS":3402,"Operation":3403,"ĠVULGAR":3404,"\"\\":3405,",))<":3406,"=('":3407,"AND":3408,"Address":3409,"CP":3410,"NO":3411,"SET":3412,"double":3413,"semb":3414,"Ġbody":3415,"Ġdeta":3416,"iled":3417,"ĠMED":3418,"imer":3419,"Ġreading":3420,"basename":3421,"Ġrunning":3422,"ecutor":3423,"Ġbuiltin":3424,"MINUS":3425,"Ġagain":3426,"93":3427,"</":3428,"=(\"":3429,"BIN":3430,"break":3431,"cul":3432,"lush":3433,"decoder":3434,"cto":3435,"peed":3436,"any":3437,"Ġcould":3438,"Ġmemo":3439,"policy":3440,"force":3441,"commands":3442,"Ġdescript":3443,"Parse":3444,"Ġcolumns":3445,"=%":3446,"DO":3447,"best":3448,"bias":3449,"jp":3450,"pid":3451,"vas":3452,"arange":3453,"ross":3454,"Ġdst":3455,"ressor":3456,"argtypes":3457,"step":3458,"([[":3459,"1234":3460,"button":3461,"columns":3462,"abstractmethod":3463,"({":3464,").__":3465,"43":3466,"66":3467,"FAIL":3468,"Not":3469,"Option":3470,"cm":3471,"rary":3472,"})<":3473,"Äħ":3474,"Ġqueue":3475,"descri":3476,"Ġimplemented":3477,"aris":3478,"Ġdot":3479,"ETA":3480,"Ġ\"-":3481,"ĠOther":3482,"Ġprevious":3483,"Ġtrailing":3484,"Ġsizeof":3485,"ytesIO":3486,"27":3487,"Create":3488,"Po":3489,"PRO":3490,"ings":3491,"ĠImage":3492,"Ġdistance":3493,"handshake":3494,"Manager":3495,")')<":3496,"09":3497,"61":3498,"Path":3499,"body":3500,"hread":3501,"xy":3502,"Ġtorch":3503,"ĠFile":3504,"ĠGen":3505,"043":3506,"Ġmany":3507,"Ġcolumn":3508,"latin":3509,"Ġnecessary":3510,"CON":3511,"TO":3512,"filter":3513,"ple":3514,"Ġ^":3515,"Ġkeep":3516,"Ġtitle":3517,"orary":3518,"height":3519,"Ġ\":":3520,"ĠNO":3521,"ines":3522,"ESC":3523,"Ġdispatch":3524,"ĠUnix":3525,"xxx":3526,"Ġcomplete":3527,"Defect":3528,"endswith":3529,"FIPS":3530,"big":3531,"push":3532,"uation":3533,"Ġtri":3534,"ster":3535,"Ġda":3536,"ĠDoc":3537,"Ġselector":3538,"Ġnamespace":3539,"HEN":3540,"nl":3541,"slots":3542,"uc":3543,"disp":3544,"amily":3545,"hook":3546,"itional":3547,"Ġcorrespon":3548,"ĠImporting":3549,"nan":3550,"ĠAT":3551,"Ġtree":3552,"Ġtask":3553,"ĠCheck":3554,"('/":3555,"classmethod":3556,"Ġanother":3557,"ĠHYP":3558,"Ġenv":3559,"stants":3560,"Ġmultiple":3561,"parameters":3562,"Server":3563,"ĠHYPHEN":3564,")'":3565,"Handle":3566,"gle":3567,"gory":3568,"iv":3569,"desc":3570,"raction":3571,"Ġbrowser":3572,"ĠMA":3573,"imum":3574,"Ġaccess":3575,"Ġhandler":3576,"ĠDistribution":3577,"packages":3578,"complete":3579,"Ġdescribing":3580,"*-":3581,"Res":3582,"aw":3583,"tb":3584,"Ġfont":3585,"tell":3586,"Ġconn":3587,"env":3588,"Ġdiv":3589,"Ġsupplied":3590,"hostname":3591,"DESC":3592,"HO":3593,"cd":3594,"dump":3595,"stamp":3596,"Ġfilter":3597,"Ġpush":3598,"cogn":3599,"lying":3600,"Ġwhitespace":3601,"POST":3602,"Ġoperand":3603,"scripts":3604,"special":3605,"RIPTION":3606,"DESCRIPTION":3607,"duct":3608,"Ġpers":3609,"ions":3610,"Ġ-*-":3611,"ĠTO":3612,"child":3613,"ĠPE":3614,"Ġ*<":3615,"dirname":3616,"ird":3617,"Ġheight":3618,"ĠThere":3619,"active":3620,"Ġshape":3621,"written":3622,"60":3623,"actions":3624,"bdist":3625,"ny":3626,"rat":3627,"side":3628,"zy":3629,"Ġnet":3630,"Ġsp":3631,"ETH":3632,"ride":3633,"ITE":3634,"mote":3635,"Ġupdated":3636,"archive":3637,"Dict":3638,"extensions":3639,"BUG":3640,"specific":3641,"(('":3642,"ACK":3643,"Form":3644,"dst":3645,"her":3646,"tune":3647,"Ġip":3648,"Ġinclu":3649,"Ġdete":3650,"ĠFULL":3651,"api":3652,"payload":3653,"home":3654,"negative":3655,"atcher":3656,"Ġinternal":3657,"Ġgenerator":3658,"symb":3659,"Ġtemplate":3660,"served":3661,"28":3662,"IUM":3663,"Python":3664,"User":3665,"ral":3666,"select":3667,"Ġtb":3668,"ndarray":3669,"Ġshe":3670,"Ġbit":3671,"eta":3672,"Ġwere":3673,"017":3674,"Returns":3675,"stats":3676,"Ġbuilt":3677,"poly":3678,"duce":3679,"Ġwriting":3680,"ĠMEDIUM":3681,"SIL":3682,"uted":3683,"alias":3684,"Ġsort":3685,"Ġdes":3686,"lobj":3687,"ĠCF":3688,"ĠInter":3689,"Ġ+<":3690,"Ġoptim":3691,"ANC":3692,"cording":3693,"Ġperceptron":3694,"DEFAULT":3695,"SILON":3696,"'\"":3697,"26":3698,"LINE":3699,"bab":3700,"eb":3701,"txt":3702,"Ġ//":3703,"Ġutils":3704,"Ġfalse":3705,"uring":3706,"ERS":3707,"ummy":3708,"defects":3709,"Ġlearning":3710,"Ġfilenames":3711,"Ġtraining":3712,"orest":3713,"Ġentries":3714,"Ġstdin":3715,"Ġusage":3716,"Ġattrs":3717,"Ġclient":3718,"89":3719,"CD":3720,"dr":3721,"ufe":3722,"Ġì":3723,"inst":3724,"Ġav":3725,"ards":3726,"Ġsig":3727,"Ġisn":3728,"resp":3729,"pression":3730,"ĠMIME":3731,"Ġyour":3732,"Ġmachine":3733,"background":3734,"ROKE":3735,"Ġcollections":3736,"String":3737,"Process":3738,"ĠSTROKE":3739,"ĠStreamReader":3740,")(":3741,"Hel":3742,"RI":3743,"]])<":3744,"ares":3745,"inte":3746,"ery":3747,"Ġcap":3748,"medi":3749,"Ġfill":3750,"Ġequal":3751,"ndo":3752,"contain":3753,"ĠMAC":3754,"ower":3755,"Ġcalling":3756,"Ġ'.'":3757,"################################################################":3758,"Ġelements":3759,"hedule":3760,"bot":3761,"go":3762,"igen":3763,"wchar":3764,"metadata":3765,"ities":3766,"lang":3767,"ĠAl":3768,"Ġ1000":3769,"Ġcond":3770,"ĠPo":3771,">>>>":3772,"Ġheap":3773,"vice":3774,"ware":3775,"single":3776,"Ġsignal":3777,"48":3778,"No":3779,"PY":3780,"RL":3781,"UID":3782,"fli":3783,"gra":3784,"ject":3785,"nframes":3786,"tf":3787,"dec":3788,"Ġ'*":3789,"Ġ'--":3790,"tem":3791,"connect":3792,"resize":3793,"precation":3794,"ĠThese":3795,"Ġsetattr":3796,"ESTION":3797,"Ġtests":3798,"cast":3799,"Ġtimes":3800,"usage":3801,"Ġlogger":3802,"ĠQUESTION":3803,"reshold":3804,"ANCEL":3805,"Size":3806,"Tk":3807,"bow":3808,"gpu":3809,"Ġsa":3810,"ERR":3811,"____":3812,"ĠEn":3813,"ĠEach":3814,"Ġseek":3815,"ĠUse":3816,"Ġsetup":3817,"045":3818,"images":3819,"Ġsuccess":3820,"FLAGS":3821,"display":3822,"pkg":3823,"LETE":3824,"End":3825,"ident":3826,"seq":3827,"Ġ'''":3828,"Ġren":3829,"()'":3830,"().__":3831,"Ġitself":3832,"ĠVisual":3833,"nominator":3834,"IST":3835,"Ġ32":3836,"Ġpathname":3837,"img":3838,"Ġlambda":3839,"Ġpassword":3840,"pix":3841,"Ġshow":3842,"distutils":3843,"Ġexisting":3844,"Ġrepresenting":3845,"5678":3846,"globals":3847,"SPACE":3848,"WORD":3849,"Ð¸":3850,"regist":3851,"Ġaverage":3852,"ĠĠĠĠĠĠĠĠĠĠĠĠĠĠĠĠĠĠĠĠĠĠĠĠĠĠĠĠĠĠĠĠĠĠĠĠĠĠĠ":3853,"ATH":3854,"Ġ'\\\\":3855,"vers":3856,"Ġmeans":3857,"Ġtrace":3858,"ENSE":3859,"State":3860,"9999":3861,"Ġinstances":3862,"ĠZIP":3863,"egasos":3864,"LICENSE":3865,"36":3866,"lt":3867,"micro":3868,"oci":3869,"pad":3870,"site":3871,"xlabel":3872,"Ġtmp":3873,"Ġcustom":3874,"Ġuses":3875,"Ġcompress":3876,"caler":3877,"Ġcompatibility":3878,"ragma":3879,"Desc":3880,"description":3881,"precationWarning":3882,"95":3883,"Ch":3884,"hing":3885,"known":3886,"nb":3887,"sample":3888,"ux":3889,"}')<":3890,"lem":3891,"Ġdry":3892,"ately":3893,"ulong":3894,"('%":3895,"Ġ<<":3896,"['.":3897,"nored":3898,"Regression":3899,"IPE":3900,"news":3901,"Ġencodings":3902,"encoded":3903,"before":3904,"uffered":3905,"Ġstrict":3906,"arison":3907,"70":3908,"=-":3909,"MATION":3910,"MENT":3911,"SH":3912,"cmp":3913,"zone":3914,"Ġau":3915,"Ġabo":3916,"alk":3917,"Ġpol":3918,"Ġour":3919,"--<":3920,"INF":3921,"ĠAS":3922,"250":3923,"Ġcompression":3924,"ROUP":3925,"datetime":3926,"Ġrepresentation":3927,"Ġmembers":3928,"Ġwritten":3929,"Ġregular":3930,"ĠEXCLA":3931,"ctools":3932,"Ġabove":3933,"ĠEXCLAMATION":3934,"40":3935,"Dist":3936,"Log":3937,"Ġutf":3938,"allow":3939,"roken":3940,"lack":3941,"Ġdeprecated":3942,"unique":3943,"defined":3944,"connection":3945,"Ġles":3946,"Ġmemory":3947,"Ġalpha":3948,"ouse":3949,"Ġdomain":3950,"ĠĠĠĠĠĠĠĠĠĠĠĠĠĠĠĠĠĠĠĠĠĠĠĠĠĠĠĠĠĠĠĠĠ":3951,"route":3952,"Ġappend":3953,"Ġmatches":3954,"Ġthreads":3955,"extract":3956,"samp":3957,"Ġdocumentation":3958,"49":3959,"CF":3960,"VAR":3961,"tp":3962,"zeros":3963,"Ġput":3964,"Ġreader":3965,"Ġdeterm":3966,"ĠCreate":3967,"ĠNe":3968,"ĠNUM":3969,"Ġcontrol":3970,"Ġfileobj":3971,"REA":3972,"ĠDef":3973,"Ġmodifi":3974,"Ġspecific":3975,"mlinks":3976,"Ġpadding":3977,"45":3978,"CIAL":3979,"Int":3980,"]*":3981,"cancel":3982,"fold":3983,"uce":3984,"Ġtz":3985,"Ġnn":3986,"Ġsimple":3987,"coin":3988,"losing":3989,"Ġsysconfig":3990,"days":3991,"LOC":3992,"Ġcluster":3993,"BREAK":3994,"onents":3995,"ĠChar":3996,"BUS":3997,"Lib":3998,"clean":3999,"where":4000,"Ġjoin":4001,"requi":4002,"Ġ'\"":4003,"med":4004,"Ġrecursive":4005,"ĠLinear":4006,"mpt":4007,"INESS":4008,"Ġstill":4009,"Ġannot":4010,"prev":4011,"Ġproces":4012,"Ġweight":4013,"Ġexplicit":4014,"Ġlocals":4015,"password":4016,"Ġhttp":4017,"Ġdirectly":4018,"67":4019,"VEN":4020,"bad":4021,"drive":4022,"got":4023,"non":4024,"samples":4025,"urs":4026,"ittle":4027,"INK":4028,"ATURE":4029,"ORY":4030,"proto":4031,"reduce":4032,"Ġaccording":4033,"Ġappe":4034,"Selector":4035,"ultibyte":4036,"sqrt":4037,"Ġcorresponding":4038,":',":4039,"NE":4040,"Pipe":4041,"SO":4042,"TY":4043,"author":4044,"scores":4045,"sen":4046,"ret":4047,"resses":4048,"Ġreadline":4049,"pick":4050,"Ġ42":4051,"Ġbased":4052,"ĠStandard":4053,"Ġallowed":4054,"Ġsquare":4055,"REATER":4056,"35":4057,"BO":4058,"PER":4059,"alen":4060,"clf":4061,"ched":4062,"iris":4063,"loy":4064,"pture":4065,"listdir":4066,"Ġseen":4067,"abled":4068,"Ġsetting":4069,"Ġpresent":4070,"posix":4071,"Ġcolon":4072,"2022":4073,"Ġextract":4074,"OFT":4075,"polation":4076,"Ġinstalled":4077,"dispatch":4078,"ĠMACRON":4079,"BUSINESS":4080,")\"":4081,")*":4082,"BASE":4083,"dt":4084,"ee":4085,"gb":4086,"git":4087,"hat":4088,"lin":4089,"lper":4090,"ni":4091,"simple":4092,"Ġ}<":4093,"Ġ'$":4094,"Ġest":4095,"Ġsimilar":4096,"ravel":4097,"Ġbold":4098,"Ġdraw":4099,"ERO":4100,"ĠAll":4101,"uplic":4102,"Ġord":4103,"ĠPar":4104,"tom":4105,"olute":4106,"opy":4107,"ĠUT":4108,"ĠGREATER":4109,"nected":4110,"rapper":4111,"CTYPE":4112,"Ġboundary":4113,"Ġetc":4114,"Ġperson":4115,")]":4116,"BER":4117,"FORM":4118,"Key":4119,"mary":4120,"olean":4121,"two":4122,"ylabel":4123,"zero":4124,"Ġgen":4125,"indi":4126,"style":4127,"Ġ'+":4128,"uration":4129,"Ġbits":4130,"ĠSV":4131,"unction":4132,"div":4133,"fici":4134,"Ġonce":4135,"Ġpredict":4136,"Ġpayload":4137,"Ġzinfo":4138,"Ġaccept":4139,"sources":4140,"Ġquoted":4141,"domain":4142,"finalized":4143,"ĠStreamWriter":4144,"ĠOtherwise":4145,"sampwidth":4146,".%":4147,".)<":4148,">%":4149,"OUT":4150,"bf":4151,"ja":4152,"Ġtell":4153,"Ġtail":4154,"Ġauto":4155,"Ġemit":4156,"Ġmight":4157,"Ġ((":4158,"Ġforce":4159,"ters":4160,"Ġconfusion":4161,"ases":4162,"shutdown":4163,"ĠRead":4164,"poch":4165,"Ġcounter":4166,"SMTP":4167,"Ġremoved":4168,"Ġassume":4169,"optimize":4170,"Ġlanguage":4171,"Ġappropri":4172,":\\":4173,"Dis":4174,"Dados":4175,"END":4176,"NTP":4177,"Per":4178,"Value":4179,"]+":4180,"``":4181,"ass":4182,"pragma":4183,"insert":4184,"Ġ';":4185,"Ġ'?":4186,"Ġfit":4187,"unicode":4188,"ĠNaN":4189,"tract":4190,"shared":4191,"ublic":4192,"soft":4193,"Ġkth":4194,"job":4195,"need":4196,"ĠRegression":4197,"Ġtimedelta":4198,"STR":4199,"Ġshared":4200,"ĠTHE":4201,"angle":4202,"++++++++":4203,"Ġdescriptor":4204,"!<":4205,"47":4206,"COD":4207,"WR":4208,"ait":4209,"fram":4210,"gate":4211,"hist":4212,"td":4213,"align":4214,"pens":4215,"utton":4216,"TERAL":4217,"ITIAL":4218,"ising":4219,"ished":4220,"Ġseconds":4221,"ARG":4222,"Ġunique":4223,"movi":4224,"Ġnumeric":4225,"locked":4226,"Ġinputs":4227,"raph":4228,"Ġ``":4229,"Ġtuples":4230,"kwds":4231,"Ġoverride":4232,"Ġdecoded":4233,"idxs":4234,"Ġsequences":4235,"Ġvars":4236,"ASCII":4237,"NU":4238,"NaN":4239,"aded":4240,"fb":4241,"qd":4242,"ulo":4243,"ÅĽ":4244,"Ð¾":4245,"atal":4246,"Ġavoid":4247,"Ġreally":4248,"land":4249,"Ġmy":4250,"ado":4251,"uni":4252,"isdir":4253,"cia":4254,"Ġlos":4255,"Ġ255":4256,"Ġcoderesponse":4257,"collections":4258,"ĠDeprecationWarning":4259,"Ġnever":4260,"acter":4261,"123":4262,"subprocess":4263,"Ġexponent":4264,"ĠINITIAL":4265,"caten":4266,"================================":4267,"Ġrequires":4268,"Ġoccur":4269,"Ġseparator":4270,"Ġappear":4271,")/":4272,"82":4273,"DA":4274,"HI":4275,"LS":4276,"Screen":4277,"Text":4278,"eq":4279,"pp":4280,"spawn":4281,"wards":4282,"Ġqui":4283,"meta":4284,"Ġpk":4285,"digits":4286,"Ġexpression":4287,"quoted":4288,"Ġimportlib":4289,"usters":4290,"Ġparsing":4291,"errno":4292,"ĠPOINTER":4293,"svm":4294,"Ġrounding":4295,"Ġtakes":4296,"Ġprovides":4297,"Ġinterpreter":4298,"ĠDocTest":4299,"euc":4300,"ices":4301,"otes":4302,"squ":4303,"reset":4304,"Ġcate":4305,"Ġcent":4306,"Ġeigen":4307,"ĠLESS":4308,"Ġblank":4309,"center":4310,"unpack":4311,"change":4312,"(\"<":4313,"ĠRandom":4314,"ffect":4315,"Ġuni":4316,"parent":4317,"ĠSTOP":4318,"Ġmatching":4319,"Ġquote":4320,"white":4321,"Ġindic":4322,"Ġchunks":4323,"pegasos":4324,"rpm":4325,"OptionError":4326,"37":4327,"=['":4328,"CS":4329,"COL":4330,"JE":4331,"cer":4332,"null":4333,"true":4334,"warnings":4335,"}'":4336,"ork":4337,"Ġcross":4338,"Ġincrement":4339,"Ġincremental":4340,"Ġdb":4341,"ĠSOFT":4342,"Ġhigh":4343,"ĠFILE":4344,"251":4345,"tests":4346,"some":4347,"Ġprecision":4348,"Ġld":4349,"015":4350,"signature":4351,"status":4352,"Ġstatus":4353,"Ġexamples":4354,"Ġalias":4355,"PASS":4356,"ĠIncrementalEncoder":4357,"ĠIncrementalDecoder":4358,"Ġrelative":4359,"ParseError":4360,"Ġappropriate":4361,"44":4362,"AF":4363,"]):<":4364,"iew":4365,"oo":4366,"tz":4367,"Ġque":4368,"see":4369,"Ġam":4370,"Ġplot":4371,"Ġref":4372,"ĠSRE":4373,"ĠSUB":4374,"__,<":4375,"Ġbelow":4376,"ĠPy":4377,"Ġselect":4378,"Ġknown":4379,"Ġframes":4380,"Ġcomment":4381,"mtp":4382,"Ġbool":4383,"Ġissue":4384,"contains":4385,"flict":4386,"(%":4387,"-%":4388,">################################################################":4389,"Scaler":4390,"cname":4391,"dc":4392,"ea":4393,"ls":4394,"tml":4395,"delete":4396,"hex":4397,"Ġcert":4398,"Ġremote":4399,"roid":4400,"uter":4401,"Ġiso":4402,"ĠCol":4403,"ĠDo":4404,"ilities":4405,"nsure":4406,"======":4407,"IGNORE":4408,"ĠĠĠĠĠĠĠĠĠĠĠĠĠĠĠĠĠĠĠĠĠĠĠĠĠĠĠĠĠĠĠĠĠĠĠĠ":4409,"Ġmessages":4410,"quire":4411,"quiva":4412,"Ġ|<":4413,"Ġstarting":4414,"Ġinteg":4415,"Ġkwds":4416,"Ġ'-'":4417,"boundary":4418,"Iteration":4419,"Ġdelimiter":4420,"\"])<":4421,"+<":4422,"97":4423,"CC":4424,"Model":4425,"PC":4426,"cing":4427,"}\".":4428,"lent":4429,"Ġreport":4430,"Ġdown":4431,"Ġ\"\\":4432,"exact":4433,"Ġthose":4434,"()[":4435,"verbose":4436,"Ġhap":4437,"umber":4438,"ĠFraction":4439,"keywords":4440,"matically":4441,"Ġspecify":4442,"application":4443,"POS":4444,"Ġstatement":4445,"ĠREVER":4446,"Ġextensions":4447,"detection":4448,"havi":4449,"81":4450,"98":4451,"GONE":4452,"PIPE":4453,"YN":4454,"YT":4455,"az":4456,"rstrip":4457,"turtle":4458,"Ġ...<":4459,"dered":4460,"arge":4461,"Ġreset":4462,"Ġok":4463,"ndar":4464,"sslobj":4465,"ĠSo":4466,"Ġ()<":4467,"ulation":4468,"ĠAss":4469,"Ġbegin":4470,"else":4471,"Ġ[(":4472,"ĠPER":4473,"ĠOGONE":4474,"Ġsession":4475,"ĠGROUP":4476,"Ġcho":4477,"Ġ30":4478,"ĠĠĠĠĠĠĠĠĠĠĠĠĠĠĠĠĠĠĠĠĠĠĠĠĠĠĠĠĠĠĠĠĠĠĠĠĠ":4479,"comment":4480,"ideo":4481,"Ġactually":4482,"ĠCOMMA":4483,"nchannels":4484,"ERROR":4485,"ĠStandardScaler":4486,"ĠOGONEK":4487,":.":4488,"::":4489,"Age":4490,"BytesIO":4491,"Ne":4492,"Wrapper":4493,"bz":4494,"gz":4495,"vis":4496,"Å¼":4497,"ĠÐ":4498,"tens":4499,"Ġpe":4500,"Ġpack":4501,"roy":4502,"Ġwell":4503,"ution":4504,"ĠSIG":4505,"ĠDATA":4506,"dimension":4507,"__:<":4508,"ĠRING":4509,"Ġraises":4510,"ĠHe":4511,"ness":4512,"Exit":4513,"Ġsyntax":4514,"Ġabstract":4515,"signal":4516,"sync":4517,"ĠContent":4518,"partial":4519,"ELL":4520,"'''<":4521,"Ġboolean":4522,"Ġdifference":4523,"Ġlookup":4524,"ĠArguments":4525,"Ġeverything":4526,"Ġenvironment":4527,"alencoder":4528,"quivalent":4529,"68":4530,"94":4531,"Button":4532,"Sub":4533,"remo":4534,"decimal":4535,"Ġrepe":4536,"urro":4537,"ĠCANCEL":4538,"ITION":4539,"Ġbehavi":4540,"define":4541,"Ġleading":4542,"shift":4543,"ĠGet":4544,"ĠHT":4545,"Ġrc":4546,"comptype":4547,"attrs":4548,"Ġfailed":4549,"ĠZERO":4550,"finalize":4551,"Ġ\"\"<":4552,"Ġspaces":4553,"Ġplace":4554,"Generator":4555,"FORMAT":4556,"96":4557,"AG":4558,"Command":4559,"Time":4560,"Thread":4561,"ball":4562,"black":4563,"flush":4564,"ike":4565,"ient":4566,"mer":4567,"},":4568,"Ġtag":4569,"lected":4570,"Ġpatch":4571,"ĠLIG":4572,"Ġinplace":4573,"Ġdt":4574,"Ġdrive":4575,"ĠASCII":4576,"kens":4577,"tern":4578,"LECT":4579,"olve":4580,"ounter":4581,"Ġruntime":4582,"unknown":4583,"Ġiterator":4584,"Ġthreading":4585,"expand":4586,"Ġrepresents":4587,"Ġindices":4588,"Ġvalidation":4589,"ighb":4590,"Ġplatforms":4591,"annotation":4592,"Level":4593,"ratio":4594,"ĠLIGATURE":4595,"(['":4596,"=<":4597,"CRE":4598,"Is":4599,"OK":4600,"]'":4601,"cum":4602,"cancelled":4603,"multip":4604,"sequence":4605,"Ġclear":4606,"tered":4607,"Ġph":4608,"Ġ(-":4609,"macros":4610,"Ġthree":4611,"resource":4612,"---------------":4613,"ĠUUID":4614,"Ġhex":4615,"assertTrue":4616,"Ġwhence":4617,"pose":4618,"Ġuseful":4619,"pickle":4620,"Ġcurrently":4621,"Ġopts":4622,"decoded":4623,"signed":4624,"Ġsupports":4625,"weights":4626,"ficient":4627,"ighbors":4628,"83":4629,"Count":4630,"PATH":4631,"UD":4632,"VENT":4633,"cat":4634,"crc":4635,"eature":4636,"junk":4637,"kf":4638,"yc":4639,"Ġreview":4640,"Ġwr":4641,"lost":4642,"Ġmask":4643,"ĠSplit":4644,"async":4645,"ĠRaises":4646,"preprocessing":4647,"quent":4648,"Infinity":4649,"Ġmove":4650,"Ġcreating":4651,"URN":4652,"IFF":4653,"futures":4654,"directory":4655,"'{":4656,":])<":4657,"If":4658,"SUP":4659,"Up":4660,"actor":4661,"bre":4662,"king":4663,"ores":4664,"wb":4665,"inner":4666,"Ġtre":4667,"denominator":4668,"Ġ'='":4669,"Ġ':'":4670,"Ġfallback":4671,"Ġnargs":4672,"Ġdecimal":4673,"ueue":4674,"Ġ(_":4675,"ĠNULL":4676,"chmod":4677,"('<":4678,"Ġhi":4679,"Ġconver":4680,"conn":4681,"ĠPer":4682,"Ġ256":4683,"pends":4684,"Ġproper":4685,"ARTER":4686,"Ġgetre":4687,"Ġlater":4688,"Ġvia":4689,"UTH":4690,"bases":4691,"usr":4692,"ibly":4693,"USER":4694,"gistic":4695,"UNCTYPE":4696,"ĠQUARTER":4697,"Ġexceptions":4698,"CodecInfo":4699,"mailbox":4700,"Ġchanged":4701,"Ġpositional":4702,"Ġunderlying":4703,"Default":4704,"lapped":4705,"SVC":4706,"weekday":4707,"COMP":4708,"Ġdetails":4709,".')<":4710,"41":4711,"57":4712,"MODE":4713,"Multibyte":4714,"dat":4715,"missing":4716,"sns":4717,"deta":4718,"Ġ')<":4719,"Ġ''.":4720,"Ġclean":4721,"Ġpr":4722,"gentry":4723,"Ġ(?":4724,"ĠAE":4725,"ĠFINAL":4726,"Ġraiseit":4727,"Ġloss":4728,"Ġunless":4729,"ISK":4730,"Ġcomparison":4731,"factor":4732,"generator":4733,"IAN":4734,"okup":4735,"running":4736,"coroutine":4737,"Ġtransform":4738,"Ġpartial":4739,"Ġpoints":4740,"supported":4741,"Ġ'/'":4742,"Ġfullname":4743,"ĠMessage":4744,"Ġaudio":4745,"Ġpkg":4746,"Ġincrementalencoder":4747,"Ġincrementaldecoder":4748,"Ġgetregentry":4749,")).":4750,"72":4751,"=\"\"\"":4752,"jor":4753,"kind":4754,"math":4755,"sor":4756,"tic":4757,"vate":4758,"heap":4759,"Ġ'@":4760,"Ġ'('":4761,"Ġ'),":4762,"Ġ'''<":4763,"Ġcancelled":4764,"road":4765,"ĠAdd":4766,"getitem":4767,"ONG":4768,"eng":4769,"Ġangle":4770,"ĠMake":4771,"ables":4772,"Ġproble":4773,"ARY":4774,"Ġ{!":4775,"sizeof":4776,"Ġcases":4777,"Ġneeds":4778,"binary":4779,"Ġignored":4780,"Ġabsolute":4781,"Ġregistry":4782,"blue":4783,"Ġcondition":4784,"63":4785,"PUT":4786,"\\.":4787,"Ð°":4788,"Ðµ":4789,"Ð½":4790,"report":4791,"ony":4792,"Ġbar":4793,"Ġwriter":4794,"Ġdump":4795,"ĠNEG":4796,"asic":4797,"Ġconstants":4798,"Ġglobs":4799,"ĠVari":4800,"Ġsets":4801,"Ġcompare":4802,"maxsize":4803,"Ġanything":4804,"SELECT":4805,"Ġversions":4806,"Ġiterations":4807,"system":4808,"winapi":4809,"Ġfutures":4810,"ĠVisualising":4811,"roadcast":4812,"ae":4813,"bold":4814,"bits":4815,"email":4816,"fmt":4817,"omple":4818,"tab":4819,"}/":4820,"ination":4821,"Ġ'&":4822,"Ġsample":4823,"fidf":4824,"ĠIDLE":4825,"ĠEIGHT":4826,"Ġprobab":4827,"ĠĠĠĠĠĠĠĠĠĠĠĠĠĠĠĠĠĠĠĠĠĠĠĠĠĠĠĠĠĠĠĠĠĠĠĠĠĠ":4828,"lling":4829,"Ġchars":4830,"longlong":4831,"epcopy":4832,"Ġgeneric":4833,"Ġbackground":4834,"THON":4835,"ĠHEAD":4836,"wrapper":4837,"HeaderDefect":4838,"Ġwrapper":4839,"erminal":4840,"ensor":4841,"writing":4842,"Prep":4843,"column":4844,"Transport":4845,"Ġexactly":4846,"semble":4847,"12345678":4848,"versal":4849,"ĠSUBST":4850,"DLL":4851,"NOT":4852,"Su":4853,"cwd":4854,"game":4855,"nse":4856,"tion":4857,"Äĩ":4858,"received":4859,"store":4860,"heme":4861,"Ġct":4862,"ĠShould":4863,"ĠStop":4864,"ĠSIX":4865,"live":4866,"ĠText":4867,"ATIVE":4868,"ITUTE":4869,"ĠNINE":4870,"ather":4871,"ĠFIVE":4872,"ĠRET":4873,"olution":4874,"Ġsent":4875,"tag":4876,"testfunc":4877,"Ġunicode":4878,"assertIs":4879,"Ġtesting":4880,"clus":4881,"ROM":4882,"akref":4883,"formats":4884,"ĠSEMIC":4885,"ĠSEVEN":4886,"groups":4887,"static":4888,"SMS":4889,"cannot":4890,"Ġmodname":4891,"Ġassoci":4892,"variance":4893,"ĠAPIs":4894,"Ġidx":4895,"InvalidOperation":4896,"registry":4897,"tensor":4898,"ĠSUBSTITUTE":4899,"clusive":4900,"ĠSEMICOLON":4901,"\".<":4902,"CORD":4903,"Down":4904,"GREE":4905,"Id":4906,"So":4907,"VERT":4908,"[^":4909,"rv":4910,"tzinfo":4911,"seg":4912,"leg":4913,"Ġcmap":4914,"alt":4915,"Ġsw":4916,"itial":4917,"Ġbp":4918,"gend":4919,"Ġduring":4920,"Ġnothing":4921,"linear":4922,"ĠBACK":4923,"conv":4924,"tools":4925,"Ġ</":4926,"ĠOUT":4927,"istics":4928,"Ġliteral":4929,"way":4930,"ending":4931,"question":4932,"ĠDEGREE":4933,"prefixlen":4934,"locals":4935,"Ġblocks":4936,"Ġchanges":4937,"Ġindicate":4938,"Ġbufsize":4939,"~~~~":4940,"www":4941,"Ġbuiltins":4942,"822":4943,"Action":4944,"GB":4945,"IV":4946,"LD":4947,"MER":4948,"blank":4949,"wer":4950,"ylib":4951,"Ã£":4952,"âĢ":4953,"selector":4954,"delim":4955,"Ġ'~":4956,"Ġrecor":4957,"Ġscore":4958,"Ġbot":4959,"Ġdid":4960,"Ġmu":4961,"light":4962,"ante":4963,"ĠDi":4964,"mac":4965,"ason":4966,"upper":4967,"ĠMapping":4968,"Ġyet":4969,"scale":4970,"ĠHel":4971,"Ġunpack":4972,"041":4973,"042":4974,"aking":4975,"ified":4976,"ifiers":4977,"Ġbutton":4978,"apply":4979,"Ġopened":4980,"ĠINVERT":4981,"Protocol":4982,"Ġsignature":4983,"Ġimages":4984,"triple":4985,"bitcoin":4986,"Ġmanifest":4987,"Ġworks":4988,"mitted":4989,"Ġtemporary":4990,"blocking":4991,"ÄĻd":4992,"Ġhttps":4993,"ĠINVERTED":4994,"Module":4995,"OUS":4996,"Windows":4997,"mime":4998,"sorted":4999,"undo":5000,"Ġ64":5001,"></":5002,"inux":5003,"Ġcte":5004,"ali":5005,"Ġpid":5006,"Ġret":5007,"Ġspeed":5008,"radi":5009,"0001":5010,"Ġinher":5011,"ĠCopy":5012,"ĠName":5013,"illa":5014,"ĠAs":5015,"getattr":5016,"Ġ14":5017,"ĠMo":5018,"ĠMID":5019,"Ġlinear":5020,"texts":5021,"istent":5022,"prog":5023,"Ġkernel":5024,"figure":5025,"OTA":5026,"Ġshutdown":5027,"Ġformatter":5028,"Ġbreakpoint":5029,"symlinks":5030,"colors":5031,"Ġerrno":5032,"Ġbytearray":5033,"compressor":5034,"Ġbetter":5035,"LIB":5036,"Argument":5037,"Ġimg":5038,"Ġremainder":5039,"loyment":5040,"ĠREVERSE":5041,"ĠPERCENT":5042,"removals":5043,")])<":5044,",)<":5045,"Event":5046,"]).":5047,"mi":5048,"alpr":5049,"Ġfname":5050,"Ġfmt":5051,"Ġsite":5052,"Ġside":5053,"0003":5054,"logs":5055,"ĠSystem":5056,"Ġ(%":5057,"Ġdefine":5058,"this":5059,"Ġcopi":5060,"ĠAMP":5061,"Ġhtml":5062,"ONLY":5063,"Ġloc":5064,"Ġlinesep":5065,"Ġmaint":5066,"Ġhelper":5067,"Ġpred":5068,"Ġfunctools":5069,"compare":5070,"plained":5071,"generate":5072,"Ġcounts":5073,"024":5074,"Ġpointer":5075,"Ġwrapped":5076,"Ġimmedi":5077,"Ġhandling":5078,"////////////////":5079,"PRESS":5080,"ĠUNIT":5081,"Ã£o":5082,"ĠMIDDLE":5083,"46":5084,"59":5085,">\\":5086,">)<":5087,"Simple":5088,"_(":5089,"cli":5090,"closing":5091,"yg":5092,"Ġvector":5093,"stit":5094,"Ġage":5095,"Ġ'|":5096,"Ġ'',":5097,"Ġpat":5098,"Ġpwd":5099,"Ġregex":5100,"Ġequivalent":5101,"lash":5102,"Ġwarn":5103,"ĠCOLON":5104,"ĠCounter":5105,"ĠĠĠĠĠĠĠĠĠĠĠĠĠĠĠĠĠĠĠĠĠĠĠĠĠĠĠĠĠĠĠĠĠĠĠĠĠĠĠĠ":5106,"ATEG":5107,"__\":<":5108,"()))<":5109,"Ġhead":5110,"msvc":5111,"ROP":5112,"ĠDecoding":5113,"Ġneuron":5114,"Ġadditional":5115,"ialog":5116,"Exec":5117,"Ġsymb":5118,"Ġpick":5119,"common":5120,"Ġsomething":5121,"Ġbinascii":5122,"tarinfo":5123,"VERSION":5124,"Ġconfiguration":5125,"cfg":5126,"fullname":5127,"Ġrender":5128,"ĠNUMBER":5129,"indices":5130,"ĠRETURN":5131,"Ġassociated":5132,")\\":5133,"CA":5134,"Entry":5135,"Pover":5136,"Train":5137,"Zip":5138,"imat":5139,"ored":5140,"ply":5141,"warning":5142,"Ġfamily":5143,"arted":5144,"Ġow":5145,"Ġear":5146,"Ġsi":5147,"ĠLINK":5148,"Ġinsert":5149,"Ġdouble":5150,"ĠCommand":5151,"TERISK":5152,"ĠAPOST":5153,"serving":5154,"gsize":5155,"Ġconversion":5156,"idden":5157,"Ġless":5158,"Ġmetadata":5159,"ĠDOLL":5160,"qualname":5161,"called":5162,"numerator":5163,"Ġshutil":5164,"logo":5165,"pointer":5166,"Ġiterable":5167,"ĠABC":5168,"ĠRECORD":5169,"HeaderParseError":5170,"MPTY":5171,"stanti":5172,"pkl":5173,"ĠCOMMER":5174,"Ġsquares":5175,"Ġfixed":5176,"ĠORD":5177,"ĠEQUALS":5178,"Ġshell":5179,"ERSAND":5180,"Ġ'*'":5181,"ĠASTERISK":5182,"framerate":5183,"qdm":5184,"ĠBACKSPACE":5185,"ĠAMPERSAND":5186,"ROPHE":5187,"Poverty":5188,"ĠAPOSTROPHE":5189,"ĠDOLLAR":5190,"ĠCOMMERCIAL":5191,"51":5192,"76":5193,"79":5194,"Cannot":5195,"Dir":5196,"METH":5197,"Run":5198,"RIA":5199,"ZA":5200,"bp":5201,"cu":5202,"gree":5203,"ats":5204,"atom":5205,"Ġfrozen":5206,"Ġdec":5207,"Ġdecoder":5208,"Ġdelay":5209,"utable":5210,"ĠSYN":5211,"unix":5212,"Ġstarts":5213,"Ġexecut":5214,"Ġextended":5215,"######":5216,"(\"\\":5217,"ĠBELL":5218,"Ġarcname":5219,"atting":5220,"iterator":5221,"QUIR":5222,"')))<":5223,"([-":5224,"Ġmaximum":5225,"Ġbases":5226,"ncy":5227,"ĠDELETE":5228,"commit":5229,"Ġcompiled":5230,"Ġmakes":5231,"Ġtarfile":5232,"abspath":5233,"Ġvery":5234,"CHRON":5235,"manifest":5236,"ĠCARRIA":5237,"ĠENQUIR":5238,"integer":5239,"RLF":5240,"STRING":5241,"ĠNEGATIVE":5242,"ĠHEADING":5243,"ĠSYNCHRON":5244,"ĠCARRIAGE":5245,"ĠENQUIRY":5246,"ĠSYNCHRONOUS":5247,"38":5248,"54":5249,"AW":5250,"AUTH":5251,"EM":5252,"Sh":5253,"ik":5254,"nargs":5255,"sin":5256,"utes":5257,"vision":5258,"ìĹ":5259,"Ġ$":5260,"Ġbg":5261,"loor":5262,"ĠNNTP":5263,"ĠAddress":5264,"may":5265,"Ġstore":5266,"__':<":5267,"Ġconnect":5268,"ĠRaise":5269,"quit":5270,"press":5271,"ĠOver":5272,"Ġwho":5273,"Ġrate":5274,"Ġlists":5275,"bool":5276,"Ġ|=":5277,"coro":5278,"ADER":5279,"Ġgenerate":5280,"Ġdelta":5281,"Ġoperations":5282,"events":5283,"ĠAny":5284,"ĠPredict":5285,"Ġobs":5286,"ĠTurtleScreen":5287,"ĠEncoding":5288,"Ġ'+'":5289,"joblib":5290,"Ġimmediately":5291,"ATEGORY":5292,")'<":5293,"39":5294,"500":5295,"CO":5296,"EH":5297,"IM":5298,"Imp":5299,"Write":5300,"_<":5301,"draw":5302,"gre":5303,"yte":5304,"yntax":5305,"remain":5306,"Ġta":5307,"Ġturn":5308,"descript":5309,"arr":5310,"Ġpen":5311,"Ġreason":5312,"raceback":5313,"loader":5314,"uess":5315,"IND":5316,"Ġreturning":5317,"ĠDon":5318,"Ġcoding":5319,"Ġ11":5320,"ĠID":5321,"ĠMSVC":5322,"ules":5323,"pyc":5324,"soon":5325,"Ġlittle":5326,"Ġstructure":5327,"stems":5328,"'):":5329,"ĠInvalid":5330,"Ġfactory":5331,"Ġdocstring":5332,"Ġperform":5333,"----------------------------------------------------------------":5334,"prediction":5335,"Unless":5336,"Ġinitialize":5337,"Ġalign":5338,"ĠPOINT":5339,"returncode":5340,"ĠALEF":5341,"ĠDefault":5342,"POSITION":5343,"200":5344,"62":5345,":],":5346,">\"":5347,"BAL":5348,"Doc":5349,"Open":5350,"br":5351,"dry":5352,"gic":5353,"miss":5354,"zie":5355,"Ġë":5356,"separ":5357,"intent":5358,"dence":5359,"Ġ'!":5360,"Ġ'^":5361,"Ġpur":5362,"Ġpublic":5363,"Ġensure":5364,"ĠLib":5365,"ntic":5366,"ĠSub":5367,"uname":5368,"ĠMat":5369,"ĠMac":5370,"Ġneural":5371,"DEBUG":5372,"Ġcalcul":5373,"LOBAL":5374,"netG":5375,"ĠINDIC":5376,"ngram":5377,"Ġgroups":5378,"DataFrame":5379,"agged":5380,"skipUnless":5381,"192":5382,"Ġ\"\")<":5383,"Ġconside":5384,"sendfile":5385,"Ġregistered":5386,"ĠPEP":5387,"Ġautomatically":5388,"ĠORDINAL":5389,"ĠINDICATOR":5390,")\")<":5391,"74":5392,"MARK":5393,"Object":5394,"RC":5395,"SD":5396,"Training":5397,"Terminal":5398,"[['":5399,"_{":5400,"dtemp":5401,"ever":5402,"mun":5403,"ormp":5404,"les":5405,"legend":5406,"Ġ'['":5407,"tet":5408,"Ġsm":5409,"Ġ-----------------":5410,"Ġbad":5411,"lavo":5412,"Ġdecl":5413,"ĠTable":5414,"unded":5415,"distance":5416,"chr":5417,"__()<":5418,"isfile":5419,"ĠFuture":5420,"Ġasyn":5421,"ĠRO":5422,"osition":5423,"Ġgre":5424,"reading":5425,"252":5426,"icular":5427,"ĠGNU":5428,"access":5429,"ISION":5430,"Ġvis":5431,"cluster":5432,"mapping":5433,"models":5434,"Ġfake":5435,"IOBase":5436,"Ġdirs":5437,"Ġfollowed":5438,"abcdef":5439,"Ġcomplex":5440,"Ġ'_'":5441,"Ġinstallation":5442,"members":5443,"suffix":5444,"Ġdays":5445,"Ġintegers":5446,"ĠSIGMA":5447,"ĠHTML":5448,"---------------<":5449,"Ġ'@'":5450,"\"].":5451,":%":5452,"Dialog":5453,"MT":5454,"average":5455,"bstract":5456,"lr":5457,"latform":5458,"sw":5459,"Ġtimer":5460,"learning":5461,"Ġ'')<":5462,"ALE":5463,"Ġ_,":5464,"into":5465,"APP":5466,"ĠOr":5467,"Ġwithin":5468,"ested":5469,"readable":5470,"Ġprog":5471,"hour":5472,"Ġouter":5473,"Ġreadable":5474,"Ġattemp":5475,"Ġsources":5476,"logical":5477,"Ġdoctest":5478,"iesi":5479,"ĠINT":5480,"Ġspecifies":5481,"PEND":5482,"Ġ'%'":5483,"astype":5484,"Ġparticular":5485,"Ġcapture":5486,"Loop":5487,"price":5488,"fspath":5489,"PROTO":5490,"Ġindicating":5491,"'ll":5492,"FIG":5493,"LT":5494,"MM":5495,"SHA":5496,"aving":5497,"frozen":5498,"kip":5499,"mult":5500,"surro":5501,"Ġ~":5502,"review":5503,"Ġter":5504,"Ġtab":5505,"Ġaround":5506,"Ġcp":5507,"Ġplayer":5508,"Ġnl":5509,"Ġeval":5510,"rase":5511,"Ġbig":5512,"lask":5513,"lish":5514,"ĠNow":5515,"gettext":5516,"Ġthing":5517,"Ġthough":5518,"ĠIO":5519,"ĠIOTA":5520,"Ġhist":5521,"Ġhard":5522,"ternal":5523,"mentation":5524,"ational":5525,"Ġ[('":5526,"owner":5527,"android":5528,"proc":5529,"ĠReg":5530,"kenList":5531,"entry":5532,"dflags":5533,"netmask":5534,"IAS":5535,"Ġsym":5536,"layers":5537,"Ġvarious":5538,"Ġentire":5539,"ABC":5540,"Ġhostname":5541,"Method":5542,"variant":5543,"PACK":5544,"ĠDataFrame":5545,"Ġexecuted":5546,"Internal":5547,"Ġdivmod":5548,"catenate":5549,"Ġconverted":5550,"Socket":5551,"IVISION":5552,"lavour":5553,">.":5554,"Block":5555,"CESS":5556,"Enum":5557,"FI":5558,"IK":5559,"NC":5560,"NL":5561,"SU":5562,"ace":5563,"literal":5564,"mro":5565,"mtime":5566,"Ġutil":5567,"Ġaut":5568,"hentic":5569,"itan":5570,"Ġ\"/":5571,"Ġforward":5572,"maint":5573,"Ġstuff":5574,"ĠRun":5575,"Ġarbit":5576,"cons":5577,"ousing":5578,"253":5579,"Ġwhy":5580,"Ġlarge":5581,"Ġ{\"":5582,"Ġ{:.":5583,"Ġaddresses":5584,"Ġsubclasses":5585,"mbed":5586,"counts":5587,"ĠUPSILON":5588,"UNK":5589,"namespace":5590,"Ġcomments":5591,"Ġstatic":5592,"ridden":5593,"Ġpygame":5594,"cpp":5595,"Ġassign":5596,"fully":5597,"contents":5598,"Ġdescriptions":5599,">\"\"\"#":5600,"cognition":5601,"symbol":5602,"ĠCFWS":5603,"Ġsafe":5604,"Distutils":5605,"Ġ'?'":5606,"descriptor":5607,"53":5608,"For":5609,"Font":5610,"Mapping":5611,"PM":5612,"found":5613,"mar":5614,"pure":5615,"}\")<":5616,"Ġut":5617,"cos":5618,"Ġwindow":5619,"ĠSup":5620,"ĠCal":5621,"ĠCATEGORY":5622,"anted":5623,"ĠDIVISION":5624,"ĠFind":5625,"ĠBuffered":5626,"ĠPIL":5627,"Ġloader":5628,"Ġdatabase":5629,"Ġresource":5630,"Ġenough":5631,"irc":5632,"Ġuna":5633,"0002":5634,"ĠStack":5635,"Ġsystems":5636,"Ġcoro":5637,"Ġoperator":5638,"Ġallows":5639,"Ġbuffering":5640,"FFFF":5641,"ĠNOTE":5642,"mkdtemp":5643,"CEP":5644,"MAPP":5645,"postargs":5646,"Ġprior":5647,"Ġlower":5648,"origin":5649,"Pool":5650,"Ġ-*-<":5651,"Ġincluding":5652,"Ġ'\\\\'":5653,"Library":5654,"Ġ';'":5655,"METHOD":5656,"Ġconsidered":5657,">-":5658,"Meta":5659,"browser":5660,"cr":5661,"imal":5662,"tas":5663,"tps":5664,"standard":5665,"Ġ'>'":5666,"alle":5667,"Ġown":5668,"urrent":5669,"Ġeffect":5670,"Ġdele":5671,"Ġmbc":5672,"threshold":5673,"mant":5674,"('>":5675,"versed":5676,"filelist":5677,"connected":5678,"pathname":5679,"ICODE":5680,"sha":5681,"sole":5682,"assertIn":5683,"[:]<":5684,"caller":5685,"STATE":5686,"Ġformatted":5687,"formed":5688,"999":5689,"corator":5690,"methods":5691,"condition":5692,"variate":5693,"ĠPOUND":5694,"ĠLogistic":5695,"Ġoccurs":5696,"ĠEOFError":5697,"Ġ'#'":5698,"Ġagainst":5699,"Ġ'$'":5700,"itialize":5701,"ĠCopyright":5702,"illage":5703,"(',":5704,"((\"":5705,"52":5706,"CCompiler":5707,"DF":5708,"Line":5709,"Loc":5710,"Mo":5711,"Popen":5712,"SER":5713,"cert":5714,"elif":5715,"element":5716,"globs":5717,"mm":5718,"power":5719,"vid":5720,"when":5721,"inverse":5722,"Ġtzinfo":5723,"hest":5724,"Ġcc":5725,"Ġctype":5726,"Ġpp":5727,"Ġpending":5728,"race":5729,"Ġbias":5730,"ĠCCompiler":5731,"Ġdefinit":5732,"Ġexecutor":5733,"ĠPHI":5734,"ĠEP":5735,"Ġmedi":5736,"ARP":5737,"accept":5738,"nom":5739,"Ġprece":5740,"Ġcanvas":5741,"221":5742,"forward":5743,"Ġpredicted":5744,"Ġiteration":5745,"category":5746,"wrapped":5747,"poll":5748,"Setup":5749,"ĠCompile":5750,"Ġopcodes":5751,"Result":5752,"Users":5753,"uniform":5754,"ormpath":5755,"itanic":5756,")),<":5757,">'<":5758,"Add":5759,"AttributeError":5760,"Forest":5761,"GA":5762,"NN":5763,"One":5764,"Te":5765,"VAL":5766,"ZMA":5767,"bile":5768,"fg":5769,"}.":5770,"ÑĤ":5771,"Ġve":5772,"Ġ''":5773,"Ġeig":5774,"Ġsq":5775,"Ġdelete":5776,"ĠSpeci":5777,"litext":5778,"ĠTar":5779,"Ġ\"'":5780,"ĠDIAL":5781,"named":5782,"Ġstyle":5783,"keup":5784,"const":5785,"toy":5786,"RENC":5787,"database":5788,"ĠModule":5789,"Ġonerror":5790,"Ġproject":5791,"ubclass":5792,"pendent":5793,"Ġcompressed":5794,"Ġbuff":5795,"Ġready":5796,"Content":5797,"subclass":5798,"calls":5799,"endian":5800,"arest":5801,"POINTER":5802,"Ġhome":5803,"Ġ','":5804,"Ġnamedtuple":5805,"KEYWORD":5806,"Ġconsume":5807,"Ġmarkobject":5808,"ĠCURRENC":5809,"execute":5810,"chunks":5811,"Ġreferences":5812,"********************************":5813,"finished":5814,"Ġcallers":5815,"Ġdetect":5816,"symbols":5817,"ĠCharacter":5818,"YTIK":5819,"multipart":5820,"SUPPORT":5821,"ĠStopIteration":5822,"Ġ'~'":5823,"Ġowner":5824,"ĠDIALYTIK":5825,"ĠCURRENCY":5826,"ĠDIALYTIKA":5827,")-":5828,"*(":5829,"69":5830,"Ac":5831,"Bu":5832,"Can":5833,"Emp":5834,"PHA":5835,"have":5836,"iving":5837,"tre":5838,"Ġ?":5839,"depth":5840,"Ġ']'":5841,"Ġcenter":5842,"memo":5843,"means":5844,"Ġrecent":5845,"Ġreceived":5846,"Ġeta":5847,"Ġsimp":5848,"ĠLabel":5849,"itable":5850,"0004":5851,"Ġduplic":5852,"ane":5853,"chain":5854,"__'":5855,"isin":5856,"Ġexport":5857,"Ġdimension":5858,"conto":5859,"RED":5860,"Ġaltern":5861,"iven":5862,"Ġmac":5863,"Ġmacros":5864,"ORS":5865,"Ġenc":5866,"Index":5867,"='',":5868,"neuron":5869,"subtype":5870,"Ġruns":5871,"Ġstreamreader":5872,"Ġstreamwriter":5873,"Ġoverridden":5874,"Ġactive":5875,"pipeline":5876,"Ġlonger":5877,"=[],<":5878,"rupt":5879,"tasks":5880,"ĠUTF":5881,").\"\"\"<":5882,")\"<":5883,"AU":5884,"AGE":5885,"Image":5886,"`'":5887,"equal":5888,"fds":5889,"pd":5890,"titanic":5891,"req":5892,"Ġtt":5893,"Ġcb":5894,"Ġcare":5895,"Ġinstanti":5896,"Ġ\"_":5897,"dify":5898,"ulate":5899,"Ġstored":5900,"__()":5901,"linesep":5902,"ĠPegasos":5903,"RAM":5904,"Ġmetrics":5905,"Ġgu":5906,"ĠUser":5907,"2500":5908,"ĠValue":5909,"Ġprev":5910,"Ġunknown":5911,"moid":5912,"neg":5913,"Ġsubtype":5914,"0010":5915,"atterns":5916,"ĠString":5917,"Ġ'<'":5918,"Ġbuilding":5919,"Ġdebugging":5920,"arguments":5921,"LETED":5922,"Ġmeaning":5923,"ĠMAX":5924,"INFO":5925,"Ġ'\"'":5926,"Ġprobably":5927,"segmentation":5928,"Ġtaken":5929,"-------------------------------------------------------------------------------<":5930,"Ġ'^'":5931,"Ġarbitrary":5932,"ĠEPSILON":5933,"58":5934,"71":5935,"Like":5936,"sg":5937,"tual":5938,"udo":5939,"xlim":5940,"}'.":5941,"seudo":5942,"ongest":5943,"ĠLe":5944,"ceed":5945,"rome":5946,"Ġmk":5947,"Ġmulti":5948,"ĠSome":5949,"Ġ\"'\"":5950,"ITY":5951,"figsize":5952,"ĠFirst":5953,"ĠBE":5954,"ĠPY":5955,"quant":5956,"ICRO":5957,"ĠMICRO":5958,"Ġlinecache":5959,"Ġmade":5960,"ica":5961,"Ġprofile":5962,"schedule":5963,"Ġvideo":5964,"Ġcompute":5965,"https":5966,"Ġ:-":5967,"Ġmovi":5968,"ĠInput":5969,"Convert":5970,"ĠYour":5971,"ĠSECTION":5972,"Ġschedule":5973,"Ġvalores":5974,"sysconfig":5975,"Ġhour":5976,"DataPrep":5977,"ELD":5978,"bufsize":5979,"threading":5980,"Ġwaiting":5981,"auss":5982,"LICATION":5983,"Ġcompatible":5984,"Ġurllib":5985,"Ġissubclass":5986,"waiters":5987,"Ġ-------------------------------------------------":5988,"Ġhappen":5989,"UDIO":5990,"Ġ'&'":5991,"POSITIONAL":5992,"Ġ'!'":5993,"contour":5994,"COR":5995,"Platform":5996,"Random":5997,"Send":5998,"_)<":5999,"aj":6000,"eff":6001,"eig":6002,"fallback":6003,"kernel":6004,"pted":6005,"uous":6006,"ylim":6007,"Ã§":6008,"Ġactions":6009,"Ġil":6010,"Ġ'}'":6011,"Ġfi":6012,"Ġreverse":6013,"Ġov":6014,"Ġes":6015,"Ġsmal":6016,"ĠLAM":6017,"rac":6018,"ropy":6019,"Ġwanted":6020,"digest":6021,"Ġ\"\"\"),<":6022,"ĠIE":6023,"enum":6024,"ffset":6025,"etch":6026,"REAM":6027,"ĠOME":6028,"estimat":6029,"ando":6030,"Ġ24":6031,"tained":6032,"Ġresume":6033,"Ġprompt":6034,"Ġcomponents":6035,"Ġcurr":6036,"STREAM":6037,"0009":6038,"rows":6039,"Ġpercent":6040,"username":6041,"refs":6042,"whitespace":6043,"splitext":6044,"vides":6045,"predicted":6046,"ĠSHARP":6047,"Ġsaved":6048,"comePoverty":6049,"detections":6050,"destroy":6051,"ĠALPHA":6052,"Ġremaining":6053,"justed":6054,"Ġoptimize":6055,"requires":6056,"retch":6057,"java":6058,"landmark":6059,"deredDict":6060,"ĠHeader":6061,"details":6062,"undobuffer":6063,"Ġ'|'":6064,"Imputer":6065,"ĠOMEGA":6066,"73":6067,"Called":6068,"EVENT":6069,"Mode":6070,"TX":6071,"ZIP":6072,"\\<":6073,"eval":6074,"family":6075,"gt":6076,"gid":6077,"lu":6078,"must":6079,"nans":6080,"pct":6081,"sd":6082,"xz":6083,"ze":6084,"eras":6085,"Ġ')'":6086,"Ġ'`'":6087,"alpha":6088,"Ġfg":6089,"Ġreserved":6090,"Ġed":6091,"inge":6092,"Ġinv":6093,"Ġwarning":6094,"rial":6095,"Ġcost":6096,"__\",":6097,"Ġthreshold":6098,"ĠBy":6099,"ĠBAR":6100,"concatenate":6101,"------------":6102,"2510":6103,"2502":6104,"2514":6105,"2534":6106,"2518":6107,"2524":6108,"Ġproc":6109,"Remove":6110,"Ġrules":6111,"Ġtrained":6112,"Ġresulting":6113,"Ġklass":6114,"012":6115,"Ġ31":6116,"([\"":6117,"0017":6118,"0005":6119,"ĠIndex":6120,"ixed":6121,"0073":6122,"0076":6123,"0044":6124,"0047":6125,"0052":6126,"0063":6127,"submit":6128,"0020":6129,"0021":6130,"0024":6131,"Ġfails":6132,"Ġ50":6133,"Ġusername":6134,"Ġbackward":6135,"tarball":6136,"Ġcompleted":6137,"LITERAL":6138,"Ġapply":6139,"ynam":6140,"relative":6141,"initialize":6142,"ordin":6143,"Ġ'{'":6144,"Ġpairs":6145,"jpg":6146,"Ġweights":6147,"ĠRandomForest":6148,">\"\"\"#\"<":6149,"'}<":6150,"064":6151,"From":6152,"Import":6153,"Number":6154,"SP":6155,"Same":6156,"TR":6157,"UST":6158,"ili":6159,"jet":6160,"ldflags":6161,"rx":6162,"she":6163,"xff":6164,"Ġtqdm":6165,"deepcopy":6166,"Ġide":6167,"Ġfall":6168,"tets":6169,"Ġwon":6170,"Ġdrv":6171,"Ġmicro":6172,"Ġmouse":6173,"ĠTime":6174,"dia":6175,"dictionary":6176,"Ġcomb":6177,"Ġexpect":6178,"Ġbecome":6179,"Ġconflict":6180,"umb":6181,"ĠWin":6182,"encoder":6183,"ĠBIN":6184,"Ġ[-":6185,"Ġleg":6186,"ĠOP":6187,"ĠMy":6188,"ĠUp":6189,"2592":6190,"Ġgetcontext":6191,"proces":6192,"Ġxc":6193,"printable":6194,"ĠĠĠĠĠĠĠĠĠĠĠĠĠĠĠĠĠĠĠĠĠĠĠĠĠĠĠĠĠĠĠĠĠĠĠĠĠĠĠĠĠĠĠ":6195,"HAVE":6196,"0013":6197,"0014":6198,"0007":6199,"0008":6200,"splitlines":6201,"0070":6202,"0071":6203,"0040":6204,"0048":6205,"0054":6206,"0055":6207,"0058":6208,"0035":6209,"0036":6210,"0096":6211,"0060":6212,"0061":6213,"0065":6214,"0069":6215,"0082":6216,"Ġoutputs":6217,"Ġclusters":6218,"ĠUPPER":6219,"FileError":6220,"userbase":6221,"Ġadds":6222,"Ġprocessing":6223,"Ġanswer":6224,"Ġincludes":6225,"Ġmarker":6226,"InvalidHeaderDefect":6227,"dropout":6228,"Formatter":6229,"________":6230,"Ġprocesses":6231,"Ð¾Ð":6232,"Ġquiet":6233,"Ġcategory":6234,"Ġeigenvectors":6235,"munic":6236,"reviews":6237,"nomial":6238,"jetado":6239,"\").":6240,"/<":6241,"2001":6242,"400":6243,"An":6244,"CV":6245,"DIR":6246,"KEN":6247,"SF":6248,"car":6249,"dylib":6250,"emon":6251,"elem":6252,"gy":6253,"luster":6254,"png":6255,"{:":6256,"Ġtries":6257,"mesh":6258,"aller":6259,"alog":6260,"tection":6261,"Ġspawn":6262,"0025":6263,"0064":6264,"0022":6265,"Ġmime":6266,"ĠCDLL":6267,"unct":6268,"inel":6269,"upported":6270,"())":6271,"()):<":6272,"ĠIMAP":6273,"Ġ[]":6274,"contin":6275,"tok":6276,"Ġlocation":6277,"rypt":6278,"Ġseg":6279,"istic":6280,"Ġgetopt":6281,"Ġpreserve":6282,"Ġrather":6283,"iterations":6284,"compression":6285,"untagged":6286,"010":6287,"Input":6288,"pilog":6289,"0011":6290,"0012":6291,"0015":6292,"0016":6293,"0018":6294,"0019":6295,"0006":6296,"Ġplus":6297,"Conv":6298,"0072":6299,"0074":6300,"0075":6301,"0077":6302,"0078":6303,"0079":6304,"0041":6305,"0042":6306,"0043":6307,"0045":6308,"0046":6309,"0049":6310,"0050":6311,"0051":6312,"0053":6313,"0056":6314,"0057":6315,"0059":6316,"0030":6317,"0031":6318,"0032":6319,"0033":6320,"0034":6321,"0037":6322,"0038":6323,"0039":6324,"0090":6325,"0091":6326,"0092":6327,"0095":6328,"0097":6329,"0098":6330,"0099":6331,"0062":6332,"0066":6333,"0067":6334,"0068":6335,"0086":6336,"0088":6337,"0089":6338,"0023":6339,"0026":6340,"0027":6341,"0028":6342,"0029":6343,"lashes":6344,"Ġfolder":6345,"Encode":6346,"Ġimplementations":6347,"riptor":6348,"Lock":6349,"cfws":6350,"ĠOnly":6351,"pickling":6352,"COMPLETED":6353,"ExecError":6354,"remainder":6355,"contourf":6356,"meshgrid":6357,",'":6358,",-":6359,":\")<":6360,"DI":6361,"Fin":6362,"MAC":6363,"PL":6364,"bind":6365,"custom":6366,"darray":6367,"eve":6368,"ider":6369,"olive":6370,"ÑĢ":6371,"recv":6372,"Ġ':":6373,"Ġ'{}":6374,"Ġclock":6375,"Ġfold":6376,"Ġndarray":6377,"Ġepoch":6378,"rays":6379,"0085":6380,"Ġbz":6381,"Ġbroken":6382,"Ġderive":6383,"rict":6384,"getopt":6385,"exclude":6386,">#-------------------------------------------------------------------------------<":6387,"gsu":6388,"Ġcont":6389,"ĠFIPS":6390,"Ġ[])<":6391,"toff":6392,"cio":6393,"pathsep":6394,"textvar":6395,"2580":6396,"2588":6397,"2584":6398,"Ġproduct":6399,"ĠHandle":6400,"Ġgets":6401,"Ġclassname":6402,"compressed":6403,"Ġparsed":6404,"Ġpax":6405,"plain":6406,"pended":6407,"argin":6408,"atory":6409,"want":6410,"licz":6411,"bolic":6412,"faces":6413,"Ġzlib":6414,"0093":6415,"0094":6416,"0080":6417,"0081":6418,"0083":6419,"0084":6420,"0087":6421,"2023":6422,"2550":6423,"2551":6424,"2554":6425,"2557":6426,"Executor":6427,"forest":6428,"2560":6429,"2563":6430,"2566":6431,"2569":6432,"Ġscheme":6433,"Ġpredicate":6434,"ĠConvert":6435,"Ġsockets":6436,"Ġblocksize":6437,"makefile":6438,"callbacks":6439,"blocks":6440,"ĠSHORT":6441,"heading":6442,"normalize":6443,"ĠLOWER":6444,"Ġweekday":6445,"TkDefault":6446,"microseconds":6447,"Descriptor":6448,"IntVar":6449,"Ġgencodec":6450,"Ġwrong":6451,"ĠVariable":6452,"ĠPredicting":6453,"Ġsmall":6454,"iesiac":6455,"PlatformError":6456,"TXT":6457,"TkDefaultFont":6458,"(__":6459,")',":6460,")\",":6461,"NULL":6462,"Over":6463,"Tensor":6464,"Wait":6465,"dar":6466,"fficient":6467,"lg":6468,"oked":6469,"tn":6470,"}'<":6471,"Ġur":6472,"inted":6473,"Ġredu":6474,"Ġembed":6475,"lite":6476,"Ġreturncode":6477,"ĠĠĠĠĠĠĠĠĠĠĠĠĠĠĠĠĠĠĠĠĠĠĠĠĠĠĠĠĠĠĠĠĠĠĠĠĠĠĠĠĠĠ":6478,"dim":6479,"__'):<":6480,"setitem":6481,"Ġconv":6482,"ĠBe":6483,"ĠPOS":6484,"cies":6485,"preargs":6486,"preds":6487,"ĠMail":6488,"Ġprevent":6489,"Reg":6490,"curdir":6491,"colon":6492,"iterable":6493,"compat":6494,"structure":6495,"033":6496,"Ġlas":6497,"ifc":6498,"optional":6499,"wakeup":6500,"')]<":6501,"Ġjson":6502,"translate":6503,"Ġupper":6504,"ĠYou":6505,"ACCESS":6506,"counter":6507,"UNICODE":6508,"UPLE":6509,"issue":6510,"ABLE":6511,"Ġfinalize":6512,"ĠLoad":6513,"ferred":6514,"Ġimported":6515,"optimizer":6516,"Ġincluded":6517,"Ġdetermine":6518,"WRITE":6519,"surrogate":6520,"FIELD":6521,"-<":6522,":/":6523,"=\"\"":6524,"CODE":6525,"EK":6526,"Found":6527,"Future":6528,"Ph":6529,"Total":6530,"[_":6531,"fr":6532,"gcc":6533,"lstrip":6534,"nap":6535,"normpath":6536,"pm":6537,"ration":6538,"ties":6539,"xml":6540,"lex":6541,"Ġns":6542,"Ġelem":6543,"Ġinner":6544,"Ġmut":6545,"ĠSyntax":6546,"Ġdefect":6547,"ancy":6548,"vecs":6549,"ilt":6550,"chdir":6551,"()]).":6552,"Ġhad":6553,"termin":6554,"ĠFunction":6555,"ĠFROM":6556,"ĠRes":6557,"Ġglob":6558,"ĠMap":6559,"Ġmagic":6560,"2591":6561,"libc":6562,"Ġrespect":6563,"shot":6564,"Ġencoder":6565,"Ġargparse":6566,"attribute":6567,"curframe":6568,"=''):<":6569,"Ġkeywords":6570,"Ġcurses":6571,"'))(":6572,"Ġ40":6573,"newline":6574,"oft":6575,"limits":6576,"Ġtokenize":6577,"Proxy":6578,"varsall":6579,"Ġlinker":6580,"canvas":6581,"ĠDistutilsExecError":6582,"Ġrequire":6583,"Ġpossibly":6584,"ULTIP":6585,"Ġapplication":6586,"Ġnetworks":6587,"Ġavg":6588,"Descri":6589,"Ġmemoryview":6590,"CODING":6591,"movies":6592,"Ġbehavior":6593,"AGES":6594,"ĠSplitting":6595,"Ġmuch":6596,"ĠHelper":6597,"ĠsiÄĻ":6598,">[":6599,"All":6600,"Buffered":6601,"Comple":6602,"System":6603,"UE":6604,"Work":6605,"criter":6606,"pan":6607,"rm":6608,"rfc":6609,"window":6610,"Ã¡":6611,"seen":6612,"lev":6613,"Ġrecom":6614,"Ġinvo":6615,"Ġwalk":6616,"ĠCENT":6617,"ĠType":6618,"rice":6619,"ĠDis":6620,"Ġ17":6621,"service":6622,"roman":6623,"ector":6624,"ĠEnum":6625,"ighest":6626,"ĠOpen":6627,"Ġ200":6628,"Ġyiel":6629,"tact":6630,"ĠHA":6631,"ĠHow":6632,"Ġview":6633,"Ġbug":6634,"posit":6635,"Ġpassing":6636,"ĠExtension":6637,"Ġformats":6638,"Ġdisabled":6639,"Ġadding":6640,"Ġallowance":6641,"axis":6642,"Ġcau":6643,"Ġinitialized":6644,"internal":6645,"(?:":6646,".*)":6647,"Ġplain":6648,"filters":6649,"bottom":6650,"ĠAlso":6651,"Ġuniversal":6652,"Ġcertfile":6653,"Ġindicates":6654,"separator":6655,"allel":6656,"Ã§Ã£o":6657,"ynamic":6658,"oftware":6659,")\"\"\"<":6660,"Cal":6661,"EIGHT":6662,"Eye":6663,"GLOBAL":6664,"Mix":6665,"PH":6666,"Print":6667,"fine":6668,"gi":6669,"jis":6670,"pca":6671,"tabs":6672,"windows":6673,"walk":6674,"zien":6675,"session":6676,"rec":6677,"recursive":6678,"des":6679,"Ġnom":6680,"law":6681,"peer":6682,"Ġdepth":6683,"loaded":6684,"ĠSO":6685,"ĠCO":6686,"ĠThread":6687,"ves":6688,"ĠDEF":6689,"linelen":6690,">#----------------":6691,"Ġthings":6692,"()]<":6693,"veral":6694,"ĠBytesIO":6695,"andid":6696,"Ġmaking":6697,"sca":6698,"##############":6699,"person":6700,"feren":6701,"Ġunsigned":6702,"paused":6703,"http":6704,"='\\":6705,"Ġkeyfile":6706,"objid":6707,"framework":6708,"Ġchecking":6709,"subplot":6710,"netD":6711,"runcate":6712,"rounding":6713,"correct":6714,"Dataset":6715,"Ġstatistics":6716,"Ġkwonly":6717,"ĠDistutilsPlatformError":6718,"manager":6719,"mkdir":6720,"Ġrout":6721,"Ã³n":6722,"duced":6723,"Ġexplicitly":6724,"CODES":6725,"movie":6726,"square":6727,"Ġdidn":6728,"EventLoop":6729,"maybe":6730,"mission":6731,"ĠLogisticRegression":6732,"pository":6733,"LU":6734,"Queue":6735,"TIME":6736,"WA":6737,"]]<":6738,"free":6739,"gral":6740,"ier":6741,"ost":6742,"rf":6743,"same":6744,"xab":6745,"sequent":6746,"inf":6747,"regex":6748,"atin":6749,"decomp":6750,"strap":6751,"ala":6752,"Ġfs":6753,"ĠLI":6754,"ssue":6755,"Ġdepends":6756,"location":6757,"Ġmid":6758,"ĠSimple":6759,"lies":6760,"litem":6761,"otstrap":6762,"ĠTrain":6763,"Ġtok":6764,"explained":6765,"Ġ19":6766,"Ġhinge":6767,"abort":6768,"ĠRaw":6769,"Ġfileno":6770,"ĠBRO":6771,"andir":6772,"Ġ25":6773,"Ġwhose":6774,"Ġcodes":6775,"Ġnewer":6776,"Ġcanon":6777,"Ġtimezone":6778,"fail":6779,"ibm":6780,"YRIGHT":6781,"Ġplat":6782,"Ġchecked":6783,"Ġmaxsize":6784,"Ġsymlink":6785,"akes":6786,"ĠINF":6787,"Ġstacklevel":6788,"IOError":6789,"modname":6790,"Ġprefixlen":6791,"ronous":6792,"Ġtargetpath":6793,"Ġrawdata":6794,"Ġapplic":6795,"latten":6796,"Ġchildren":6797,"ĠProcess":6798,"Series":6799,"Ġgood":6800,"sembly":6801,"NotFound":6802,"Handler":6803,"Ġdetermined":6804,"ĠNeed":6805,"ĠLinearRegression":6806,"sequences":6807,"Ġsymbolic":6808,"hentication":6809,"SetupError":6810,"structured":6811,"%(":6812,"'ve":6813,"(\\":6814,");":6815,"LONG":6816,"MAN":6817,"Or":6818,"TLS":6819,"numpy":6820,"pat":6821,"yld":6822,"|\\":6823,"}:":6824,"Ġte":6825,"Ġtune":6826,"onal":6827,"oring":6828,"leph":6829,"Ġcer":6830,"Ġfig":6831,"Ġfour":6832,"tems":6833,"Ġrecogn":6834,"Ġem":6835,"ingIOError":6836,"Ġbra":6837,"lookup":6838,"ĠSte":6839,"Ġ(),":6840,"ĠCan":6841,"ĠCOP":6842,"ĠCurrent":6843,"ĠĠĠĠĠĠĠĠĠĠĠĠĠĠĠĠĠĠĠĠĠĠĠĠĠĠĠĠĠĠĠĠĠĠĠĠĠĠĠĠĠ":6844,"ĠTraceback":6845,"unsupported":6846,"ĠNew":6847,"__))<":6848,"getvalue":6849,"ĠFeature":6850,"Ġmajor":6851,"tach":6852,"':'":6853,"moc":6854,"Ġpara":6855,"timestamp":6856,"argmax":6857,"ĠDecision":6858,"Ġcursor":6859,"Ġmaxlen":6860,"employment":6861,"Tests":6862,"PEAT":6863,"tuples":6864,"rawq":6865,"IFI":6866,"Ġimplements":6867,"outputs":6868,"Ġactiv":6869,"predictor":6870,"precision":6871,"Ġrows":6872,"Predi":6873,"seekable":6874,"ancelledError":6875,"icrosoft":6876,"Ġdestination":6877,"finite":6878,"choices":6879,"BINARY":6880,"children":6881,"ĠCFUNCTYPE":6882,"RIB":6883,"Ġmodified":6884,"ĠSVM":6885,"ĠAssume":6886,"Times":6887,"click":6888,"callers":6889,"illageLevel":6890,"Teleph":6891,"isinfinity":6892,"landmarks":6893,"unctuation":6894,"napshot":6895,"Telephony":6896,":]:<":6897,"Async":6898,"Bytes":6899,"Callback":6900,"DATA":6901,"Function":6902,"LIST":6903,"Map":6904,"Obj":6905,"epoch":6906,"iment":6907,"ku":6908,"pprint":6909,"slash":6910,"tod":6911,"tty":6912,"zh":6913,"ino":6914,"alid":6915,"Ġpure":6916,"Ġnull":6917,"ctal":6918,"Ġmar":6919,"Ġmis":6920,"INST":6921,"ĠThat":6922,"rier":6923,"Ġtokens":6924,"direct":6925,"ĠNumpy":6926,"ash":6927,"setstate":6928,"getcwd":6929,"Ġ13":6930,"ĠWith":6931,"(\"'":6932,"ĠBu":6933,"REF":6934,"Ġgc":6935,"Ġseveral":6936,"'])":6937,"Ġprodu":6938,"Ġheading":6939,"components":6940,"Instance":6941,"imate":6942,"imshow":6943,"Ġlay":6944,"Ġaddition":6945,"ificate":6946,"filenames":6947,"2261":6948,"cluding":6949,"Ġexpan":6950,"ĠZip":6951,"UNI":6952,"ĠDEBUG":6953,"LACK":6954,"Ġ60":6955,"while":6956,"Ġmanager":6957,"Parameter":6958,"ĠDistutilsOptionError":6959,"cursor":6960,"Ġwritable":6961,"datasets":6962,"Ġcorrectly":6963,"Ġmultipart":6964,"Ġhandled":6965,"TokenList":6966,"Ġstripped":6967,"flowError":6968,"Ġprocessed":6969,"history":6970,"ARGET":6971,"changed":6972,"Ġbeginning":6973,"purelib":6974,"ĠPOSIX":6975,"ĠBROKEN":6976,"\"{":6977,"LC":6978,"_'":6979,"card":6980,"don":6981,"ially":6982,"zma":6983,"Ģì":6984,"Ġ##":6985,"tence":6986,"Ġna":6987,"Ġeas":6988,"Ġsre":6989,"ctx":6990,"los":6991,"Ġdummy":6992,"ilent":6993,"oto":6994,"ada":6995,"undefined":6996,"Ġ\"--":6997,"ĠDARK":6998,"ĠAnd":6999,"Ġexe":7000,"fic":7001,"ĠIs":7002,"ĠIssue":7003,"Ġconst":7004,"umn":7005,"codes":7006,"Ġdigest":7007,"Ġdigit":7008,"Ġarrays":7009,"Ġlex":7010,"toc":7011,"Ġvalued":7012,"Ġguess":7013,"Ġmacro":7014,"2593":7015,"outer":7016,"ĠHAM":7017,"moving":7018,"Ġpost":7019,"=\"%":7020,"quired":7021,"Ġgives":7022,"Ġchecks":7023,"Ġmsgid":7024,"Ġbasename":7025,"Ġcontainer":7026,"Ġfinish":7027,"Ġdirname":7028,"Ġsigned":7029,"modity":7030,"xfc":7031,"OSX":7032,"ccion":7033,"Ġlinks":7034,"canv":7035,"follow":7036,"Unix":7037,"folders":7038,"Ġtyping":7039,"Ġmaps":7040,"Ġseparate":7041,"tmpdir":7042,"Generic":7043,"('.')<":7044,"Ġfailure":7045,"builtins":7046,"culate":7047,"Ġtasks":7048,"Ġoptimization":7049,"Help":7050,"++++++++++++++++":7051,"raphics":7052,"County":7053,"Ġproblem":7054,"SELECTED":7055,"PROTOCOL":7056,"METHODS":7057,"Ġmedian":7058,"ĠLabelEncoder":7059,"ĠIndexError":7060,"ĠLITERAL":7061,"ĠCOPYRIGHT":7062,"ĠHAMZA":7063,".\",":7064,"300":7065,">}<":7066,"BIT":7067,"Closed":7068,"Cancel":7069,"Fold":7070,"Gu":7071,"NUM":7072,"Turtle":7073,"`.<":7074,"false":7075,"ftime":7076,"flavour":7077,"ln":7078,"pwrite":7079,"timer":7080,"tfidf":7081,"Ġli":7082,"Ġ])<":7083,"Ġ99":7084,"ins":7085,"rename":7086,"reverse":7087,"dependent":7088,"Ġ'(":7089,"Ġnt":7090,"Ġnested":7091,"cture":7092,"oting":7093,"macro":7094,"('_":7095,"().\"\"\"<":7096,"Ġrace":7097,"Ġhaving":7098,"Ġdim":7099,"ĠBULL":7100,"Ġgzip":7101,"ĠMay":7102,"ĠMULTIP":7103,"Ġenable":7104,"Ġlr":7105,"pare":7106,"collect":7107,"pencolor":7108,"strong":7109,"ROW":7110,"optionflags":7111,"minute":7112,"Ġjunk":7113,"inputs":7114,"Ġnote":7115,"Ġends":7116,"LOW":7117,"Ġdisk":7118,"coming":7119,"ĠSequence":7120,"ayes":7121,"ĠJan":7122,"Ġworking":7123,"Ġtopmost":7124,"CHAR":7125,"Ġlibc":7126,"osen":7127,"Ġvarargs":7128,"Ġinside":7129,"overlapped":7130,"Ġmetavar":7131,"cased":7132,"avg":7133,"CONFIG":7134,"Ġnetmask":7135,"Format":7136,"botnet":7137,"ulonglong":7138,"VARS":7139,"required":7140,"Ġannotation":7141,"JECT":7142,"Ġchoice":7143,"Suite":7144,"Ġrecord":7145,"Ġbottom":7146,"ZipFile":7147,"PACKAGES":7148,"Ġsimply":7149,"aussian":7150,"darwin":7151,"surrogateescape":7152,"NotFoundError":7153,"ĠBULLET":7154,"!!":7155,"\"'":7156,"Cluster":7157,"GR":7158,"GER":7159,"Group":7160,"Item":7161,"LAN":7162,"MS":7163,"OO":7164,"Some":7165,"auto":7166,"cz":7167,"cte":7168,"ired":7169,"uuid":7170,"xad":7171,"yield":7172,"Ñģ":7173,"Ñı":7174,"ìĿ":7175,"ĉĉ":7176,"Ġke":7177,"stmt":7178,"let":7179,"Ġfoo":7180,"team":7181,"Ġpower":7182,"Ġol":7183,"Ġomitted":7184,"Ġdrop":7185,"INDIC":7186,"ĠSince":7187,"lide":7188,"Ġdefects":7189,"ones":7190,"ĠTry":7191,"ATTER":7192,"Ġ\"(":7193,"Ġcoordin":7194,"ĠAIFF":7195,"isTrain":7196,"setattr":7197,"upted":7198,"ints":7199,"tokens":7200,"LEADER":7201,"oly":7202,"Ġselected":7203,"'],<":7204,"']]<":7205,"acquire":7206,"Ġtrying":7207,"cursion":7208,"mobile":7209,"created":7210,"Ġtimestamp":7211,"Ġsubpattern":7212,"board":7213,"funcs":7214,"mbc":7215,"Ġfilesystem":7216,"Ġtransl":7217,"Ġitertools":7218,"Ġnextchar":7219,"IFEST":7220,"Ġhandles":7221,"bytecode":7222,"xfb":7223,"Ġblocking":7224,"ĠREG":7225,"Ġaliases":7226,"Ġsummary":7227,"ĠPredi":7228,"platlib":7229,"caps":7230,"ience":7231,"directories":7232,"breaks":7233,"({<":7234,"Ġfilters":7235,"ĠUTC":7236,"Ġearly":7237,"swig":7238,"soletes":7239,"ĠCompileError":7240,"ĠPYTHON":7241,"ĠInputs":7242,"liczba":7243,"Regressor":7244,"fineSize":7245,"TelephonyManager":7246,"ĠMULTIPLICATION":7247,"*',":7248,"Cre":7249,"CALL":7250,"CROW":7251,"DIGIT":7252,"Est":7253,"Enter":7254,"GET":7255,"Norm":7256,"SI":7257,"Tree":7258,"Ut":7259,"View":7260,"[,":7261,"]:":7262,"cri":7263,"eto":7264,"nop":7265,"xr":7266,"{!":7267,"Ġjoblib":7268,"inary":7269,"inery":7270,"orn":7271,"era":7272,"Ġ'':<":7273,"alive":7274,"Ġfree":7275,"arily":7276,"Ġplist":7277,"Ġpage":7278,"Ġpseudo":7279,"Ġsns":7280,"Ġiff":7281,"lamp":7282,"coffset":7283,"utc":7284,"ĠSign":7285,"lier":7286,"ĠCor":7287,"ATT":7288,"velo":7289,"ĠAd":7290,"ĠAp":7291,"ĠAUDIO":7292,"Ġstarted":7293,"chown":7294,"chinery":7295,"('--":7296,"Ġconnected":7297,"abilities":7298,"ĠFound":7299,"ĠBLACK":7300,"aps":7301,"Ġleave":7302,"Ġ%(":7303,"REPEAT":7304,"Ġgra":7305,"Ġgpu":7306,"Ġgiving":7307,"258":7308,"Ġresolve":7309,"ubyte":7310,"Ġchain":7311,"prop":7312,"project":7313,"ILD":7314,"feed":7315,"Ġunchanged":7316,"Ġvale":7317,"Ġlista":7318,"crete":7319,"ENCODING":7320,"Ġoutside":7321,"Start":7322,"ĠExtract":7323,"Ġmsvc":7324,"IRST":7325,"Ġexpand":7326,"weakref":7327,"Ġable":7328,"UNC":7329,"encodings":7330,"ngf":7331,"xbb":7332,"ContextManager":7333,"150":7334,"ogram":7335,"tarfile":7336,"regressor":7337,"AMMA":7338,"Ġcause":7339,"Ġmodulo":7340,"Ġzipfile":7341,"related":7342,"ĠMethod":7343,"dified":7344,"devnull":7345,"HOME":7346,"ĠInternal":7347,"nframeswritten":7348,"microsecond":7349,"Ġcompresslevel":7350,"allowed":7351,"Ġcategor":7352,"COLOR":7353,"Ġamount":7354,"Ġwhole":7355,"INDOW":7356,"Ġgreater":7357,"ĠINTEG":7358,"SUFF":7359,"ĠRuns":7360,"ĠPILCROW":7361,"Ġdeleted":7362,"Accuracy":7363,"Ġderived":7364,"!\")<":7365,"'m":7366,"'}":7367,"+',":7368,".'<":7369,"600":7370,"Al":7371,"And":7372,"Ali":7373,"Cent":7374,"CData":7375,"CASE":7376,"Feature":7377,"KRA":7378,"More":7379,"Vector":7380,"WINDOW":7381,"_*":7382,"_,":7383,"bird":7384,"cread":7385,"dni":7386,"eÅĽ":7387,"hard":7388,"}_{":7389,"Ġtr":7390,"Ġ=>":7391,"arante":7392,"Ġpatterns":7393,"Ġpgsu":7394,"Ġthetas":7395,"Ġreache":7396,"Ġeg":7397,"Ġslice":7398,"itch":7399,"Ġbdist":7400,"Ġbag":7401,"cel":7402,"ros":7403,"Ġdepending":7404,"Ġdecorator":7405,"gether":7406,"Ġmm":7407,"Ġmult":7408,"INIAN":7409,"Ġtoy":7410,"Ġtogether":7411,"Ġcome":7412,"Ġcour":7413,"ĠAR":7414,"ĠAli":7415,"getstate":7416,"example":7417,"external":7418,"Ġ1024":7419,"():":7420,"fidence":7421,"ability":7422,"ĠFala":7423,"Ġascii":7424,"ĠRo":7425,"ĠBRE":7426,"ĠPI":7427,"ĠPath":7428,"ĠPos":7429,"nsupported":7430,"Ġleader":7431,"RECT":7432,"Ġloaded":7433,"classifiers":7434,"dataclass":7435,"ĠOne":7436,"ĠMaking":7437,"agement":7438,"Ġ2822":7439,"ĠGrid":7440,"Ġchannels":7441,"Ġrv":7442,"Ġdoing":7443,"ĠvillageLevel":7444,"timezone":7445,"neighbors":7446,"ĠRemove":7447,"Ġoutfile":7448,"040":7449,"ROUND":7450,"HAND":7451,"mapho":7452,"')):<":7453,"newlines":7454,"checkClosed":7455,"Ġcreation":7456,"Ġrunner":7457,"Ġframework":7458,"xBB":7459,"Ġtransp":7460,"])))<":7461,"ĠTHETA":7462,"Ġvariance":7463,"Ġdatasets":7464,"phase":7465,"OSError":7466,"zipfile":7467,"video":7468,"ĠQu":7469,"---<":7470,"Arch":7471,"Ġplaces":7472,"Ġreplaced":7473,"suite":7474,"Ġterminal":7475,"pairs":7476,"NOWN":7477,"ĠGenerate":7478,"ĠGenerator":7479,"ĠGeneric":7480,"Ġselectors":7481,"Hello":7482,"ĠPoint":7483,"Ġannotations":7484,"SOCK":7485,"ĠParameter":7486,"Ages":7487,"Ġrepeat":7488,"Ġprinted":7489,"Ġcopied":7490,"Ġsymbols":7491,"cuda":7492,"Ġexecution":7493,"ĠOrderedDict":7494,"Ġnltk":7495,"Ġsqlite":7496,"andidate":7497,"SUFFIX":7498,"KRAINIAN":7499,"\"><":7500,"\">%":7501,",\"":7502,"Com":7503,"EC":7504,"EMPTY":7505,"NG":7506,"NET":7507,"Please":7508,"Pass":7509,"Sum":7510,"TARGET":7511,"].<":7512,"ccompiler":7513,"icon":7514,"multi":7515,"rupted":7516,"tos":7517,"vv":7518,"xED":7519,"za":7520,"Ġcar":7521,"Ġcum":7522,"alary":7523,"Ġreversed":7524,"Ġbpo":7525,"cepted":7526,"ĠTrans":7527,"unc":7528,"unctions":7529,"vec":7530,"digit":7531,"ĠAt":7532,"ĠAuthor":7533,"made":7534,"extended":7535,"Ġ199":7536,"(\"{:":7537,"ĠFin":7538,"ĠPrint":7539,"ĠEng":7540,"bugs":7541,"prep":7542,"datalength":7543,"ĠML":7544,"ysis":7545,"']['":7546,"ARCH":7547,"Ġfromlist":7548,"acing":7549,"prompt":7550,"ĠsetUp":7551,"Ġprec":7552,"Ġpreprocess":7553,"Rep":7554,"ISTER":7555,"parallel":7556,"Ġweakref":7557,"clusters":7558,"until":7559,"itecture":7560,"038":7561,"[:]":7562,"formatter":7563,"caling":7564,"Ġacquire":7565,"Ġshift":7566,"workers":7567,"128":7568,"))]<":7569,"xFD":7570,"ritten":7571,"Ġpdb":7572,"xbd":7573,"mplements":7574,"ormalize":7575,"Ġquotes":7576,"Ġdonne":7577,"Ġlikely":7578,"fused":7579,"aaaa":7580,"Ġtableau":7581,"Ġnormalize":7582,"Ġcoroutines":7583,"({'":7584,"Ġcaps":7585,"PYTHON":7586,"NEW":7587,"pickler":7588,"Ġdrawing":7589,"ValueTerminal":7590,"pensize":7591,"=======":7592,"FORMATS":7593,"SimpleCData":7594,"LTA":7595,"SHARED":7596,"UNKNOWN":7597,"ĠStringIO":7598,"ferencia":7599,"Vectorizer":7600,"1000":7601,"<<":7602,"Abstract":7603,"Check":7604,"Push":7605,"RAL":7606,"erence":7607,"floor":7608,"ka":7609,"ks":7610,"linal":7611,"page":7612,"speed":7613,"smtp":7614,"tm":7615,"xac":7616,"xEF":7617,"xAC":7618,"xAD":7619,"yp":7620,"Ðº":7621,"ê°":7622,"ĠETA":7623,"ĠETH":7624,"inv":7625,"Ġ'..":7626,"Ġcyc":7627,"Ġenter":7628,"Ġefficient":7629,"ĠLO":7630,"ĠLinux":7631,"rot":7632,"roids":7633,"Ġdeal":7634,"Ġwy":7635,"Ġdzien":7636,"INET":7637,"ĠSD":7638,"ĠSer":7639,"ĠCON":7640,"ĠCount":7641,"anie":7642,"ĠTAU":7643,"ĠTakes":7644,"adjusted":7645,"unregister":7646,"ĠNumber":7647,"ulative":7648,"sets":7649,"Ġconcurrent":7650,"abet":7651,"Ġ[],":7652,"ĠPart":7653,"ĠEM":7654,"ciÃ³n":7655,"ĠOMIC":7656,"Ġsoft":7657,"Ġrespon":7658,"ĠGAMMA":7659,"']:<":7660,"Ġunexpected":7661,"cols":7662,"Initialize":7663,"stringnl":7664,"ĠĠĠĠĠĠĠĠĠĠĠĠĠĠĠĠĠĠĠĠĠĠĠĠĠĠĠĠĠĠĠĠĠĠĠĠĠĠĠĠĠĠĠĠĠĠĠ":7665,"based":7666,"Ġmodify":7667,"using":7668,"entropy":7669,"ĠInte":7670,"ckets":7671,"generated":7672,"SEEK":7673,"Ġones":7674,"ĠDELTA":7675,"])[":7676,"POP":7677,"xEA":7678,"xEB":7679,"xEC":7680,"xEE":7681,"MAG":7682,"IOWrapper":7683,"EXCEP":7684,"Ġminute":7685,"linker":7686,"Ġtempfile":7687,"positional":7688,"ĠQueue":7689,"Loader":7690,"Ġscripts":7691,"relu":7692,"randint":7693,"Template":7694,"CFWS":7695,"Ġbehaviour":7696,"~~~~~~~~":7697,"ìĹ´":7698,"Ġpurpose":7699,"PoolExecutor":7700,"Ġmovie":7701,"Ġedge":7702,"Ġlegacy":7703,"municate":7704,"Guard":7705,"lidean":7706,"etopt":7707,"ĠINTEGRAL":7708,"ĠBREVE":7709,"linalg":7710,"ĠOMICRON":7711,"'[":7712,")\"),<":7713,"As":7714,"By":7715,"Cor":7716,"Date":7717,"GN":7718,"MIT":7719,"NING":7720,"NONE":7721,"Qu":7722,"SING":7723,"SPE":7724,"SITE":7725,"`,":7726,"ai":7727,"fatal":7728,"gf":7729,"json":7730,"keras":7731,"mut":7732,"nos":7733,"ĠIT":7734,"reque":7735,"repository":7736,"Ġtear":7737,"Ġcancel":7738,"Ġspe":7739,"Ġsci":7740,"Ġsim":7741,"Ġdtype":7742,"ĠCRLF":7743,"unexpected":7744,"machine":7745,"chor":7746,"isinstance":7747,"Ġexclude":7748,"ellow":7749,"enable":7750,"ĠFe":7751,"ĠBY":7752,"ĠBut":7753,"ĠBad":7754,"ORN":7755,"ĠHO":7756,"profile":7757,"noun":7758,"csize":7759,"**(":7760,"more":7761,"Ġlisted":7762,"Ġcomponent":7763,"Ġnewlines":7764,"nearest":7765,"poss":7766,"STAT":7767,"functools":7768,"Ġzone":7769,"DELETE":7770,"USE":7771,"reakpoint":7772,"Ġmaxlinelen":7773,"okie":7774,"runc":7775,"xFA":7776,"Ġusers":7777,"xBA":7778,"xBC":7779,"xBD":7780,"xBF":7781,"xCA":7782,"xCB":7783,"xCC":7784,"xCD":7785,"xCE":7786,"xCF":7787,"Ġgeneral":7788,"uffle":7789,"xDA":7790,"xDF":7791,"prefixes":7792,"xAA":7793,"xAB":7794,"xAF":7795,"ĠUnion":7796,"Ġquery":7797,"dbm":7798,"phabet":7799,"spam":7800,"'\\\\":7801,"makedirs":7802,"Sequence":7803,"Ġpackages":7804,"Ġerrwrite":7805,"Ġpydoc":7806,"Ġlooks":7807,"Ġlooking":7808,"Ġconsist":7809,"Ġvarkw":7810,"annotations":7811,"Ġformatting":7812,"markers":7813,"OURCE":7814,"sigmoid":7815,"initialized":7816,"dropna":7817,"Ġdistributions":7818,"impl":7819,"CLASS":7820,"obsoletes":7821,"ĠUnicodeError":7822,"Temporary":7823,"Ġdescriptors":7824,"Ġpreviously":7825,"Ġdesired":7826,"drv":7827,"Helper":7828,"Ġsettings":7829,"Percent":7830,"Ġoccurred":7831,"Ġappears":7832,"metavar":7833,"Ġproperties":7834,"ticle":7835,"ygwin":7836,"Ġembedded":7837,"levant":7838,"ĠHowever":7839,"ĠDEFAULT":7840,"#!":7841,"'d":7842,"/*":7843,":\"":7844,"::<":7845,":')<":7846,"ARA":7847,"BE":7848,"Browser":7849,"CRLF":7850,"Emax":7851,"Items":7852,"JP":7853,"MO":7854,"MOD":7855,"NB":7856,"Num":7857,"OB":7858,"Ori":7859,"Pct":7860,"Pix":7861,"RS":7862,"SED":7863,"WEIGHT":7864,"]\\":7865,"batch":7866,"beta":7867,"broadcast":7868,"fws":7869,"gray":7870,"iÅĤ":7871,"kr":7872,"klass":7873,"ktual":7874,"xdf":7875,"recognition":7876,"Ġtp":7877,"Ġtabs":7878,"onic":7879,"decl":7880,"delay":7881,"Ġauth":7882,"Ġauthor":7883,"hel":7884,"Ġcsv":7885,"Ġretri":7886,"Ġnc":7887,"Ġnone":7888,"Ġeq":7889,"Ġscores":7890,"ital":7891,"Ġbasic":7892,"Ġinference":7893,"rolling":7894,"cope":7895,"Ġdead":7896,"Ġdados":7897,"Ġdyld":7898,"ĠCo":7899,"ĠTh":7900,"ĠTs":7901,"ril":7902,"unlink":7903,"Ġcore":7904,"Ġstretch":7905,"chan":7906,"Ġ18":7907,"verify":7908,"terminator":7909,"conflict":7910,"resume":7911,"datawritten":7912,"Ġgram":7913,"ĠMust":7914,"ands":7915,"Ġsen":7916,"Ġ23":7917,"Ġmaster":7918,"ĠUsed":7919,"Ġproperty":7920,"acion":7921,"keyword":7922,"provides":7923,"Ġunix":7924,"compname":7925,"Ġcompared":7926,"addresses":7927,"Ġoutline":7928,"Ġoptionflags":7929,"arger":7930,"functions":7931,"Ġzeros":7932,"2231":7933,"Ġendrec":7934,"Ġintern":7935,"sentinel":7936,"Ġappended":7937,"Expected":7938,"Ġstartup":7939,"Ġpie":7940,"ANT":7941,"xBE":7942,"Ġvalor":7943,"Encoding":7944,"Product":7945,"ĠTHORN":7946,"debugging":7947,"Ġprotocols":7948,"Ġbackwards":7949,"Ġcreates":7950,"Search":7951,"HECK":7952,"Union":7953,"platforms":7954,"AMES":7955,"FFF":7956,"Ġbytecode":7957,"Ġtkinter":7958,"Ġbox":7959,"Load":7960,"IPSIS":7961,"ampling":7962,"YPES":7963,"Interrupt":7964,"Ġdatos":7965,"Ġ128":7966,"PREF":7967,"normcase":7968,"bgr":7969,"efficient":7970,"choice":7971,"CFG":7972,"ĠCharset":7973,"sencode":7974,"BOSE":7975,"linspace":7976,"ENDS":7977,"Ġeigenvalues":7978,"Ġtreated":7979,"delimiter":7980,"ÄĻdzie":7981,"Ġinherit":7982,"ĠMatrix":7983,"Ġasynch":7984,"ĠSupport":7985,"MAPPINGS":7986,"Ġdefinition":7987,"Ġbuffered":7988,"Ġguarante":7989,"Ġcanonical":7990,"mobilesvm":7991,"boardInterrupt":7992,"ĠREGISTER":7993,"EXCEPTION":7994,"nounce":7995,"ĠREGISTERED":7996,"\"',":7997,":].":7998,"Attribute":7999,"Call":8000,"IMP":8001,"LP":8002,"Linear":8003,"LZMA":8004,"Matcher":8005,"On":8006,"Ptr":8007,"aut":8008,"ky":8009,"lnum":8010,"mount":8011,"sage":8012,"sms":8013,"slice":8014,"tot":8015,"und":8016,"wind":8017,"xDE":8018,"ĠALL":8019,"recor":8020,"ori":8021,"stu":8022,"Ġ###":8023,"itu":8024,"Ġwind":8025,"ĠSh":8026,"ĠSave":8027,"ĠSkip":8028,"limin":8029,"ana":8030,"ĠTE":8031,"una":8032,"Ġ\"))<":8033,"that":8034,"ĠAc":8035,"setter":8036,"('__":8037,"getter":8038,"examples":8039,"exclusive":8040,"ĠIter":8041,"Ġhidden":8042,"uman":8043,"ĠWork":8044,"(\"/":8045,"ĠFlask":8046,"ĠRPM":8047,"Ġ[[":8048,"ĠPRO":8049,"ĠPlot":8050,"Ġuuid":8051,"tore":8052,"ĠOPER":8053,"Ġ28":8054,"ively":8055,"Ġlarger":8056,"curr":8057,"Ġclassify":8058,"Ġvs":8059,"013":8060,"047":8061,"ifica":8062,"Decode":8063,"callable":8064,"Ġpasswd":8065,"ULINE":8066,"tenv":8067,"Ġaccepted":8068,"==============":8069,"Ġlogin":8070,"ĠYEN":8071,"substit":8072,"mended":8073,"Ġinterpolation":8074,"ĠStat":8075,"SCULINE":8076,"xFB":8077,"xFC":8078,"stdlib":8079,"Ġsuitable":8080,"xDB":8081,"xDC":8082,"xDD":8083,"xAE":8084,"ushort":8085,"Proactor":8086,"ĠConstructor":8087,"ainer":8088,"ĠFORMS":8089,"boxplot":8090,"levels":8091,"urllib":8092,"Ġusually":8093,"Ġprocessor":8094,"struction":8095,"ĠDistutilsFileError":8096,"FFER":8097,"MININE":8098,"Division":8099,"Ġconsists":8100,"BUFFER":8101,"Ġseparated":8102,"platbase":8103,"cyg":8104,"ĠFEMININE":8105,"vcvarsall":8106,"={'":8107,"original":8108,"CONNE":8109,"ĠMASCULINE":8110,"LOCATION":8111,"ĠSVC":8112,"ulos":8113,"Neighbors":8114,"ĠQUARTERS":8115,"radient":8116,"ygon":8117,"Ġsymbol":8118,"Ġfrozenset":8119,"Ġcaptured":8120,"maintype":8121,"Ġutili":8122,"ĠTarInfo":8123,"Ġalternative":8124,"pilogue":8125,"Ġyielded":8126,"Ġactivation":8127,"INSTALL":8128,"Ġreached":8129,"nsupportedOperation":8130,"Summary":8131,"ĠtearDown":8132,"rillic":8133,"'*":8134,")?":8135,")**":8136,".)":8137,"BIAS":8138,"EW":8139,"Make":8140,"Main":8141,"PIRC":8142,"Table":8143,"Wh":8144,"`<":8145,"bs":8146,"bang":8147,"dup":8148,"ej":8149,"high":8150,"mtoff":8151,"ov":8152,"qx":8153,"runtime":8154,"similar":8155,"tstate":8156,"vm":8157,"watcher":8158,"yen":8159,"zas":8160,"Ã¨":8161,"Ð»":8162,"Ñĥ":8163,"Ġ],<":8164,"Ġroman":8165,"including":8166,"Ġtim":8167,"degree":8168,"lest":8169,"Ġclosing":8170,"Ġcirc":8171,"Ġpeg":8172,"Ġngf":8173,"ura":8174,"lave":8175,"ĠSoftware":8176,"ĠCall":8177,"river":8178,"unas":8179,"divide":8180,"atever":8181,"ĠAfter":8182,"mag":8183,"major":8184,"__.<":8185,"assemble":8186,"Ġhack":8187,"Ġhousing":8188,"ĠFali":8189,"ĠBlock":8190,"ĠPipe":8191,"ĠPick":8192,"ĠPCA":8193,"osx":8194,"nsitive":8195,"ĠEMPTY":8196,"Ġgrp":8197,"amma":8198,"dirManager":8199,"NDORS":8200,"Ġresolution":8201,"imports":8202,"ĠHAND":8203,"Ref":8204,"Ġlongest":8205,"Ġdocs":8206,"pax":8207,"Ġcomptype":8208,"nej":8209,"neural":8210,"ĠReplace":8211,"imation":8212,"popen":8213,"Ġpour":8214,"Ġpool":8215,"scriber":8216,"([<":8217,"figParser":8218,"VENDORS":8219,"Ġjump":8220,"STORE":8221,"notify":8222,"Connection":8223,"Ġlogical":8224,"Ġposix":8225,"Ġfeed":8226,"CTED":8227,"questHandler":8228,"astÄĻ":8229,"Ġstopwords":8230,"Ġindexes":8231,"phrase":8232,"locations":8233,"partition":8234,"1300":8235,"Select":8236,"Ġdebugger":8237,"xdc":8238,"Ġcallbacks":8239,"LIMIT":8240,"Ġstructures":8241,"Ġexecute":8242,"ĠToken":8243,"Ġgoing":8244,"ordinal":8245,"Ġescaped":8246,"Ġapprox":8247,"license":8248,"anyobject":8249,"Ġspam":8250,"integral":8251,"resizemode":8252,"Ġsuccessful":8253,"Statement":8254,"Ġspecifying":8255,"merge":8256,"Ð½Ð¸":8257,"blanks":8258,"Ġperformance":8259,"ĠROUND":8260,"Ġevalu":8261,"ABCDEF":8262,"Ġassigned":8263,"ĠSpecial":8264,"ĠBINPUT":8265,"processed":8266,"subplots":8267,"ĠStep":8268,"requency":8269,"PREFIX":8270,"ĠOPERATOR":8271,"PIRCCommand":8272,"ĠHANDLE":8273,".'''<":8274,"512":8275,">]<":8276,">'''<":8277,"BLOCK":8278,"BACK":8279,"CR":8280,"CONT":8281,"Dummy":8282,"New":8283,"Of":8284,"Tuple":8285,"Uno":8286,"We":8287,"await":8288,"aifc":8289,"bi":8290,"css":8291,"dont":8292,"dumb":8293,"eh":8294,"flatten":8295,"ginal":8296,"gnore":8297,"ktop":8298,"ug":8299,"xffff":8300,"ym":8301,"yper":8302,"Ġjo":8303,"Ġservice":8304,"inplace":8305,"reference":8306,"Ġ=================":8307,"lendar":8308,"Ġie":8309,"Ġcm":8310,"Ġcell":8311,"Ġfar":8312,"Ġflush":8313,"Ġftp":8314,"argest":8315,"Ġrefer":8316,"Ġincomplete":8317,"Ġincorrect":8318,"utput":8319,"uel":8320,"ĠScaling":8321,"liant":8322,"ĠCH":8323,"Ġdefines":8324,"ptr":8325,"ĠTLS":8326,"riv":8327,"rivate":8328,"unch":8329,"undef":8330,"Ġ\"#":8331,"Ġcoeff":8332,"master":8333,"chrome":8334,"__)":8335,"isnan":8336,"expr":8337,"Ġhref":8338,"elcome":8339,"izing":8340,"ĠWritten":8341,"ĠForm":8342,"ĠField":8343,"ĠPure":8344,"ĠPUT":8345,"tolist":8346,"Ġdataclass":8347,"Ġsear":8348,"Ġ21":8349,"Ġ2001":8350,"ami":8351,"Ġonto":8352,"Ġosname":8353,"product":8354,"solete":8355,"Ġaren":8356,"world":8357,"ISH":8358,"ISSING":8359,"cao":8360,"Ġprints":8361,"011":8362,"016":8363,"Inte":8364,"Install":8365,"pool":8366,"Ġsuppress":8367,"Ġ('__":8368,"Ġpotent":8369,"=\"#":8370,"ĠKe":8371,"Ġtexts":8372,"Construct":8373,"2219":8374,"cluded":8375,"buffering":8376,"Ġinteractive":8377,"OLS":8378,"Ġsymlinks":8379,"configure":8380,"UNIX":8381,"Ġtranslate":8382,"Ġextracted":8383,"mplementation":8384,"symlink":8385,"xxxx":8386,"Ġloading":8387,"OFF":8388,"topic":8389,"cvt":8390,"Ġpositionals":8391,"Ġcalendar":8392,"Ġinitialization":8393,"ighted":8394,"Ġalive":8395,"Ġrequested":8396,"ĠLookup":8397,"Ġupdates":8398,"Ġcached":8399,"ĠProtocol":8400,"Ġrot":8401,"Generate":8402,"Transform":8403,"Desktop":8404,"ĠClassifier":8405,"-------+":8406,"TempdirManager":8407,"fillcolor":8408,"Ġtriple":8409,"Ġpolygon":8410,"Ġmodifier":8411,"SMTPUTF":8412,"Ġproblems":8413,"staticmethod":8414,"Ġrecords":8415,"ĠAddressValueError":8416,"grees":8417,"ĠROOT":8418,"Ġvisible":8419,"priceUno":8420,"Modelo":8421,"Ġ'{}'":8422,"criterion":8423,"Ġrecommended":8424,"TIMEOUT":8425,"ĠDecisionTree":8426,"ĠSequenceMatcher":8427,"olynomial":8428,"chanis":8429,"cygwin":8430,"NeighborsClassifier":8431,")+":8432,")],":8433,".\"":8434,"1251":8435,"BOM":8436,"Clean":8437,"Dec":8438,"Dlg":8439,"EE":8440,"FN":8441,"HER":8442,"It":8443,"MIME":8444,"Mutable":8445,"Microsoft":8446,"Pop":8447,"Skip":8448,"TE":8449,"TEST":8450,"Use":8451,"Video":8452,"Zero":8453,"]['":8454,"clib":8455,"dle":8456,"dummy":8457,"frac":8458,"gl":8459,"glob":8460,"gzip":8461,"housing":8462,"iod":8463,"lit":8464,"mixed":8465,"qs":8466,"sparse":8467,"ÅĦ":8468,"Ġ90":8469,"ĠâĢ":8470,"sections":8471,"increment":8472,"rep":8473,"dead":8474,"delitem":8475,"Ġ'>":8476,"Ġfil":8477,"Ġfew":8478,"Ġrelevant":8479,"Ġnb":8480,"Ġnf":8481,"Ġnulos":8482,"Ġsilent":8483,"itize":8484,"Ġblo":8485,"Ġbatch":8486,"ĠbÅĤ":8487,"ĠbÄĻdzie":8488,"cour":8489,"Ġdevi":8490,"Ġdenominator":8491,"Ġmtime":8492,"INVAL":8493,"ann":8494,"announce":8495,"rites":8496,"('*":8497,"Ġhol":8498,"elnet":8499,"aborn":8500,"uming":8501,"ĠWrite":8502,"enc":8503,"ĠForest":8504,"ĠPh":8505,"Ġundo":8506,"--------<":8507,"circ":8508,"Ġanchor":8509,"Ġdataframe":8510,"Ġ*,<":8511,"ĠOK":8512,"Ġ2024":8513,"amble":8514,"opri":8515,"ĠURL":8516,"take":8517,"plus":8518,"ĠGHE":8519,"Release":8520,"Ġlzma":8521,"Ġva":8522,"Ġvotes":8523,"strchr":8524,"Ġnumerator":8525,"never":8526,"stribu":8527,"Ġsubstit":8528,"Ġsubsequent":8529,"numeric":8530,"Ġending":8531,"framesize":8532,"quiet":8533,"ACTION":8534,"LOG":8535,"loads":8536,"Ġmaybe":8537,"area":8538,"))[":8539,"Ġfuncname":8540,"Ġsuite":8541,"UNCTION":8542,"Projetado":8543,"sepal":8544,"ĠConfusion":8545,"xeb":8546,"Ġgrouping":8547,"Ġelemento":8548,"Ġrandomly":8549,"xcd":8550,"waitpid":8551,"Ġworkers":8552,"span":8553,"Ġindivid":8554,"regression":8555,"VERBOSE":8556,"difference":8557,"Ġrok":8558,"handlers":8559,"Ġrelated":8560,"Ġterminated":8561,"Ġterminator":8562,"ffffff":8563,"Ġinterpreted":8564,"Ġidentical":8565,"Ġidentify":8566,"Ġsrcdir":8567,"Ġfailures":8568,"Ġletter":8569,"ĠFileList":8570,"language":8571,"Ġsuccessfully":8572,"Ġassumed":8573,"Ġamong":8574,"IGNORECASE":8575,"Ġhappens":8576,"visible":8577,"Ġdifferences":8578,"expanduser":8579,"ycz":8580,"Ġctx":8581,"Ġswitch":8582,"ĠOverflowError":8583,"DocTest":8584,"Ġdeclar":8585,"Ġattempt":8586,"Build":8587,"scheduled":8588,"Ġfilas":8589,"ĠUpdate":8590,"customize":8591,"ÑĢÐ°":8592,"Ġurod":8593,"ĠSyntaxError":8594,"PHONE":8595,"Ġcertain":8596,"RIBUTE":8597,"HelpFormatter":8598,"Ġmsvcrt":8599,"MoreData":8600,"maphore":8601,"totype":8602,"\"%":8603,",)":8604,"020":8605,">\")<":8606,"Bad":8607,"Float":8608,"FIRST":8609,"GAL":8610,"Implements":8611,"MD":8612,"Multip":8613,"SK":8614,"Sign":8615,"Speci":8616,"Stop":8617,"TMP":8618,"TUPLE":8619,"[(":8620,"hdr":8621,"kmeans":8622,"pwd":8623,"winfo":8624,"xfa":8625,"Ġquestion":8626,"seed":8627,"orient":8628,"Ġ'[":8629,"Ġfore":8630,"Ġforest":8631,"Ġrect":8632,"Ġreuse":8633,"Ġreduce":8634,"Ġscale":8635,"Ġsamples":8636,"Ġsmtp":8637,"Ġbare":8638,"pet":8639,"could":8640,"Ġdeci":8641,"Ġwindows":8642,"Ġwatcher":8643,"lis":8644,"lips":8645,"otnet":8646,"anitize":8647,"pttos":8648,"mas":8649,"assembly":8650,"Ġnotice":8651,"kew":8652,"(''.":8653,"()\")<":8654,"Errors":8655,"ĠInd":8656,"Ġradi":8657,"abe":8658,"ĠWor":8659,"(\"-":8660,"ormode":8661,"constructor":8662,"ĠPlease":8663,"ĠEVENT":8664,"iguous":8665,"LEGAL":8666,"older":8667,"ety":8668,"ĠMon":8669,"Ġseq":8670,"Ġimportant":8671,"Ġalt":8672,"ops":8673,"ĠUt":8674,"2590":8675,"ARD":8676,"***":8677,"Ġrat":8678,"Ġlate":8679,"Ġunsafe":8680,"comps":8681,"Ġothers":8682,"Delete":8683,"Ġcurdir":8684,"Ġcollect":8685,"ĠExamples":8686,"ĠKernel":8687,"Ġacc":8688,"Ġaccount":8689,"Ġbreakpoints":8690,"ĠStr":8691,"ĠStart":8692,"begin":8693,"xbc":8694,"doctest":8695,"Ġcontinuation":8696,"Ġfinished":8697,"Ġstops":8698,"what":8699,"Ġmanip":8700,"Ġsupply":8701,"topics":8702,"Ġ...]":8703,"ĠKeyboardInterrupt":8704,"download":8705,"HeaderError":8706,"Ġ{}\".":8707,"Ġsslcontext":8708,"Ġindents":8709,"PARAM":8710,"mkpath":8711,"specified":8712,"Ġdescribed":8713,"Ġsuffixes":8714,"MICSF":8715,"Iterator":8716,"DOWN":8717,"99999999":8718,"SHORT":8719,"Ġpoll":8720,"Ġpeut":8721,"ĠHere":8722,"quential":8723,"Ġcomparisons":8724,"legal":8725,"ĠSystemExit":8726,"Runner":8727,"Ġauthentication":8728,"Ġpriority":8729,"Ġduplicate":8730,"alidation":8731,"ĠHOOK":8732,"Ġretrieve":8733,"Ġasynchronous":8734,"Ġ'{}'\".":8735,"MICSFT":8736,"\"],":8737,"'-":8738,"Ad":8739,"BSD":8740,"Fe":8741,"FLO":8742,"GNU":8743,"HALF":8744,"Mail":8745,"NNTP":8746,"Pegasos":8747,"Raise":8748,"SIG":8749,"Ter":8750,"both":8751,"dtypes":8752,"jonal":8753,"mc":8754,"none":8755,"oid":8756,"tilt":8757,"umented":8758,"vs":8759,"wit":8760,"xed":8761,"ziÅĤ":8762,"ëį":8763,"íĸ":8764,"ĠER":8765,"ĥĿ":8766,"selected":8767,"incomePoverty":8768,"reply":8769,"Ġtmsg":8770,"Ġtensor":8771,"dep":8772,"decompressor":8773,"Ġaway":8774,"Ġign":8775,"Ġcr":8776,"memory":8777,"aring":8778,"Ġpow":8779,"Ġpbar":8780,"Ġnor":8781,"\"\"<":8782,"ndor":8783,"Ġslashes":8784,"ĠLog":8785,"ĠLice":8786,"Ġinf":8787,"Ġintended":8788,"rok":8789,"roll":8790,"ssible":8791,"Ġdecoding":8792,"lopen":8793,"Ġdlib":8794,"Ġmro":8795,"Ġmiesiac":8796,"ĠSARA":8797,"ALERT":8798,"ĠNum":8799,"ĠAIX":8800,"ĠAbstract":8801,"Ġ\"\"\"\\<":8802,"__')<":8803,"filedate":8804,"Ġhit":8805,"Ġconstruct":8806,"ensemble":8807,"edge":8808,"Ġarreg":8809,"Ġarticle":8810,"constants":8811,"ĠES":8812,"ignored":8813,"LENG":8814,"buff":8815,"RES":8816,"Ġmechanis":8817,"Ġ*=":8818,"ĠModel":8819,"ĠMax":8820,"ysroot":8821,"andar":8822,"Ġyes":8823,"Ġalgo":8824,"ĠUSER":8825,"2564":8826,"importer":8827,"pypi":8828,"irds":8829,"Reps":8830,"Ġlin":8831,"Ġliter":8832,"Ġxe":8833,"strftime":8834,"versions":8835,"037":8836,"backward":8837,"0192":8838,"Ġcanv":8839,"Ġkeyed":8840,"../":8841,"ĠDetection":8842,"ibilities":8843,"ocation":8844,"ĠKMe":8845,"Contain":8846,"Ġworry":8847,"netrc":8848,"weet":8849,"Ġfaster":8850,"Ġinterfaces":8851,"2552":8852,"2553":8853,"2555":8854,"2556":8855,"2558":8856,"2559":8857,"Ġdisp":8858,"ncer":8859,"forever":8860,"2561":8861,"2562":8862,"2565":8863,"2567":8864,"2568":8865,"Ġspecification":8866,"ousands":8867,"Ġfinite":8868,"Ġadjust":8869,"ĠContext":8870,"xea":8871,"xee":8872,"xef":8873,"Ġfollows":8874,"tric":8875,"Ġminimum":8876,"ĠJust":8877,"showinfo":8878,"Ġstride":8879,"Ġrealname":8880,"Ġ{}'.":8881,"Ġconsider":8882,"Ġindentation":8883,"venience":8884,"Ġorigin":8885,"ĠISO":8886,"BUILD":8887,"termine":8888,"ĠArgumentDescriptor":8889,"Ġdatum":8890,"Ġhandshake":8891,"Transfer":8892,"capabilities":8893,"Ġwinreg":8894,"ĠImageTk":8895,"grams":8896,"padding":8897,"hinge":8898,"nbsp":8899,"Ġpoly":8900,"Login":8901,"ouseReps":8902,"Ġcontrols":8903,"ĠColumn":8904,"Ġchoices":8905,"::/":8906,"Ġinherited":8907,"Ġexecuting":8908,"COUN":8909,"mantics":8910,"treino":8911,"Ġmicrosecond":8912,"ĠTimeout":8913,"continue":8914,"Ġcaught":8915,"Ġnombre":8916,">#------------------<":8917,"scaled":8918,"ĠNeedMoreData":8919,"Ġfigure":8920,"Ġrecognized":8921,"mocjonal":8922,"Alias":8923,"uncPtr":8924,"possibly":8925,"Ġwindll":8926,"substitutes":8927,"yenne":8928,"astÄĻp":8929,"cvtColor":8930,"Transformer":8931,"ĠbÅĤÄĻd":8932,"circle":8933,"lipsis":8934,"Teraz":8935,"ziÅĤeÅĽ":8936,"íĸī":8937,"LENGTH":8938,"/.":8939,"125":8940,"820":8941,"=?":8942,"??":8943,"CANCEL":8944,"CFLAGS":8945,"DOT":8946,"GEN":8947,"Getopt":8948,"IES":8949,"Ke":8950,"Pattern":8951,"RY":8952,"Raw":8953,"SRE":8954,"WOR":8955,"bag":8956,"cript":8957,"epends":8958,"gan":8959,"hc":8960,"haps":8961,"ilobj":8962,"kl":8963,"ming":8964,"nes":8965,"nest":8966,"pus":8967,"pirc":8968,"rw":8969,"was":8970,"yl":8971,"yu":8972,"yes":8973,"})":8974,"sect":8975,"Ġtaking":8976,"deque":8977,"Ġ=================================":8978,"started":8979,"Ġahi":8980,"helper":8981,"Ġcut":8982,"Ġcandidate":8983,"ality":8984,"Ġeof":8985,"Ġbind":8986,"Ġbhi":8987,"Ġincre":8988,"Ġdu":8989,"utcoffset":8990,"Ġmix":8991,"INISH":8992,"ĠCre":8993,"ĠCode":8994,"ĠComple":8995,"ĠĠĠĠĠĠĠĠĠĠĠĠĠĠĠĠĠĠĠĠĠĠĠĠĠĠĠĠĠĠĠĠĠĠĠĠĠĠĠĠĠĠĠĠ":8996,"cking":8997,"ĠNet":8998,"ilation":8999,"ĠAF":9000,"islink":9001,"Ġextend":9002,"setdefault":9003,"(\"#":9004,"ĠFeb":9005,"defect":9006,"ĠBytes":9007,"ĠBroken":9008,"resu":9009,"ĠPOP":9010,"ĠEl":9011,"oll":9012,"olume":9013,"etc":9014,"classify":9015,"pread":9016,"ysical":9017,"Ġ22":9018,"aming":9019,"readbuffer":9020,"libname":9021,"['__":9022,"ĠGaussian":9023,"pypirc":9024,"Ġprototype":9025,"ARN":9026,"Ġgettext":9027,"ĠThey":9028,"Ġwhatever":9029,"Ġln":9030,"parsed":9031,"creating":9032,"[:],":9033,"posed":9034,"poses":9035,"actual":9036,"bootstrap":9037,"Ġ48":9038,"Ġaccur":9039,"ĠYEH":9040,"generic":9041,"Ġ53":9042,"321":9043,"Ġsuc":9044,"ĠINTER":9045,"Ġtransfer":9046,"Ġservers":9047,"Ġnonzero":9048,"sym":9049,"debuglevel":9050,"Ġadv":9051,"xae":9052,"ĠArg":9053,"ogle":9054,"Ġminor":9055,"abcd":9056,"Ġbuilds":9057,"ĠREAD":9058,"srcdir":9059,"Ġcolumna":9060,"Ġpipeline":9061,"anging":9062,"escaped":9063,"disposition":9064,"Ġoctets":9065,"Ġqs":9066,"Ġrestore":9067,"lapse":9068,"Ġmetaclass":9069,"Ġfixes":9070,"0393":9071,"0398":9072,"spaces":9073,"Ġprivate":9074,"ĠUNIX":9075,"Tempus":9076,"DOUT":9077,"Point":9078,"Policy":9079,"CONN":9080,"Ġoperands":9081,"Ġdetection":9082,"selectbox":9083,"identity":9084,"aligned":9085,"squared":9086,"Ġcertificate":9087,"\\.\\":9088,"ĠNameError":9089,"////////////////////////////////":9090,"Ġearlier":9091,"Shape":9092,"ĠMatches":9093,"Ġhistory":9094,"MAPPING":9095,"Ġlowercase":9096,"viding":9097,"Ġsmaller":9098,"Ġsmallest":9099,"estimator":9100,"estimators":9101,"ĠRandomForestRegressor":9102,"EncodeError":9103,"compatible":9104,"Photo":9105,"Ġapplicable":9106,"MANIFEST":9107,"Ġlayer":9108,"rotate":9109,"ĠITC":9110,"Ġscipy":9111,"Ġindividual":9112,"WORK":9113,"PhotoImage":9114,")}":9115,"/%":9116,"2004":9117,":`":9118,"Ap":9119,"At":9120,"Batch":9121,"BYT":9122,"CUR":9123,"Copy":9124,"ECD":9125,"Fatal":9126,"FROM":9127,"Part":9128,"POL":9129,"Position":9130,"Race":9131,"Sex":9132,"Tx":9133,"Window":9134,"apture":9135,"acies":9136,"bly":9137,"cut":9138,"fname":9139,"fsencode":9140,"hind":9141,"pw":9142,"pow":9143,"ponent":9144,"qp":9145,"sb":9146,"tls":9147,"wi":9148,"water":9149,"xor":9150,"xca":9151,"yout":9152,"ining":9153,"infile":9154,"remote":9155,"reserved":9156,"oriz":9157,"oraise":9158,"dency":9159,"leccion":9160,"Ġfact":9161,"Ġflask":9162,"arDown":9163,"tearDown":9164,"Ġplay":9165,"Ġpegasos":9166,"Ġpunctuation":9167,"Ġrep":9168,"Ġrecursion":9169,"Ġnframes":9170,"Ġeuc":9171,"ĠLONG":9172,"Ġdepen":9173,"Ġdevice":9174,"Ġwyn":9175,"geome":9176,"losc":9177,"locate":9178,"Ġdue":9179,"Ġdos":9180,"utures":9181,"ERA":9182,"ĠSET":9183,"iles":9184,"liers":9185,"Ġ\"+":9186,"Ġ\")<":9187,"ĠNetwork":9188,"------<":9189,"mai":9190,"Ġ\"\"\")<":9191,"setUp":9192,"getline":9193,"();":9194,"()),":9195,"fifo":9196,"Ġhuman":9197,"elt":9198,"Ġ+--------":9199,"izers":9200,"izycz":9201,"ĠFOR":9202,"=='":9203,"Ġdistribu":9204,"ĠBar":9205,"ĠBack":9206,"ĠEL":9207,"ĠEU":9208,"----------<":9209,"cial":9210,"cipi":9211,"REG":9212,"Ġ*.":9213,"Ġgcc":9214,"owns":9215,"operator":9216,"opcodes":9217,"outfile":9218,"Ġchr":9219,"proactor":9220,"ĠThen":9221,"Ġwhite":9222,"Recognition":9223,"assertFalse":9224,"Ġvc":9225,"ĠXI":9226,"HTTP":9227,"cret":9228,"timedelta":9229,"Ġprinting":9230,"],[":9231,"imated":9232,"HASH":9233,"Ġsubpart":9234,"Stat":9235,"pired":9236,"Ġjak":9237,"START":9238,"Ġints":9239,"Ġ@_":9240,"ĠKNN":9241,"Ġshare":9242,"Ġmodes":9243,"Ġshouldn":9244,"weighted":9245,"Ġfast":9246,"appop":9247,"Ġinterval":9248,"Ġsynch":9249,"Ġdisposition":9250,"longdouble":9251,"login":9252,"Ġdocstrings":9253,"Ġperformed":9254,"Ġscandir":9255,"EXEC":9256,"Ġsignals":9257,"ĠSelect":9258,"Ġquant":9259,"Ġminim":9260,"matcher":9261,"matching":9262,"currentLine":9263,"XXX":9264,"Ġcompletion":9265,"AMERA":9266,"crop":9267,"threads":9268,"Ġinitializer":9269,"variable":9270,"Struct":9271,"shortcmd":9272,"Ġseems":9273,"Ġoctet":9274,"Ġnormally":9275,"ĠSUPPRESS":9276,"Interface":9277,"Ġreplacement":9278,"Ġinstaller":9279,"saved":9280,"Ġpopulation":9281,"ĠUnicodeEncodeError":9282,"Ġdaemon":9283,"dumps":9284,"ĠìĿ":9285,"Channel":9286,"LOCALE":9287,"sented":9288,"uplicate":9289,"Perceptron":9290,"Ġoccurrence":9291,"Ġuniform":9292,"Ġdbm":9293,"Ġphrase":9294,"altsep":9295,"Ġpickling":9296,"aceRecognition":9297,"maintainer":9298,"Locations":9299,"Sendfile":9300,"ĠRandomForestClassifier":9301,"Mixin":9302,"predictors":9303,"Ġproduces":9304,"Ġcoordinates":9305,"Created":9306,"criminator":9307,"ĠSignature":9308,"ĠFoundation":9309,"ĠGridSearch":9310,"Archive":9311,"ruptedError":9312,"=======+":9313,"MAGIC":9314,"MOST":9315,"itude":9316,"CANCELLED":9317,"INISHED":9318,"SexRace":9319,"cipient":9320,"\"],<":9321,"'+":9322,"650":9323,"AIN":9324,"AST":9325,"BAD":9326,"CLE":9327,"CHA":9328,"HH":9329,"JUST":9330,"Missing":9331,"PRI":9332,"SY":9333,"TYPES":9334,"VC":9335,"WER":9336,"XML":9337,"You":9338,"^^":9339,"_%":9340,"bat":9341,"hidden":9342,"ji":9343,"mul":9344,"mous":9345,"margin":9346,"rpath":9347,"sre":9348,"torch":9349,"xda":9350,"}\\":9351,"}{":9352,"}',<":9353,"æķ":9354,"Ġ)":9355,"Ġ:<":9356,"ĠÃ©":9357,"repe":9358,"Ġtf":9359,"Ġtty":9360,"oratory":9361,"attach":9362,"leader":9363,"lfrom":9364,"lfiles":9365,"mend":9366,"allen":9367,"Ġfloor":9368,"Ġnice":9369,"urther":9370,"ĠLink":9371,"ĠLIST":9372,"ĠLike":9373,"ĠLZMA":9374,"coun":9375,"Ġdeque":9376,"Ġdeepcopy":9377,"Ġwild":9378,"Ġmer":9379,"Ġmatter":9380,"ĠSW":9381,"ĠScore":9382,"lian":9383,"ĠCalled":9384,"ancia":9385,"ptime":9386,"ĠTask":9387,"Ġtodo":9388,"added":9389,"though":9390,"machinery":9391,"channels":9392,"Ġexceed":9393,"getframe":9394,"exes":9395,"Ġthird":9396,"els":9397,"Ġconvent":9398,"ĠWh":9399,"ALLBACK":9400,"Ġdivide":9401,"Ġ[%":9402,"ĠPATH":9403,"eting":9404,"Ġanal":9405,"ĠOb":9406,"Ġgid":9407,"ĠMar":9408,"Ġsemantics":9409,"Ġalong":9410,"Ġalphabet":9411,"['_":9412,"pyfile":9413,"Ġproviding":9414,"scr":9415,"scheme":9416,"Ġeng":9417,"Ġenabled":9418,"Ġchosen":9419,"program":9420,"**<":9421,"Ġrargs":9422,"Ġrpm":9423,"Ġunit":9424,"Ġuncompressed":9425,"matches":9426,"curity":9427,"modified":9428,"placing":9429,"nections":9430,"charbuffer":9431,"Ġlaw":9432,"Ġneither":9433,"positive":9434,"Ġ('-":9435,"byref":9436,"calcsize":9437,"Ġsubset":9438,"Ġatom":9439,"daemon":9440,"ardless":9441,"Ġ41":9442,"DEP":9443,"DEV":9444,"IPv":9445,"ocp":9446,"ĠKAF":9447,"2248":9448,"Ġendtime":9449,"UMENT":9450,"SEND":9451,"rown":9452,"207":9453,"calendar":9454,"headerlen":9455,"URL":9456,"Ġscan":9457,"Ġstreams":9458,"POWER":9459,"Ġiterate":9460,"Ġfinder":9461,"startpos":9462,"Ġsignifica":9463,"xaf":9464,"Ġbackslash":9465,"ĠWeak":9466,"Ġhelpful":9467,"Ġworker":9468,"agraph":9469,"linkname":9470,"exceptions":9471,"makeSuite":9472,"skipIf":9473,"addrinfo":9474,"Section":9475,"wraps":9476,"2312":9477,"Ġordering":9478,"'''":9479,"ĠDistutilsSetupError":9480,"Sets":9481,"Ġcompilers":9482,"Ġ{},":9483,"Ġskipped":9484,"Ġssldata":9485,"=[]):<":9486,"ianStructure":9487,"Ġsteps":9488,"Ġhowever":9489,"hashcode":9490,"chunksize":9491,"2018":9492,"Ġgoes":9493,"ĠALMOST":9494,"Ġtypically":9495,"DICT":9496,"ĠSMTPChannel":9497,"ĠInterruptedError":9498,"StringIO":9499,"ProcessError":9500,"ĠAllow":9501,"Ġseekable":9502,"EndianStructure":9503,"registered":9504,"Ġrecursively":9505,"ĠParser":9506,"universal":9507,"metaclass":9508,"Ġhigher":9509,"somecode":9510,"tzname":9511,"engine":9512,"onymous":9513,"aliases":9514,"ArgumentParser":9515,"Ġlocated":9516,"Ġdefinitions":9517,"WorkRep":9518,"Ġlexer":9519,"inspect":9520,"DIGITS":9521,"UNCFLAG":9522,"HANDLE":9523,"TemporaryFile":9524,"CONNECTED":9525,"Ġsearched":9526,"Ġratio":9527,")',<":9528,")}<":9529,"/'<":9530,"02261":9531,"101":9532,"180":9533,"={}":9534,">|":9535,"ASS":9536,"Access":9537,"CLO":9538,"Empty":9539,"EOF":9540,"Fa":9541,"FRA":9542,"Long":9543,"Min":9544,"Mon":9545,"NA":9546,"RU":9547,"Sile":9548,"Split":9549,"Store":9550,"Target":9551,"]\"),<":9552,"aive":9553,"auth":9554,"bet":9555,"btn":9556,"clas":9557,"dl":9558,"fed":9559,"fetch":9560,"gv":9561,"highest":9562,"jÄħ":9563,"kat":9564,"rs":9565,"ront":9566,"rfind":9567,"spy":9568,"sanitize":9569,"udio":9570,"watch":9571,"wik":9572,"xit":9573,"xce":9574,"ë¦":9575,"ìĬ":9576,"incoming":9577,"rewards":9578,"orage":9579,"stre":9580,"Ġ'',<":9581,"Ġcle":9582,"Ġcast":9583,"Ġcfg":9584,"Ġczas":9585,"mesg":9586,"always":9587,"Ġfront":9588,"arfactor":9589,"Ġpix":9590,"Ġreceive":9591,"Ġnbytes":9592,"Ġod":9593,"Ġscope":9594,"ĠLet":9595,"ractal":9596,"itor":9597,"Ġbird":9598,"Ġbaz":9599,"ĠincomePoverty":9600,"cooked":9601,"Ġdev":9602,"Ġdzie":9603,"Ġmargin":9604,"ERATOR":9605,"ĠTS":9606,"disc":9607,"dialog":9608,"atexit":9609,"three":9610,"Ġcomma":9611,"Ġcoefficient":9612,"ĠApp":9613,"__':":9614,"asyn":9615,"isabs":9616,"isysroot":9617,"upload":9618,"Ġthink":9619,"()',":9620,"Ġrand":9621,"ised":9622,"Ġcontained":9623,"Ġconfidence":9624,"Ġconnections":9625,"ĠWar":9626,"coded":9627,"\",#":9628,"resample":9629,"ĠPolynomial":9630,"apk":9631,"ased":9632,"ĠEmpty":9633,"toB":9634,"traces":9635,"RAY":9636,"classification":9637,"Ġbyref":9638,"ĠMH":9639,"owling":9640,"Ġseaborn":9641,"Ġimports":9642,">>>":9643,"INGET":9644,"ived":9645,"Ġsoon":9646,"ĠVS":9647,"accs":9648,"produ":9649,"Ġpreferred":9650,"attributes":9651,"ILINE":9652,"**-":9653,"Ġrfc":9654,"Ġlatter":9655,"Ġlargest":9656,"Ġuname":9657,"matplotlib":9658,"Ġpast":9659,"014":9660,"Ġwhenever":9661,"locks":9662,"maps":9663,"calc":9664,"Ġsubmodule":9665,"')])<":9666,"daily":9667,"Ġdirection":9668,"ĠInitialize":9669,"Ġupload":9670,"ĠKA":9671,"tiny":9672,"umption":9673,"224":9674,"Ġaccum":9675,"fork":9676,"reeBSD":9677,"Ġfailobj":9678,"limited":9679,"sentiment":9680,"Ġsynt":9681,"Ġwake":9682,"ontal":9683,"Ġcounty":9684,"UNNING":9685,"ADJUST":9686,"rawdata":9687,"explicit":9688,"Ġcommodity":9689,"refcount":9690,"locity":9691,"xcb":9692,"345678":9693,"player":9694,"ĠREPORT":9695,"Ġclosest":9696,"super":9697,"Ġcapt":9698,"popular":9699,"compresslevel":9700,"realpath":9701,"3333":9702,"Ġwrapping":9703,"Ġ{})<":9704,"ULTILINE":9705,"numbers":9706,"firstweekday":9707,"Interpolation":9708,"2019":9709,"alendar":9710,"success":9711,"gingSile":9712,"ĠEXT":9713,"('.')":9714,"ĠSSLContext":9715,"ickness":9716,"Ã³w":9717,"Ġdetail":9718,"DOING":9719,"('/')<":9720,"Response":9721,"zyst":9722,"EndArchive":9723,"Ġtells":9724,"qdn":9725,">################################################################################":9726,"Å¼y":9727,"Ġreviews":9728,"Ġtreat":9729,"Ġbarrier":9730,"[^\\":9731,"Ġmaintype":9732,"Ġmaintain":9733,"msvccompiler":9734,"Ġë³":9735,"Ġasyncio":9736,"Ġprogress":9737,"consume":9738,"Ġconsumed":9739,"SUPPORTED":9740,"Ġduplicates":9741,"Ġinstantiate":9742,"quantize":9743,"Ġprofiler":9744,"CORP":9745,"Ġideal":9746,"________________":9747,"ĠMaildir":9748,"Ġinvoke":9749,"lawEmp":9750,"Ġroutine":9751,"WAIT":9752,"GenericAlias":9753,"LANK":9754,"Ġkept":9755,"Ġolder":9756,"ATTRIBUTE":9757,"ĠMethods":9758,"Original":9759,"ktualna":9760,"hello":9761,"Ġsentence":9762,"Ġinternally":9763,"ĠurodziÅĤeÅĽ":9764,"petal":9765,"Ġmechanism":9766,"andardi":9767,"astÄĻpny":9768,"Ġwynik":9769,"geometry":9770,"FRAME":9771,"ìĬ¤":9772,"cookedq":9773,"ĠdzieÅĦ":9774,"ADJUSTMENT":9775,"gingSilencer":9776,"!)":9777,"$)":9778,"'(?":9779,",),":9780,"203":9781,">')<":9782,"App":9783,"BLANK":9784,"CancelledError":9785,"CHECK":9786,"DAT":9787,"Emin":9788,"FMT":9789,"KG":9790,"OVER":9791,"Plist":9792,"SUB":9793,"TW":9794,"]'<":9795,"afe":9796,"available":9797,"cxx":9798,"gu":9799,"hk":9800,"hsv":9801,"hqx":9802,"ior":9803,"jpeg":9804,"lstat":9805,"nbytes":9806,"qname":9807,"slashes":9808,"ulian":9809,"xbe":9810,"zlib":9811,"Ġys":9812,"Ġlimits":9813,"reversed":9814,"decision":9815,"Ġalo":9816,"leep":9817,"Ġiris":9818,"hether":9819,"Ġcfile":9820,"Ġfrac":9821,"Ġregression":9822,"Ġreported":9823,"urg":9824,"Ġsvm":9825,"ĠLP":9826,"Ġinfinity":9827,"cend":9828,"rout":9829,"Ġdylib":9830,"ĠTfidf":9831,"under":9832,"unless":9833,"orth":9834,"ĠNon":9835,"Ġcover":9836,"ully":9837,"__):<":9838,"()`":9839,"()),<":9840,"()).":9841,"serted":9842,"Ġhdr":9843,"abyl":9844,"Ġdia":9845,"ĠBdb":9846,"ĠBETA":9847,"ĠBotnet":9848,"Ġ['.":9849,"confusion":9850,"rescale":9851,"resolution":9852,"Ġuid":9853,"preprocess":9854,"prerelease":9855,"Ġgar":9856,"ĠMer":9857,"Ġsense":9858,"amos":9859,"amera":9860,"tail":9861,"ĠVer":9862,"__(*":9863,"Ġgetting":9864,"Ġargval":9865,"Reset":9866,"Ġrnd":9867,"Ġlnum":9868,"Ġunpickling":9869,"Ġfuncs":9870,"pager":9871,"Ġvm":9872,"[::-":9873,"attrtext":9874,"omme":9875,"Ġ('',":9876,"minor":9877,"Ġsubparts":9878,"Ġsubdirectories":9879,"othing":9880,"Stack":9881,"validation":9882,"STDOUT":9883,"Ġ400":9884,"ĠExpected":9885,"octet":9886,"Ġfunctionality":9887,"splitdrive":9888,"Ġacross":9889,"Ġacquired":9890,"Ġmodelo":9891,"Ġanyway":9892,"ĠYA":9893,"ĠYI":9894,"subdir":9895,"ACCEP":9896,"Ġ'.'<":9897,"limbo":9898,"Ġbreaks":9899,"Ġappending":9900,"Ġopening":9901,"msgout":9902,"xFE":9903,"xFF":9904,"comments":9905,"Ġgenerally":9906,"vail":9907,"xbf":9908,"Ġextras":9909,"Ġoverlapped":9910,"Ġmodels":9911,"ĠConnection":9912,"Ġprefixes":9913,"Ġquite":9914,"Ġdicts":9915,"Ġrepresentable":9916,"Ġcopying":9917,"extracted":9918,"Ġlinkage":9919,"tokenize":9920,"ESSAGE":9921,"Ġarchitecture":9922,"ĠOptionParser":9923,"Dire":9924,"Ġmarks":9925,"ĠLook":9926,"disable":9927,"Ġtransports":9928,"Ġlocked":9929,"Ġrounded":9930,"ordering":9931,"Ġdestroy":9932,"Ġhashable":9933,"Ġdirective":9934,"Ġ---------------------------------------------":9935,"Ġletters":9936,"describe":9937,"ĠInterpolation":9938,"unicodestring":9939,"Ġcentral":9940,"gztar":9941,"Ġphase":9942,"ĠPerform":9943,"Ġtransforms":9944,"english":9945,"Ġconditions":9946,"client":9947,"Ġreasons":9948,"Ġpurposes":9949,"Ġcalculate":9950,"ĠTarFile":9951,"ĠValues":9952,"Ġscheduled":9953,"shell":9954,"Ġidea":9955,"Ġmicroseconds":9956,"Ġbecomes":9957,"Ġinvoked":9958,"Ġkwonlyargs":9959,"Ġmiddle":9960,"ĠINFIN":9961,"FunctionType":9962,"todo":9963,"Ġmarked":9964,"Password":9965,"ĠEnglish":9966,"Ġsoftware":9967,"record":9968,"White":9969,"ĠBlockingIOError":9970,"ĠLookupError":9971,"Ġsilently":9972,"court":9973,"ĠNumPy":9974,"ĠGridSearchCV":9975,"æķ°":9976,"countered":9977,"Ġsignificant":9978,"discard":9979,"ACCEPT":9980,".],<":9981,"384":9982,"700":9983,">,":9984,">\"<":9985,"Ads":9986,"Broadcast":9987,"CL":9988,"Cate":9989,"Calendar":9990,"EEM":9991,"FIL":9992,"FUT":9993,"Flags":9994,"Hot":9995,"High":9996,"IMAP":9997,"Ljava":9998,"Pos":9999,"RD":10000,"Ro":10001,"Ts":10002,"][:":10003,"alf":10004,"aque":10005,"aiter":10006,"cn":10007,"cwrite":10008,"cnn":10009,"efs":10010,"fil":10011,"gr":10012,"lled":10013,"mid":10014,"miesiac":10015,"sz":10016,"sound":10017,"tw":10018,"zA":10019,"zing":10020,"}\",":10021,"±ìĬ¤":10022,"¸ëį":10023,"Ġ]":10024,"Ġment":10025,"Ġê°":10026,"Īĺ":10027,"inher":10028,"rev":10029,"reward":10030,"Ġtstr":10031,"ond":10032,"star":10033,"eration":10034,"Ġcla":10035,"Ġcwd":10036,"met":10037,"alth":10038,"tect":10039,"Ġpor":10040,"Ġpdict":10041,"Ġrepre":10042,"Ġreward":10043,"Ġreply":10044,"Ġndf":10045,"Ġeol":10046,"ndf":10047,"Ġsn":10048,"Ġsurro":10049,"rab":10050,"lake":10051,"Ġws":10052,"Ġwrites":10053,"Ġdany":10054,"ERU":10055,"lica":10056,"ĠCHE":10057,"###":10058,"anc":10059,"ĠTSE":10060,"rip":10061,"units":10062,"unemployment":10063,"ĠNL":10064,"through":10065,"__',<":10066,"settrace":10067,"ĠInt":10068,"Ġhighest":10069,"Ġconj":10070,"Ġconcaten":10071,"ĠWait":10072,"ense":10073,"ĠFrom":10074,"ĠFunctions":10075,"nsamples":10076,"Ġlepi":10077,"ĠEF":10078,"ĠELL":10079,"tover":10080,"etSocket":10081,"REQU":10082,"Ġgain":10083,"ages":10084,"Ġseps":10085,"Ġserial":10086,"ĠUnet":10087,"ĠUKRAINIAN":10088,"outline":10089,"ĠVE":10090,"ĠVec":10091,"icle":10092,"ĠGiven":10093,"Ġproxy":10094,"scan":10095,"ĠHARD":10096,"Ġencountered":10097,"percent":10098,"projetado":10099,"Ġpreds":10100,"Ġpreview":10101,"Ġpretty":10102,"Register":10103,"ReLU":10104,"RequestHandler":10105,"atty":10106,"Ġune":10107,"Ġunemployment":10108,"curse":10109,"curacies":10110,"parsing":10111,"Ġliste":10112,"Ġpause":10113,"ĠBOM":10114,"Ġkol":10115,"InetSocket":10116,"near":10117,"ĠReal":10118,"ĠReading":10119,"Ġoutcome":10120,"Ġmodulename":10121,"Ġ('_":10122,"Ġreads":10123,"Ġreadinto":10124,"ĠĠĠĠĠĠĠĠĠĠĠĠĠĠĠĠĠĠĠĠĠĠĠĠĠĠĠĠĠĠĠĠĠĠĠĠĠĠĠĠĠĠĠĠĠĠĠĠĠĠĠĠĠĠĠĠĠĠĠĠĠĠĠĠĠĠĠĠĠ":10125,"Ġstrchr":10126,"rouped":10127,"Std":10128,"ULAW":10129,"ĠExp":10130,"ĠInst":10131,"ĠInstance":10132,"Ġendpos":10133,"Ġendian":10134,"ĠYERU":10135,"loadSize":10136,"statement":10137,"Ġdisable":10138,"longcmd":10139,"transforms":10140,"below":10141,"ĠZE":10142,"ĠZHE":10143,"))?":10144,"Ġpermitted":10145,"Ġspecifier":10146,"Ġwriteframes":10147,"Environ":10148,"ĠUnder":10149,"Ġhook":10150,"voie":10151,"ĠContact":10152,"Ġtherefore":10153,"################################################":10154,"Ġstopping":10155,"Ġimplementing":10156,"installation":10157,"Ġminus":10158,"Ġglobalns":10159,"spacing":10160,"Ġverify":10161,"cancer":10162,"structions":10163,"Ġpyversion":10164,"centroids":10165,"There":10166,"ĠSHCHA":10167,"Ġ\"\".":10168,"Dictionary":10169,"management":10170,"writable":10171,"Named":10172,"dented":10173,"Ġmapped":10174,"zenia":10175,"detector":10176,"trl":10177,"Ġregardless":10178,"ragment":10179,"Ġinvalidation":10180,"Ġnodes":10181,"obile":10182,"ĠClassVar":10183,"ctoi":10184,"Ġcolumnas":10185,"Ġtrig":10186,"Ġtrick":10187,"Ġbrowsers":10188,"Ġfillchar":10189,"flip":10190,"grad":10191,"LOCAL":10192,"Pipeline":10193,"Ġsimilarity":10194,"ĠParse":10195,"ĠReadError":10196,"Disp":10197,"needs":10198,"ARGUMENT":10199,"oost":10200,"Ġdelimiters":10201,"Ġpeer":10202,"Ġpacked":10203,"Subprocess":10204,"Ġrepeated":10205,"resources":10206,"ĠPermission":10207,"Ġproperly":10208,"âĢ¢":10209,"msvcr":10210,"Ġinserts":10211,"######<":10212,"Ġpencolor":10213,"Ġalignment":10214,"accessor":10215,"ĠMyCallback":10216,"rictVersion":10217,"Description":10218,"Callable":10219,"peername":10220,"##############<":10221,"Ġroutines":10222,"ĠSimpleImputer":10223,"Ġexpansion":10224,"canvwidth":10225,"Ġresolved":10226,"ĠOneHot":10227,"Ġwyk":10228,"ĠServer":10229,"Ġresponses":10230,"STATUS":10231,"runcated":10232,"PixModel":10233,"italize":10234,"Ġapproximation":10235,"ĠKeep":10236,"ĠDecisionTreeClassifier":10237,"Multipart":10238,"lished":10239,"Ġignoring":10240,"strerror":10241,">################################################################################<":10242,"¸ëį±ìĬ¤":10243,"Ġdanych":10244,"Ġlepiej":10245,"ĠOneHotEncoder":10246,"+)":10247,"=\\":10248,"Body":10249,"CRC":10250,"DC":10251,"Do":10252,"GU":10253,"Max":10254,"MULTILINE":10255,"Non":10256,"Ob":10257,"Package":10258,"RFC":10259,"RGB":10260,"Traceback":10261,"Your":10262,"Za":10263,"]),<":10264,"bzip":10265,"cnt":10266,"dition":10267,"fancy":10268,"gon":10269,"grc":10270,"glu":10271,"iate":10272,"mor":10273,"pas":10274,"sl":10275,"sur":10276,"sci":10277,"tick":10278,"uary":10279,"vil":10280,"xdb":10281,"Ġul":10282,"Ġvent":10283,"sensitive":10284,"reden":10285,"Ġttype":10286,"Ġtruncate":10287,"decorator":10288,"Ġaff":10289,"lees":10290,"Ġcatch":10291,"allfiles":10292,"Ġfurther":10293,"Ġpus":10294,"Ġrefused":10295,"\"\",":10296,"ionError":10297,"Ġsr":10298,"Ġslow":10299,"Ġslot":10300,"ĠLC":10301,"itVar":10302,"Ġbl":10303,"Ġinfile":10304,"comb":10305,"Ġwar":10306,"ĠSpan":10307,"Ġ([":10308,"Ġ(((":10309,"Ġ_('":10310,"ĠClose":10311,"ĠCRC":10312,"ĠCancelledError":10313,"ĠĠĠĠĠĠĠĠĠĠĠĠĠĠĠĠĠĠĠĠĠĠĠĠĠĠĠĠĠĠĠĠĠĠĠĠĠĠĠĠĠĠĠĠĠĠ":10314,"ĠDAS":10315,"dig":10316,"ĠAnal":10317,"Ġstamp":10318,"__]":10319,"iscoroutine":10320,"(';":10321,"getpass":10322,"getnode":10323,"export":10324,"Ġbeta":10325,"(\"[":10326,"ener":10327,"edu":10328,"ĠRES":10329,"Ġdialog":10330,"ĠBreakpoint":10331,"concat":10332,"ĠPIPE":10333,"traps":10334,"RARY":10335,"query":10336,"liste":10337,"prefer":10338,"Ġ***":10339,"ĠMultip":10340,"four":10341,"ĠVersion":10342,"shuffle":10343,"ĠGCC":10344,"sertionError":10345,"argsort":10346,"Ġchannel":10347,"Regex":10348,"feats":10349,"curve":10350,"colormode":10351,"HTML":10352,"hours":10353,"Ġcomps":10354,"Ġ33":10355,"Ġ35":10356,"ENCE":10357,"046":10358,"iflags":10359,"ĠĠĠĠĠĠĠĠĠĠĠĠĠĠĠĠĠĠĠĠĠĠĠĠĠĠĠĠĠĠĠĠĠĠĠĠĠĠĠĠĠĠĠĠĠĠĠĠ":10360,"minant":10361,"bynumber":10362,"licated":10363,"stemp":10364,"STD":10365,"prune":10366,"ĠKNeighborsClassifier":10367,"2264":10368,"2265":10369,"Ġlogging":10370,"ĠYU":10371,"mainpyfile":10372,"Ġmaxlevels":10373,"Ġ'.':<":10374,"Ġexpon":10375,"Ġ512":10376,"ĠState":10377,"Exemp":10378,"Ġdiscard":10379,"Ġabc":10380,"Ġmatri":10381,"Ġgenerating":10382,"Ġ\\\\":10383,"PECIAL":10384,"Ġstreamlit":10385,"xba":10386,"IDTH":10387,"users":10388,"tempdir":10389,"ghi":10390,"wininst":10391,"ĠArray":10392,"166":10393,"ainMap":10394,"Ġquot":10395,"147":10396,"Ġstats":10397,"Ġallowing":10398,"zipFile":10399,"saw":10400,"does":10401,"Ġlinking":10402,"HEADER":10403,"Ġ'/'<":10404,"hostmask":10405,"structed":10406,"Ġpossibilities":10407,"ĠQP":10408,"Ġvalidate":10409,"summary":10410,"Ġ\"\",":10411,"voidcmd":10412,"private":10413,"ĠDataPrep":10414,"Arg":10415,"Ġobtained":10416,"ĠANY":10417,"Ġrights":10418,"Ġimput":10419,"complex":10420,"cyrillic":10421,"responses":10422,"Ġpopped":10423,"Ġdisplayed":10424,"COMMENT":10425,"Ġclick":10426,"Ġfnmatch":10427,"half":10428,"randbits":10429,"README":10430,"Ġpersistent":10431,"Ġfillcolor":10432,"grass":10433,"EndCent":10434,"Ġtmpdir":10435,"INFUNCTYPE":10436,"LoggingSilencer":10437,"Ġmodification":10438,"ENDED":10439,"ĠNaNs":10440,"Ġseparators":10441,"ĠDoes":10442,"Need":10443,"MODEL":10444,"detach":10445,"Ġgenericpath":10446,"ĠTextFile":10447,"Ġcalculated":10448,"BlockingIOError":10449,"chains":10450,"Ġmkpath":10451,"icao":10452,"DIRECT":10453,"Finish":10454,"Ġjsonify":10455,"Ġrespectively":10456,"decomposition":10457,"Ġexpanded":10458,"BITS":10459,"NUMBER":10460,"Estimated":10461,"NEWLINE":10462,"Ġpieces":10463,"LoadLibrary":10464,"Ġguaranteed":10465,"similarity":10466,"BLOCKSIZE":10467,"rivative":10468,"Population":10469,"TESTFN":10470,"abetes":10471,"ĠWorld":10472,"Ġarreglo":10473,"Container":10474,"CLEAR":10475,"repeat":10476,"Ġengine":10477,"consumed":10478,"ĠINFINITY":10479,"soundpos":10480,"redencoding":10481,"ĠSpanish":10482,"ĠDASH":10483,"preferredencoding":10484,"EndCentDir":10485,"'\")<":10486,"(.*)":10487,"*<":10488,"*.<":10489,".\\":10490,"114":10491,"=':":10492,">',":10493,"AZ":10494,"Average":10495,"BZ":10496,"Byte":10497,"BATTER":10498,"Capture":10499,"CAMERA":10500,"Dense":10501,"Er":10502,"FINE":10503,"FUNCFLAG":10504,"FreeBSD":10505,"GROUP":10506,"Given":10507,"KO":10508,"Kernel":10509,"LF":10510,"Lig":10511,"LINK":10512,"NON":10513,"NAMES":10514,"QL":10515,"RT":10516,"Round":10517,"RUNNING":10518,"Sup":10519,"Shi":10520,"Somme":10521,"Tab":10522,"UF":10523,"YE":10524,"]|":10525,"]')<":10526,"aÄĩ":10527,"broken":10528,"brown":10529,"clock":10530,"cmap":10531,"cparam":10532,"ftover":10533,"gers":10534,"gates":10535,"hr":10536,"hs":10537,"ickle":10538,"implementation":10539,"jects":10540,"ko":10541,"multibyte":10542,"nie":10543,"rgb":10544,"sx":10545,"ti":10546,"uch":10547,"xec":10548,"xscale":10549,"}',":10550,"Ð´":10551,"íķ":10552,"íĥĿ":10553,"Ġ;":10554,"Ġri":10555,"Ġ})<":10556,"ĠERROR":10557,"Ħł":10558,"łľ":10559,"sex":10560,"recall":10561,"once":10562,"dera":10563,"decompress":10564,"stretch":10565,"erce":10566,"erical":10567,"Ġce":10568,"Ġcance":10569,"metic":10570,"also":10571,"algo":10572,"Ġfl":10573,"Ġpct":10574,"Ġrestri":10575,"Ġreplacing":10576,"Ġnative":10577,"Ġndiff":10578,"uro":10579,"Ġew":10580,"Ġepilogue":10581,"Ġsin":10582,"Ġscaler":10583,"ĠLine":10584,"Ġbs":10585,"Ġinp":10586,"Ġinfinite":10587,"Ġdeli":10588,"Ġdeep":10589,"Ġdfile":10590,"Ġmas":10591,"ĠSame":10592,"ĠSalary":10593,"Ġismethod":10594,"limp":10595,"ĠCom":10596,"another":10597,"ĠTuple":10598,"ĠTUPLE":10599,"Ġ\"&":10600,"Ġ\"{}":10601,"velocity":10602,"ITES":10603,"ĠDZ":10604,"ĠDST":10605,"district":10606,"ĠNU":10607,"ĠNormalize":10608,"inety":10609,"ĠArab":10610,"Ġofp":10611,"Ġexits":10612,"setlocale":10613,"keepends":10614,"('\\\\":10615,"('''<":10616,"(':')<":10617,"getDe":10618,"getcodec":10619,"getSub":10620,"()._":10621,"()'<":10622,"ĠImplement":10623,"Ġhold":10624,"Ġconcrete":10625,"(\"../":10626,"ency":10627,"APPA":10628,"edDataset":10629,"ĠFrame":10630,"ĠFizycz":10631,"ĠRight":10632,"ĠRHO":10633,"ithmetic":10634,"ĠBoth":10635,"conf":10636,"ĠPass":10637,"ĠEnter":10638,"ĠEmocjonal":10639,"olaris":10640,"etadata":10641,"esmtp":10642,"RECE":10643,"preter":10644,"Ġgrc":10645,"Ġgcv":10646,"Ġgraphics":10647,"Ġgmtoff":10648,"ĠMS":10649,"ĠMU":10650,"ĠMan":10651,"ĠMode":10652,"yscale":10653,"Ġsections":10654,"Ġ2000":10655,"Ġye":10656,"Ġyields":10657,"Ġalmost":10658,"ĠGN":10659,"ĠGET":10660,"ĠGLOBAL":10661,"Ġproduce":10662,"scroll":10663,"ĠHye":10664,"accuracies":10665,"perky":10666,"nologo":10667,"Replace":10668,"Ġlst":10669,"Ġunsupported":10670,"Ġtrack":10671,"para":10672,"pardir":10673,"compound":10674,"Ġcomput":10675,"UTYPE":10676,"unto":10677,"needed":10678,"048":10679,"poi":10680,"Ġlamb":10681,"ifies":10682,"HAS":10683,"minante":10684,"steps":10685,"Ġcolli":10686,"dapt":10687,"Ġargspec":10688,"Ġupon":10689,"tenance":10690,"mbcs":10691,"ĠKAPPA":10692,"Ġplural":10693,"maxc":10694,"ConfigParser":10695,"Ġacces":10696,"============":10697,"IRD":10698,"loadLibrary":10699,"Extract":10700,"Ġabort":10701,"Ġmatched":10702,"corpus":10703,"ttsx":10704,"UNSET":10705,"UNPACK":10706,"ĠINST":10707,"Ġgeneration":10708,"ORMAL":10709,"Ġ\\\"":10710,"grouping":10711,"])]<":10712,"Ġoverlap":10713,"Ġoverflow":10714,"rawd":10715,"EXIST":10716,"Ġhours":10717,"Ġvariant":10718,"eye":10719,"Ġinterest":10720,"shapes":10721,"Ġsometimes":10722,"ĠSection":10723,"ogus":10724,"cached":10725,"byteorder":10726,"localhost":10727,"located":10728,"xcf":10729,"Ġtargets":10730,"Ġlocalns":10731,"Ġusable":10732,"docs":10733,"gnitude":10734,"gnedDataset":10735,"ducation":10736,"Ġpyttsx":10737,"EXTEN":10738,"ĠOptionError":10739,"variety":10740,"Ġwraps":10741,"Ġconsistent":10742,"meanx":10743,"interpolation":10744,"Ġrequests":10745,"ĠChang":10746,"Ġappdata":10747,"sendall":10748,"requested":10749,"nowait":10750,"Array":10751,"Ġtracebacks":10752,"Ã©es":10753,"Ġreleases":10754,"marker":10755,"ssldata":10756,"YPIRC":10757,"ĠProper":10758,"lapsed":10759,"ĠTokenList":10760,"Ġyears":10761,"Ġconverting":10762,"invalidation":10763,"Ġmappings":10764,"ðĿĳİ":10765,"ðĿĳĽ":10766,"Ġwinner":10767,"ÅĤo":10768,"({\"":10769,"Ġdots":10770,"Ġdotted":10771,"Ġdistances":10772,"PathLike":10773,"Ġdivision":10774,"Ġshebang":10775,"ĠìĦł":10776,"viceId":10777,"EndDialog":10778,"microsoft":10779,"Change":10780,"District":10781,"cleanup":10782,"BOOT":10783,"Ġcolonnes":10784,"Ġdrawn":10785,"ĠSVR":10786,"alignment":10787,"ÅĽci":10788,"Ġmydata":10789,"TextIOWrapper":10790,"ĠHTTP":10791,"ternative":10792,"MultibyteIncrementalDecoder":10793,"MultibyteIncrementalEncoder":10794,"MultibyteStreamReader":10795,"MultibyteStreamWriter":10796,"Ġunicodedata":10797,"âĢĿ":10798,"Execute":10799,"atomic":10800,"ĠIDENT":10801,"DistutilsSetupError":10802,"Ġprecedence":10803,"namedtuple":10804,"ĠModuleNotFoundError":10805,"Ġbuffers":10806,"sgd":10807,"Ġ-------------------------------------------------------<":10808,"processes":10809,"Finder":10810,"ĠBecause":10811,"=\"\",":10812,"TotalPopulation":10813,"Ġmutually":10814,"Descriminante":10815,"abortBroadcast":10816,"Ġtech":10817,"canvheight":10818,"Clustering":10819,"ATTERN":10820,"Ġcourse":10821,"ĠSDK":10822,"mutually":10823,"Ġgrammar":10824,"===============<":10825,"scriberId":10826,"ĠTokenInfo":10827,"criterionGAN":10828,"VideoCapture":10829,"Mailbox":10830,"Ġliterals":10831,"Keys":10832,"Ġsucceed":10833,"BatchNorm":10834,"ĠBarry":10835,"Ġjakim":10836,"ĠWarsaw":10837,"popularity":10838,"BLANKLINE":10839,"Directory":10840,"Ġrepresented":10841,"ĠELLIPSIS":10842,"InetSocketAddress":10843,"Exemplimp":10844,"BATTERY":10845,"KOI":10846,"Ligne":10847,"Shik":10848,"multibytecodec":10849,"getDeviceId":10850,"getSubscriberId":10851,"RECEIVE":10852,"ĠìĦłíĥĿ":10853,"\">":10854,"\")):<":10855,"\"(?":10856,"'',":10857,"'},":10858,"(...":10859,"({}":10860,")[:":10861,");<":10862,"/-":10863,"110":10864,"280":10865,"386":10866,"800":10867,"='<":10868,"=[\"":10869,">\",":10870,"AH":10871,"AV":10872,"Any":10873,"BGR":10874,"DATE":10875,"FR":10876,"Find":10877,"Full":10878,"GS":10879,"HLO":10880,"JUNK":10881,"LK":10882,"LIN":10883,"Ret":10884,"Score":10885,"Syntax":10886,"SOURCE":10887,"TT":10888,"WARE":10889,"WARN":10890,"ZLIB":10891,"]',":10892,"ao":10893,"even":10894,"freq":10895,"fqdn":10896,"gress":10897,"holder":10898,"ipy":10899,"ksum":10900,"knn":10901,"little":10902,"longest":10903,"pc":10904,"ptext":10905,"snapshot":10906,"truncate":10907,"welcome":10908,"xgb":10909,"ymb":10910,"zu":10911,"},<":10912,"æľ":10913,"Ġ),":10914,"Ġ?<":10915,"Ġserve":10916,"Ġtm":10917,"Ġtw":10918,"ority":10919,"stand":10920,"Ġast":10921,"Ġfws":10922,"Ġfraction":10923,"Ġfrequency":10924,"around":10925,"Ġpprint":10926,"Ġelimin":10927,"nds":10928,"Ġsur":10929,"Ġsparse":10930,"Ġsamp":10931,"Ġslight":10932,"ito":10933,"Ġbroadcast":10934,"Ġbogus":10935,"Ġinline":10936,"Ġworth":10937,"geth":10938,"ĠSPECIAL":10939,"otonic":10940,"Ġ({}":10941,"ĠCSV":10942,"ĠCtrl":10943,"ĠTwo":10944,"ĠTOP":10945,"unquote":10946,"unlocked":10947,"Ġ\"*":10948,"ĠNUL":10949,"ĠNEW":10950,"atext":10951,"Ġcos":10952,"ĠAIN":10953,"ĠARE":10954,"',),<":10955,"Ġoften":10956,"__\")<":10957,"isnull":10958,"Ġexplained":10959,"setblocking":10960,"getlines":10961,"Ġthrow":10962,"ypes":10963,"Ġconf":10964,"ĠWAR":10965,"ĠWSP":10966,"(\".":10967,"ence":10968,"ĠFTP":10969,"idf":10970,"ĠBZ":10971,"ĠPut":10972,"ĠPort":10973,"ĠPopen":10974,"ĠPAS":10975,"ĠPrivate":10976,"osa":10977,"ĠEvent":10978,"ĠEHLO":10979,"quotes":10980,"REPORT":10981,"Ġmetric":10982,"),(":10983,"putcmd":10984,"Ġgame":10985,"Ġgradient":10986,"ĠMatch":10987,"ĠMISSING":10988,"Ġsect":10989,"Ġseries":10990,"Ġ27":10991,"Ġ2045":10992,"Ġyc":10993,"amb":10994,"amd":10995,"readlines":10996,"ĠUnsupportedOperation":10997,"ĠVAL":10998,"Ġresize":10999,"icast":11000,"should":11001,"shlex":11002,"ĠGHA":11003,"ĠGzipFile":11004,"'][":11005,"pycache":11006,"Ġprof":11007,"Ġproactor":11008,"Ġproduced":11009,"scal":11010,"scandir":11011,"Ġargv":11012,"Ġhexa":11013,"Ġlinux":11014,"Ġclassdict":11015,"Ġtracing":11016,"pause":11017,"Ġvo":11018,"Ġpardir":11019,"clone":11020,"Ġcomputed":11021,"backlog":11022,"Ġ300":11023,"ĠReserved":11024,"oman":11025,"ĠĠĠĠĠĠĠĠĠĠĠĠĠĠĠĠĠĠĠĠĠĠĠĠĠĠĠĠĠĠĠĠĠĠĠĠĠĠĠĠĠĠĠĠĠĠĠĠĠĠĠĠ":11026,"Decompressor":11027,"Ġcollection":11028,"validate":11029,"ULD":11030,"mburg":11031,"Ġtextwrap":11032,"OTE":11033,"Ġanyobject":11034,"quires":11035,"states":11036,"TestClass":11037,"Ġways":11038,"Ġpermiss":11039,"Ġpermission":11040,"Ġperhaps":11041,"Ġoverhead":11042,"Ġfolding":11043,"...\")<":11044,"docstring":11045,"ĠUnpickling":11046,"ĠUnpickler":11047,"findall":11048,"Ġnexttok":11049,"Ġ80":11050,"IFO":11051,"Ġadj":11052,"xaa":11053,"Ġoperating":11054,"Ġsomeone":11055,"utex":11056,"bytearray":11057,"Ġdonc":11058,"ĠWeb":11059,"blem":11060,"xfed":11061,"Param":11062,"links":11063,"Ġusual":11064,"extraction":11065,"predicate":11066,"mtree":11067,"Sequential":11068,"Ġ'-':<":11069,"062":11070,"Ġfloats":11071,"231":11072,"Ġerrread":11073,"Ġpasses":11074,"Unable":11075,"Univ":11076,"('-',":11077,"Ġtopic":11078,"Ġtopics":11079,"ĠAPPEND":11080,"Logistic":11081,"Diff":11082,"{}'.":11083,"tsv":11084,"tkinter":11085,"fieldnames":11086,"rbf":11087,"Ġobtype":11088,"Ġparents":11089,"Ġimplicit":11090,"sigint":11091,".*?":11092,"Ġregistration":11093,"stopwords":11094,"SSLContext":11095,"Ġhashlib":11096,"PREC":11097,"AKEN":11098,"ĠBaseException":11099,"PyHASH":11100,"finder":11101,"irectory":11102,"avig":11103,"=('',":11104,"Ġdivis":11105,"Ġdetected":11106,"Ġbitmap":11107,"polygon":11108,"container":11109,"Ġsays":11110,"identifier":11111,"Ġrenvoie":11112,"LogR":11113,"PipeTransport":11114,"softspace":11115,"framer":11116,"atalog":11117,"DAY":11118,"changelog":11119,">######################################################################<":11120,"breast":11121,"Ġaudioop":11122,"LDSHARED":11123,"LIBRARY":11124,"Ġcopies":11125,"ĠABCMeta":11126,"bpbynumber":11127,"APPED":11128,"frozenset":11129,"Ġutility":11130,"ĠCalculate":11131,"ĠBufferedReader":11132,"ĠStackObject":11133,"FFFFFFF":11134,"Results":11135,"neurons":11136,"reqs":11137,"Ġmovies":11138,"Ġscheduler":11139,"TRUE":11140,"terminated":11141,"Ġcauses":11142,"Ġbranch":11143,"ĠCurrently":11144,"ĠBuild":11145,"ĠZipInfo":11146,"Ġtranslation":11147,"ĠPosix":11148,"Ġstartupinfo":11149,"IMPORT":11150,"student":11151,"Ġ###<":11152,"-------+-------+":11153,"MutableMapping":11154,"Ġdeclaration":11155,"Special":11156,"Ġdecide":11157,"cipients":11158,"producer":11159,"3456789":11160,"routine":11161,"FUTURE":11162,"Support":11163,"EXTENSION":11164,"ĠIDENTICAL":11165,"ymbol":11166,"Ġsampwidth":11167,"ĠGHAIN":11168,"!)<":11169,"'%":11170,"'\",":11171,".'":11172,"2321":11173,"377":11174,">*":11175,">})<":11176,"CES":11177,"FL":11178,"GRAM":11179,"LM":11180,"LATED":11181,"Lines":11182,"Mar":11183,"Mobile":11184,"Speed":11185,"Soci":11186,"Tra":11187,"Try":11188,"Ver":11189,"Vari":11190,"Validation":11191,"Warnings":11192,"_\"":11193,"_\",":11194,"ays":11195,"bh":11196,"bnum":11197,"downs":11198,"em":11199,"fstat":11200,"han":11201,"how":11202,"ied":11203,"ivo":11204,"iÄĻ":11205,"je":11206,"native":11207,"rnd":11208,"sleep":11209,"tc":11210,"tg":11211,"tary":11212,"tqdm":11213,"uate":11214,"ufed":11215,"wr":11216,"yellow":11217,"¥¼":11218,"ÑĨ":11219,"åı":11220,"ë¥¼":11221,"ìłľ":11222,"ĠÃ":11223,"Ġvectors":11224,"Ġlive":11225,"Ġliczba":11226,"sel":11227,"inp":11228,"Ġtot":11229,"leted":11230,"Ġ#===============<":11231,"Ġ'')":11232,"Ġcat":11233,"meth":11234,"arcname":11235,"tener":11236,"Ġpca":11237,"Ġnie":11238,"Ġens":11239,"Ġeducation":11240,"Ġspy":11241,"Ġsay":11242,"Ġslash":11243,"Ġbd":11244,"Ġbas":11245,"Ġbtn":11246,"Ġbirds":11247,"Ġbowling":11248,"Ġinserted":11249,"Ġifp":11250,"Ġmone":11251,"Ġmixed":11252,"INIT":11253,"Ġ(`":11254,"Ġ(.*)":11255,"ĠCHO":11256,"ĠCHI":11257,"antes":11258,"ptim":11259,"ĠTho":11260,"ĠTEH":11261,"unet":11262,"Ġ\"[":11263,"Ġ\"\\\\":11264,"ĠDAG":11265,"dic":11266,"ulated":11267,"ĠAg":11268,"magic":11269,"ismodule":11270,"Ġexclusive":11271,"ket":11272,"exist":11273,"executor":11274,"()'.<":11275,"ĠIgnore":11276,"Ġhue":11277,"Ġhyper":11278,"ely":11279,"ablished":11280,"abiflags":11281,"ĠWhat":11282,"API":11283,"Ġfilemode":11284,"Ġdif":11285,"IGH":11286,"Ġ[_":11287,"ĠPSI":11288,"Ġleap":11289,"Ġleaf":11290,"Ġleftover":11291,"toordinal":11292,"Ġ%.":11293,"tracing":11294,"LESS":11295,"RACT":11296,"Ġmeas":11297,"ĠOper":11298,"Ġgamma":11299,"ĠMore":11300,"Ġlineterm":11301,"Ġimporting":11302,"Ġyy":11303,"Ġalter":11304,"ĠUSE":11305,"ĠGra":11306,"ĠGroup":11307,"']].":11308,"Ġprograms":11309,"Ġentered":11310,"ube":11311,"Ġgetter":11312,"Ġgetstate":11313,"Ġchaque":11314,"Ġargrepr":11315,"pers":11316,"':[":11317,"Ġsetparams":11318,"Ġunable":11319,"assertNot":11320,"Ġvisual":11321,"lify":11322,"Ġcompliant":11323,"Ġcomparing":11324,"Ġcomplicated":11325,"ĠBOTT":11326,"Ġkeras":11327,"='')<":11328,"neous":11329,"Ġoutliers":11330,"[::":11331,"erson":11332,"ĠĠĠĠĠĠĠĠĠĠĠĠĠĠĠĠĠĠĠĠĠĠĠĠĠĠĠĠĠĠĠĠĠĠĠĠĠĠĠĠĠĠĠĠĠĠĠĠĠĠĠ":11333,"Detection":11334,"callees":11335,"QUOP":11336,"llation":11337,"Ġ:]":11338,"failed":11339,"pioid":11340,"Ġmobile":11341,"dates":11342,"Ġintro":11343,"USS":11344,"Connect":11345,"220":11346,"2229":11347,"Ġlogic":11348,"newer":11349,"127":11350,"sky":11351,"Ġ'.'.":11352,"SECTION":11353,"Ġ56":11354,"Exists":11355,"SCHE":11356,"behind":11357,"ĠZETA":11358,")))":11359,"mlmodels":11360,"Ġuserhome":11361,"communicate":11362,"opener":11363,"ADD":11364,"Ġpermet":11365,"Ġvals":11366,"Ġ['/":11367,"Ġfinding":11368,"categor":11369,"voke":11370,"Ġadjusted":11371,"Ġcommunicate":11372,"Ġquit":11373,"addresslist":11374,"xcc":11375,"Ġcvdetection":11376,"answer":11377,"ĠHEH":11378,"ĠHELO":11379,"skipTest":11380,"sockopt":11381,"Ġ70":11382,"Ġ75":11383,"isoformat":11384,"2320":11385,"Unknown":11386,"blocksize":11387,"Ġtopdown":11388,"Local":11389,"Ġoptionals":11390,"sendcmd":11391,"ĠPreprocessing":11392,"localeconv":11393,"Ġlocks":11394,"Ã©e":11395,"markdown":11396,"audio":11397,"Ġsendfile":11398,"initialspace":11399,"capitalize":11400,"Ġ127":11401,"Token":11402,"Ġnormalized":11403,"SVM":11404,"direction":11405,"obs":11406,"ĠClassification":11407,"PROJECT":11408,"xyz":11409,"Ġgenerators":11410,"Ġìł":11411,"installed":11412,"ĠPool":11413,"Ġshows":11414,"Child":11415,"sentence":11416,"BOUND":11417,"Ġcolonne":11418,"assign":11419,"Ġquick":11420,"euclidean":11421,"ĠPyPIRCCommand":11422,"Negative":11423,"iento":11424,"Ġcleanup":11425,"heapreplace":11426,"ĠAdditional":11427,"ĠMakefile":11428,"123456789":11429,"1234567890":11430,"leglosc":11431,"isticsError":11432,"Ġpatches":11433,"Show":11434,"ìĹ¬":11435,"IMEN":11436,"drawing":11437,"Ġturned":11438,"ĠInvalidOperation":11439,"SDK":11440,"Ġdeclstartpos":11441,"Ġterms":11442,"ABCMeta":11443,"(',',":11444,"certfile":11445,"Ġhomecls":11446,"ĠLAMDA":11447,"shearfactor":11448,"Ġexpects":11449,"Ġreductor":11450,"ĠTypeVar":11451,"ĠTrains":11452,"ĠmajorVersion":11453,"IFIED":11454,"InstanceNorm":11455,"Ġvaleurs":11456,"Ġcumulative":11457,"ĠCONFIG":11458,"ĠCounty":11459,"Coroutine":11460,"Quit":11461,"nospace":11462,"ĠBadZipFile":11463,"ĠPipeline":11464,"ĠPickling":11465,"ĠEMPTYSTRING":11466,"STORED":11467,"Weak":11468,"xffffffff":11469,"ĠPurePath":11470,"Ġpotential":11471,"Cleaning":11472,"Ġforeground":11473,"Ġaltsep":11474,"ĠStructure":11475,"Raised":11476,"ĠColumnTransformer":11477,"ĠINTERSECTION":11478,"youtube":11479,"orizontal":11480,"mailfrom":11481,"ĠìĿ¸ëį±ìĬ¤":11482,"Ġconvention":11483,"ĠlawEmp":11484,"DEVNULL":11485,"CLOSED":11486,"Ġpixels":11487,"cending":11488,"ĠTfidfVectorizer":11489,"Ġgarb":11490,"FILTER":11491,"Ġmention":11492,"stretchfactor":11493,"ĠArabic":11494,"Ġcollision":11495,"ĠUnpicklingError":11496,"SpeedButton":11497,"Social":11498,"ÑĨÐ¸":11499,"ĠDAGGER":11500,"ĠBOTTOM":11501,"QUOPRI":11502,"ExistsError":11503,"\")))<":11504,"'^":11505,")\",<":11506,"+-":11507,";'":11508,"?[":11509,"AA":11510,"AY":11511,"BJ":11512,"CN":11513,"CUT":11514,"CAC":11515,"DY":11516,"Drive":11517,"Dell":11518,"EY":11519,"EQUAL":11520,"FT":11521,"Final":11522,"Field":11523,"Flag":11524,"Graphics":11525,"Last":11526,"Linux":11527,"NS":11528,"NOP":11529,"Normalize":11530,"Ninety":11531,"Pure":11532,"Pdb":11533,"SOL":11534,"Salary":11535,"VI":11536,"YY":11537,"]._":11538,"]==":11539,"]\",":11540,"]],":11541,"fuel":11542,"har":11543,"hint":11544,"iol":11545,"iocp":11546,"jump":11547,"jkl":11548,"kit":11549,"mbox":11550,"mutable":11551,"nested":11552,"pclass":11553,"pdb":11554,"rule":11555,"sift":11556,"sNaN":11557,"tions":11558,"ula":11559,"vived":11560,"xtext":11561,"xdd":11562,"xfd":11563,"Ġ):<":11564,"Ġ._":11565,"reuse":11566,"Ġtup":11567,"det":11568,"Ġaf":11569,"Ġavail":11570,"Ġ'...":11571,"Ġclf":11572,"Ġcss":11573,"Ġcygwin":11574,"Ġfetch":11575,"Ġfragment":11576,"Ġrename":11577,"Ġrecv":11578,"Ġreferencia":11579,"\"\")<":11580,"Ġsnapshot":11581,"ctime":11582,"ingu":11583,"radd":11584,"itals":11585,"Ġban":11586,"Ġinvariant":11587,"cell":11588,"pep":11589,"ssnd":11590,"cover":11591,"comma":11592,"coeff":11593,"Ġdep":11594,"Ġdepend":11595,"Ġdevelo":11596,"ues":11597,"INPUT":11598,"ĠSB":11599,"ĠSp":11600,"Ġispkg":11601,"ĠCPython":11602,"ĠTree":11603,"ric":11604,"rian":11605,"adow":11606,"adding":11607,"unted":11608,"vered":11609,"ĠDB":11610,"ĠDET":11611,"ĠDWORD":11612,"ĠNAME":11613,"Ġcookie":11614,"Ġstu":11615,"__}":11616,"isabstractmethod":11617,"Ġexha":11618,"('')<":11619,"getmembers":11620,"getaddrinfo":11621,"Ġthus":11622,"Ġhint":11623,"iza":11624,"ĠWINFUNCTYPE":11625,"ĠFull":11626,"ĠRest":11627,"ĠRGB":11628,"ĠRoman":11629,"defpath":11630,"ĠBayes":11631,"ĠBabyl":11632,"ĠPdb":11633,"ĠEither":11634,"lists":11635,"Ġlot":11636,"Ġmeth":11637,"),)<":11638,"ĠOutput":11639,"Ġgray":11640,"Ġsemi":11641,"Ġalthough":11642,"ĠUsage":11643,"ĠGEN":11644,"']).":11645,"pydoc":11646,"typename":11647,"argspec":11648,"ĠHAS":11649,"__(<":11650,"Ġheld":11651,"note":11652,"usted":11653,"Ġunion":11654,"Ġunlocked":11655,"Ġweak":11656,"msi":11657,"Ġpaste":11658,"plan":11659,"strptime":11660,"Ġnumero":11661,"EDENT":11662,"Ġtyped":11663,"backup":11664,"0161":11665,"0160":11666,"Inf":11667,"ĠDebug":11668,"ifp":11669,"Ġ('/":11670,"ĠĠĠĠĠĠĠĠĠĠĠĠĠĠĠĠĠĠĠĠĠĠĠĠĠĠĠĠĠĠĠĠĠĠĠĠĠĠĠĠĠĠĠĠĠĠĠĠĠĠĠĠĠ":11671,"Ġstrong":11672,"activ":11673,"([^":11674,"Storage":11675,"Ġcharmap":11676,"Ġattach":11677,"usic":11678,"transfer":11679,"Ġzf":11680,"ĠKon":11681,"Ġshr":11682,"newobj":11683,"ofp":11684,"Ġfactor":11685,"endo":11686,"ĠStrip":11687,"ĠStrictVersion":11688,"Ġoptimal":11689,"Ġstartpos":11690,"Ġabbre":11691,"kwonly":11692,"))))<":11693,"ttributes":11694,"LAND":11695,"there":11696,"Ġtransparent":11697,"groupby":11698,"Ġoverwritten":11699,"usersite":11700,"Progress":11701,"Ġ['-":11702,"findLib":11703,"EXIT":11704,"ĠTHIS":11705,"Ġdironly":11706,"winerror":11707,"Ġquoting":11708,"ayer":11709,"Ġbacklog":11710,"ABIL":11711,"Ġdonn":11712,"Ġsuppressed":11713,"OPTION":11714,"Ġtarball":11715,"absolute":11716,"skipping":11717,"pipes":11718,"Ġtheyear":11719,"cparts":11720,"Types":11721,"Ġbootstrap":11722,"Ġskipinitialspace":11723,"interval":11724,"Ġpipes":11725,"Ġmarkup":11726,"ĠChunk":11727,"Predict":11728,"pkgs":11729,"ourceWarning":11730,"warnmsg":11731,"ĠProblem":11732,"2014":11733,"DEFLATED":11734,"stopped":11735,"Ġregressor":11736,"SSLv":11737,"SSLSocket":11738,"Ġsplitdrive":11739,"Ġcommonly":11740,"Ġnecessarily":11741,"COMPRESS":11742,"ĠUNC":11743,"Ġidentifier":11744,"randn":11745,"chool":11746,"CPP":11747,"437":11748,"FAILURE":11749,"NotImplemented":11750,"Ġcompletely":11751,"Ġfontsize":11752,"HOST":11753,"Ġ//=":11754,"median":11755,"ĠPolicy":11756,"ĠCreates":11757,"loyed":11758,"divmod":11759,"Ġaccepts":11760,"OUTINE":11761,"jobs":11762,"Ġexpressions":11763,"ĠcentDir":11764,"CCESS":11765,"ĠSocket":11766,"CREATE":11767,"sorizer":11768,"Ġswig":11769,"ĠHelp":11770,"ĠAssertionError":11771,"ĠABCs":11772,"greeting":11773,"ĠMSVCCompiler":11774,"separated":11775,"Ġ--------------------":11776,"PENDING":11777,"SERVER":11778,"Ġpreceding":11779,"OneDrive":11780,"consts":11781,"subclasshook":11782,"COROUTINE":11783,"sdk":11784,"continuation":11785,"PLACE":11786,"DescriptorType":11787,"ĠResourceWarning":11788,"MixIn":11789,"ĠSOCK":11790,"scaler":11791,"###############<":11792,"ĠRawTurtle":11793,"Ġapplications":11794,"Predicate":11795,"Ġeasy":11796,"Ġeasier":11797,"losure":11798,"letters":11799,"Ġvaleur":11800,"Ġcategorical":11801,"ĠAliases":11802,"vvvv":11803,"Ġcycle":11804,"ĠThus":11805,"Ã¨s":11806,"Ġholding":11807,"Ġretrieved":11808,"Features":11809,"Ġtensorflow":11810,"ĠGaussianNB":11811,"pwuid":11812,"ĠEURO":11813,"Status":11814,"ĠSelecting":11815,"ĠLinkError":11816,"inheritable":11817,"ĠWARRAN":11818,"Ġhexadecimal":11819,"Ġgarbage":11820,"CACHE":11821,"\").<":11822,"$\")<":11823,"%%":11824,"'.\"\"\"<":11825,"''.":11826,")//":11827,"*,":11828,"/(":11829,"480":11830,">(":11831,">.<":11832,">'.":11833,">;<":11834,"?\\":11835,"Auto":11836,"AUDIO":11837,"Basic":11838,"CALE":11839,"Current":11840,"Dig":11841,"FH":11842,"FOR":11843,"FOO":11844,"La":11845,"MONT":11846,"NF":11847,"Next":11848,"Note":11849,"OLE":11850,"PN":11851,"PR":11852,"Ped":11853,"Price":11854,"RPM":11855,"Sun":11856,"SIGN":11857,"Turn":11858,"UKRAINIAN":11859,"Usage":11860,"Vers":11861,"Visual":11862,"WIN":11863,"Waiter":11864,"WIDTH":11865,"YU":11866,"YES":11867,"]}":11868,"_.":11869,"aix":11870,"ained":11871,"ava":11872,"aire":11873,"aLocations":11874,"bayes":11875,"crypt":11876,"dler":11877,"drain":11878,"dynamic":11879,"eigen":11880,"effect":11881,"fhandle":11882,"gname":11883,"greg":11884,"iq":11885,"ium":11886,"ious":11887,"kh":11888,"ki":11889,"lda":11890,"nte":11891,"nod":11892,"niter":11893,"ook":11894,"plist":11895,"pic":11896,"rlen":11897,"raries":11898,"tim":11899,"vp":11900,"visual":11901,"war":11902,"wid":11903,"yau":11904,"zal":11905,"zure":11906,"}\"<":11907,"²´":11908,"´Ð»":11909,"´ë¦":11910,"Åº":11911,"Ð¿":11912,"ì²´":11913,"Ġå":11914,"ĠÑģ":11915,"ľðĿĳ":11916,"Ŀì²´":11917,"inc":11918,"rek":11919,"referencia":11920,"Ġts":11921,"atis":11922,"dedent":11923,"device":11924,"Ġ=<":11925,"Ġ=\",":11926,"Ġai":11927,"Ġamb":11928,"Ġaffect":11929,"erman":11930,"hens":11931,"Ġ'**":11932,"Ġ'').":11933,"Ġcra":11934,"Ġcmp":11935,"Ġcrc":11936,"Ġczy":11937,"Ġcamera":11938,"allocate":11939,"Ġfine":11940,"Ġfully":11941,"arize":11942,"aracter":11943,"Ġpt":11944,"Ġplease":11945,"Ġrenamed":11946,"Ġnchannels":11947,"Ġou":11948,"Ġsd":11949,"Ġsdist":11950,"ĠsÄħ":11951,"Ġslave":11952,"Ġskew":11953,"Ġ-<":11954,"rant":11955,"Ġbatting":11956,"Ġinc":11957,"ceeded":11958,"cost":11959,"Ġdecor":11960,"gens":11961,"Ġdane":11962,"utime":11963,"utions":11964,"ament":11965,"Ġmil":11966,"ĠSource":11967,"ĠSafe":11968,"Ġiscased":11969,"ĠCP":11970,"ĠClean":11971,"ĠĠĠĠĠĠĠĠĠĠĠĠĠĠĠĠĠĠĠĠĠĠĠĠĠĠĠĠĠĠĠĠĠĠĠĠĠĠĠĠĠĠĠĠĠ":11972,"ptarget":11973,"ĠTCP":11974,"ĠTimer":11975,"Ġtoke":11976,"Ġtools":11977,"Ġforms":11978,"Ġformal":11979,"ĠNT":11980,"third":11981,"thousands":11982,"iness":11983,"ĠAtoB":11984,"Ġsts":11985,"Ġstand":11986,"__[":11987,"asdict":11988,"isdigit":11989,"Ġexts":11990,"Ġnotation":11991,"getpwuid":11992,"excel":11993,"Ġthickness":11994,"()).<":11995,"verted":11996,"fied":11997,"ĠII":11998,"Ġhh":11999,"Ġhar":12000,"#####":12001,"Ġconvenience":12002,"Ġconstructed":12003,"ĠWR":12004,"ĠWarning":12005,"ĠWhether":12006,"enabled":12007,"edInfinity":12008,"ĠFaceRecognition":12009,"ĠRational":12010,"defs":12011,"\",]<":12012,"Ġdistrict":12013,"construct":12014,"ĠPH":12015,"ĠPix":12016,"osfhandle":12017,"ĠESMTP":12018,"ĠEYES":12019,"tout":12020,"toarray":12021,"LEFT":12022,"etype":12023,"quer":12024,"quopri":12025,"preamble":12026,"Ġgi":12027,"Ġgrid":12028,"ĠMIN":12029,"ĠMAD":12030,"ĠMUST":12031,"Ġsecurity":12032,"Ġ29":12033,"tags":12034,"tarek":12035,"ORUSS":12036,"shown":12037,"ĠGreg":12038,"teste":12039,"acz":12040,"Ġchanging":12041,"Ġhence":12042,"persed":12043,"period":12044,"probab":12045,"Ġsetpos":12046,"Ġsetlocale":12047,"Ġpremi":12048,"Ġcodeset":12049,"Ġlp":12050,"Ġlub":12051,"Ġunet":12052,"Ġunits":12053,"Ġunquote":12054,"Ġunspecified":12055,"curindex":12056,"Ġclassifiers":12057,"redits":12058,"Ġtraps":12059,"mock":12060,"Ġxrefs":12061,"Ġlisten":12062,"ĠXGB":12063,"plays":12064,"Ġtested":12065,"Ġcompact":12066,"strzal":12067,"backslash":12068,"ĠReport":12069,"ĠRegist":12070,"Ġwheel":12071,"dicts":12072,"ĠDeprecated":12073,"Ġnegot":12074,"Ġnearest":12075,"ected":12076,"formatted":12077,"Ġsubdir":12078,"Ġ:\",":12079,"').<":12080,"Ġ--<":12081,"Ġintros":12082,"USH":12083,"Ġtextvar":12084,"OTH":12085,"Ġacct":12086,"tention":12087,"Ġchecker":12088,"subtract":12089,"varnames":12090,"SEARCH":12091,"appush":12092,"Ġintermedi":12093,"Ġ59":12094,"ĠtrainX":12095,"cmdclass":12096,"ANCE":12097,"ĠerrorTab":12098,"))):<":12099,"Ġcorner":12100,"opened":12101,"ADI":12102,"Ġtransformed":12103,"])]))<":12104,"Ġdescribe":12105,"FileName":12106,"Produce":12107,"syntax":12108,"votes":12109,"winreg":12110,"ĠSTD":12111,"copydoc":12112,"Ġentre":12113,"ĠSecond":12114,"exponent":12115,"localtime":12116,"Ġ&=":12117,"Ġmangle":12118,"Ġbinarize":12119,"hasattr":12120,"OPT":12121,"Ġcopyright":12122,"mitive":12123,"addrs":12124,"Ġ...,":12125,"targets":12126,"ĠRECT":12127,"Ġfloating":12128,"gnu":12129,"ELORUSS":12130,"ICELAND":12131,"compilers":12132,"330":12133,"Ġconfigure":12134,"Ġboundaries":12135,"Ġseem":12136,"Ġwants":12137,"bdriver":12138,"ĠANN":12139,"Ġheadersonly":12140,"sslcopydoc":12141,"zenie":12142,"firstlineno":12143,"detec":12144,"ĠArgumentError":12145,"Ġmonths":12146,"CompileError":12147,"Ġtables":12148,"ĠTurtleGraphics":12149,"Ġabspath":12150,"supports":12151,"Ġreplaces":12152,"2017":12153,"relation":12154,"Framework":12155,"such":12156,"ðĿĳľðĿĳ":12157,"Ġescapes":12158,"Ġpopraw":12159,"Ġstripping":12160,"Ġterminate":12161,"={:.":12162,"xfef":12163,"Ġexecutables":12164,"ĠMEDIAL":12165,"ĠFileExistsError":12166,"Ġdaily":12167,"Ġspill":12168,"LINEAR":12169,"ĠìĤ":12170,"StringVar":12171,"Ġcapability":12172,"google":12173,"ĠEnviron":12174,"SHUT":12175,"Distribution":12176,"ĠDefine":12177,"PipeError":12178,"linux":12179,"Display":12180,"Discriminator":12181,"Ġnumerically":12182,"squares":12183,"ĠColor":12184,"ĠAssumption":12185,"ĠGROUPREF":12186,"Ġchoose":12187,"visit":12188,"ĠÐ´Ð»":12189,"decimalnl":12190,"expandtabs":12191,"Ġmoved":12192,"SUPPRESS":12193,"ĠPerceptron":12194,"mailboxes":12195,"datum":12196,"ÐµÐ½Ð¸":12197,"NOTIFIED":12198,"ĠTextIOWrapper":12199,"Ġsentinel":12200,"ĠDict":12201,"ĠDiff":12202,"Ġretval":12203,"radians":12204,"ĠNamed":12205,"ĠMove":12206,"ArgumentError":12207,"Ġpickler":12208,"calledfuncs":12209,"unixfrom":12210,"OpenKey":12211,"MMDF":12212,"Ġhistogram":12213,"Ġhardware":12214,"Ġautoraise":12215,"Locator":12216,"Moyenne":12217,"VALUE":12218,"trees":12219,"Ġalternate":12220,"Ġencry":12221,"ĠUserString":12222,"Ġmeaningful":12223,"Ġedit":12224,"ĠWinsorizer":12225,"gym":12226,"FIELDS":12227,"criteria":12228,"ynamicClass":12229,"failure":12230,"ĠProcessPoolExecutor":12231,"structuredtext":12232,"OrderedDict":12233,"mocrat":12234,"ficers":12235,"CHARSET":12236,"Ġsubpatternappend":12237,"ĠPredictions":12238,"'}:<":12239,"WINDOWS":12240,"SUFFIXES":12241,"Ġpreprocessor":12242,"aaaaaaaa":12243,"ĠSDSS":12244,"ĠIntele":12245,"ĠBYELORUSS":12246,"Ġunixfrom":12247,"ProductName":12248,"Only":12249,"ĠShape":12250,"ĠStatisticsError":12251,"Maintenance":12252,"Ġtiming":12253,"Ġtimings":12254,"Ġcircle":12255,"Ġcircular":12256,"ConnectionBlock":12257,"ehlo":12258,"SkipConnectionBlock":12259,"FloatTensor":12260,"SignedInfinity":12261,"Ġinfos":12262,"Ġlinked":12263,"Ġaccurate":12264,"Ġ5322":12265,"Ġeuclidean":12266,"Ġdistributed":12267,"BADF":12268,"SectionError":12269,"andardizing":12270,"Ġfracpart":12271,"ĠLPINT":12272,"Ġdestroyed":12273,"Ġê°Ŀì²´":12274,"Ġventas":12275,"education":12276,"ĠMultiple":12277,"Ġtechn":12278,"scalar":12279,"BOUNDARY":12280,"ĠPicklingError":12281,"inguish":12282,"ĠDETE":12283,"Digite":12284,"Peddler":12285,"Versi":12286,"´ë¦Ħ":12287,"ĠFaceRecognitionManager":12288,"ĠMADDA":12289,"strzalu":12290,"ICELANDIC":12291,"ĠÐ´Ð»Ñı":12292,"ĠBYELORUSSIAN":12293,"\"^":12294,"'(":12295,")],<":12296,"*.":12297,"./":12298,".]+":12299,"2006":12300,"213":12301,"620":12302,"=(),":12303,"Aut":12304,"AIT":12305,"Bar":12306,"CERT":12307,"DT":12308,"DID":12309,"Day":12310,"El":12311,"EVEN":12312,"Fail":12313,"Foo":12314,"FUNCTION":12315,"FAST":12316,"GL":12317,"HKEY":12318,"HITES":12319,"KH":12320,"Mac":12321,"NORMAL":12322,"PS":12323,"PT":12324,"QP":12325,"Row":12326,"Source":12327,"Software":12328,"TCP":12329,"WX":12330,"YMENT":12331,"].__":12332,"ahead":12333,"bra":12334,"basic":12335,"blake":12336,"cfile":12337,"eu":12338,"gne":12339,"guess":12340,"given":12341,"grouped":12342,"iu":12343,"kill":12344,"kie":12345,"music":12346,"nsed":12347,"night":12348,"ngettext":12349,"rz":12350,"sun":12351,"uso":12352,"ulaw":12353,"xform":12354,"yx":12355,"you":12356,"your":12357,"Ãº":12358,"ÃŃ":12359,"Ġlimited":12360,"invert":12361,"instream":12362,"research":12363,"Ġtweet":12364,"onMultipart":12365,"desh":12366,"sts":12367,"Ġ#################################################":12368,"Ġ':<":12369,"alor":12370,"Ġfo":12371,"Ġfram":12372,"Ġflavour":12373,"Ġrem":12374,"Ġreduced":12375,"Ġredirect":12376,"Ġremoving":12377,"urpose":12378,"Ġsaf":12379,"ingw":12380,"rad":12381,"rams":12382,"ractions":12383,"radesh":12384,"ita":12385,"Ġbi":12386,"Ġinpackage":12387,"Ġindependent":12388,"ntype":12389,"laneous":12390,"pection":12391,"cod":12392,"colab":12393,"cookie":12394,"Ġdecre":12395,"look":12396,"Ġdup":12397,"Ġdynamic":12398,"Ġmarg":12399,"Ġmount":12400,"ĠSU":12401,"ĠSu":12402,"ĠSans":12403,"ĠScreen":12404,"ALAW":12405,"ĠCare":12406,"ĠCont":12407,"ĠCTE":12408,"ĠCALLBACK":12409,"\"\"\")<":12410,"anies":12411,"ĠTK":12412,"ĠTemp":12413,"rival":12414,"riding":12415,"ribut":12416,"ĠNode":12417,"ilds":12418,"iltin":12419,"cher":12420,"__\"":12421,"Ġexpr":12422,"Ġexternal":12423,"Ġnotify":12424,"Ġnotdone":12425,"('',":12426,"('\"',":12427,"gettimeout":12428,"getresp":12429,"expression":12430,"Ġbehave":12431,"ĠImp":12432,"Ġhide":12433,"Ġhsv":12434,"####<":12435,"izations":12436,"Ġconform":12437,"APPEND":12438,"ĠFill":12439,"ĠFast":12440,"ĠFUNCTION":12441,"ĠFutures":12442,"ĠFINISHED":12443,"ida":12444,"Ġdiction":12445,"ĠBASE":12446,"Ġarithmetic":12447,"ĠPES":12448,"ĠPradesh":12449,"ĠEmax":12450,"Ġ%#":12451,"trailing":12452,"tracking":12453,"olat":12454,"Ġlost":12455,"ĠMEM":12456,"Ġsec":12457,"Ġ26":12458,"Ġ220":12459,"Ġ2047":12460,"opponent":12461,"readonly":12462,"readinto":12463,"Ġmais":12464,"tached":12465,"plural":12466,"importlib":12467,"laboratory":12468,"pendown":12469,"########<":12470,"Ġchmod":12471,"perf":12472,"proxy":12473,"Ġpreset":12474,"Regist":12475,"csibm":12476,"ILLE":12477,"Ġundef":12478,"Ġunregister":12479,"Ġunused":12480,"quee":12481,"Ġclassmethod":12482,"ISDIR":12483,"Ġvir":12484,"Ġlisting":12485,"itertools":12486,"Ġparagraph":12487,"initargs":12488,"Ġcompilation":12489,"Ġprintable":12490,"Ġnewitem":12491,"viation":12492,"Ġoptionally":12493,"imread":12494,"argcount":12495,"Ġhascased":12496,"optionflag":12497,"Ġpopen":12498,"Ġposter":12499,"Debug":12500,"DeprecationWarning":12501,"actic":12502,"Ġsubmit":12503,"Ġsubtract":12504,"Ġmoment":12505,"Ġattached":12506,"STOP":12507,"646":12508,"ĠInclude":12509,"ĠInitVar":12510,"Ġanymore":12511,"rcpttos":12512,"worker":12513,"subnormal":12514,"ACT":12515,"LOYMENT":12516,"Ġsourceget":12517,"Ġmaxheaderlen":12518,"Ġexpressed":12519,"servers":12520,"checked":12521,"Ġranges":12522,"Expired":12523,"distname":12524,"Ġwaited":12525,"Ġdocutils":12526,"Ġ'<%":12527,"0213":12528,"UPDAT":12529,"contextmanager":12530,"Profile":12531,"Provides":12532,"ĠUnknown":12533,"Ġdirlist":12534,"ĠConfig":12535,"isspace":12536,"DataError":12537,"Ġ65":12538,"Ġ655":12539,"Ġstates":12540,"Ġbackup":12541,"Ġparsers":12542,"Ġminutes":12543,"Ġmanagement":12544,"345":12545,"straints":12546,"sockname":12547,"See":12548,"targetpath":12549,"canonic":12550,"suppress":12551,"2310":12552,"Ġpossibility":12553,"Ġassuming":12554,"Loss":12555,"863":12556,"Ġrawval":12557,"networks":12558,"Ġarchives":12559,"8888":12560,"ĠChange":12561,"ĠLock":12562,"HANG":12563,"ranges":12564,"naive":12565,"disassemble":12566,"hitespace":12567,"Ġformer":12568,"Ġreleased":12569,"Ġimpl":12570,"(?:\\":12571,"completed":12572,"uido":12573,"specifier":12574,"Ġreferenced":12575,"building":12576,"Ġ'#')<":12577,"executables":12578,"Ġspecialized":12579,"Ġinterpret":12580,"FILENAME":12581,"FILENO":12582,"Iterable":12583,"Ġlowest":12584,"fillpath":12585,"MAXLINE":12586,"BINUNICODE":12587,"BINBYT":12588,"Ġdotplace":12589,"ĠFileNotFoundError":12590,"filterwarnings":12591,"Ġtried":12592,"Ġcorresponds":12593,"Ġclients":12594,"Ġheapq":12595,"Ġsignaling":12596,"Ġsaving":12597,"Ġcustomize":12598,"SHIFT":12599,"CFuncPtr":12600,"IntEnum":12601,"Ġaccepting":12602,"Ġforceload":12603,"Ġlanguages":12604,"Ġ';':<":12605,"WRAPPED":12606,"raphique":12607,"Ġoverrides":12608,"ĠDocTestRunner":12609,"Ġblanks":12610,"ĠREVERSED":12611,"ĠCANCELLED":12612,"tabsize":12613,"Downloads":12614,"legacy":12615,"ModuleHandle":12616,"ĠMost":12617,"mios":12618,"quitting":12619,"DEBUGSTREAM":12620,"MARKER":12621,"abcdefghi":12622,"Ġattempted":12623,"Ġtermios":12624,"Ġvendor":12625,"****************************************************************":12626,"Ġinstantiated":12627,"ĠValueTerminal":12628,"Ġmultiprocessing":12629,"quantity":12630,"evaluation":12631,"0123456789":12632,"ImportError":12633,"dialect":12634,"=\"\")<":12635,"ProxyType":12636,"BufferedIOBase":12637,"rmdir":12638,"ĠDisplay":12639,"EventLoopPolicy":12640,"Ġligne":12641,"Utils":12642,"lamped":12643,"Central":12644,"ĠtrÃ¨s":12645,"cellaneous":12646,"Ġcycles":12647,"~~~~~~~~~~~~~~~~":12648,"MODUL":12649,"ĠColaboratory":12650,"Ġutiliser":12651,"HERE":12652,"Ġfilled":12653,"Ġdeviation":12654,"orientation":12655,"FLOOR":12656,"ĠLicensed":12657,"Ġcanvheight":12658,"ĠTimeoutError":12659,"Ġdependency":12660,"Ġvcvarsall":12661,"allenge":12662,"ĠSWIG":12663,"Ġexceeds":12664,"DEPLOYMENT":12665,"ĠWeakSet":12666,"ĠApplying":12667,"REQUI":12668,"ĠPermissionError":12669,"combine":12670,"ĠRights":12671,"ĠGNUTYPE":12672,"gethost":12673,"Ġpermissions":12674,"IGHEST":12675,"IMENonMultipart":12676,"Automatically":12677,"Ġintermediate":12678,"ĠTurtleGraphicsError":12679,"ĠEnvironment":12680,"ĠPESETA":12681,"UPDATES":12682,"BINBYTES":12683,"\"}":12684,"\"]:<":12685,"\"(.*)":12686,"$',":12687,"';":12688,")>":12689,"*'<":12690,",%":12691,"->":12692,"/_":12693,"1255":12694,"199":12695,"1256":12696,"2047":12697,"30003":12698,"718":12699,"Ass":12700,"BM":12701,"BT":12702,"Binary":12703,"BIRD":12704,"CZ":12705,"Code":12706,"Clear":12707,"Custom":12708,"Flo":12709,"FWS":12710,"GI":12711,"GRAY":12712,"HR":12713,"Ident":12714,"Jo":12715,"Jan":12716,"KR":12717,"Law":12718,"MB":12719,"MC":12720,"Mot":12721,"Med":12722,"MES":12723,"Match":12724,"Metadata":12725,"NK":12726,"Now":12727,"Normal":12728,"OENT":12729,"Output":12730,"Pa":12731,"Pod":12732,"PServer":12733,"Poll":12734,"RF":12735,"Rational":12736,"Task":12737,"TAKEN":12738,"UUID":12739,"UnsupportedOperation":12740,"VT":12741,"Wl":12742,"With":12743,"WIF":12744,"]\"":12745,"](":12746,"][-":12747,"]])))<":12748,"aco":12749,"aexit":12750,"bare":12751,"che":12752,"cdll":12753,"credits":12754,"dlen":12755,"duplic":12756,"erent":12757,"fort":12758,"fractal":12759,"houseReps":12760,"imo":12761,"ided":12762,"jab":12763,"lÃ©":12764,"lru":12765,"lbl":12766,"large":12767,"mos":12768,"ned":12769,"ock":12770,"pcm":12771,"snd":12772,"slo":12773,"salt":12774,"tstr":12775,"vpe":12776,"vity":12777,"wine":12778,"wist":12779,"wstring":12780,"xde":12781,"yy":12782,"æį":12783,"ìľ":12784,"Ġser":12785,"Ġ85":12786,"ŀ¥":12787,"inom":12788,"rela":12789,"restructuredtext":12790,"Ġtvars":12791,"onkey":12792,"onclick":12793,"ords":12794,"dea":12795,"degrees":12796,"Ġaifc":12797,"Ġavec":12798,"Ġir":12799,"Ġiry":12800,"Ġ#################################################################":12801,"Ġcs":12802,"Ġcada":12803,"Ġflow":12804,"aro":12805,"tex":12806,"Ġreli":12807,"Ġremo":12808,"Ġretain":12809,"Ġrewind":12810,"Ġnm":12811,"Ġnous":12812,"ĠnastÄĻpny":12813,"Ġodd":12814,"Ġotoff":12815,"Ġsus":12816,"Ġscor":12817,"Ġsalt":12818,"ĠLs":12819,"ĠLDA":12820,"Ġbzip":12821,"Ġinexact":12822,"Ġincoming":12823,"Ġindented":12824,"celu":12825,"ntp":12826,"peek":12827,"Ġdegrees":12828,"Ġdans":12829,"Ġmiesi":12830,"ĠmDF":12831,"INC":12832,"ĠSY":12833,"ĠSun":12834,"ĠSOURCE":12835,"Ġisdir":12836,"ĠCR":12837,"ĠCAN":12838,"ĠCross":12839,"anonymous":12840,"adpcm":12841,"unjab":12842,"Ġ\"{":12843,"ĠDAL":12844,"ĠDes":12845,"ĠDraw":12846,"Ġfork":12847,"ĠNUN":12848,"ĠNaive":12849,"iline":12850,"Ġcovariant":12851,"Ġstick":12852,"channel":12853,"__']<":12854,"asing":12855,"isclass":12856,"Ġexpl":12857,"Ġexited":12858,"('+":12859,"('[":12860,"(':',":12861,"getname":12862,"getmodule":12863,"inters":12864,"excluded":12865,"()*":12866,"()[:":12867,"()'.":12868,"()}/":12869,"serv":12870,"ErrorLog":12871,"fire":12872,"izar":12873,"ably":12874,"ĠWAW":12875,"allw":12876,"(\"{!":12877,"enPercent":12878,"APPY":12879,"ĠFancy":12880,"Ġask":12881,"Ġaspect":12882,"ĠRect":12883,"ĠRUN":12884,"contact":12885,"ĠPEG":12886,"ĠPickle":12887,"ĠuÅ¼y":12888,"apis":12889,"Ġ==<":12890,"izes":12891,"ĠEnd":12892,"ĠEye":12893,"ĠEnsure":12894,"ĠEtiny":12895,"toward":12896,"----------":12897,"---------<":12898,"olving":12899,"etree":12900,"listen":12901,"Ġmeant":12902,"Ġdatagram":12903,"ĠObject":12904,"ĠOld":12905,"ĠMAN":12906,"ĠMicrosoft":12907,"Ġlinestarts":12908,"Ġseri":12909,"Ġselection":12910,"Ġimporter":12911,"Ġ2231":12912,"ought":12913,"readmodule":12914,"Ġmachinery":12915,"icion":12916,"']])<":12917,"keyfile":12918,"Ġgetpass":12919,"Ġgetcomptype":12920,"Ġchance":12921,"Ġheappop":12922,"noescape":12923,"Ġsetstate":12924,"Ġpreamble":12925,"ĠDOS":12926,"Report":12927,"ILS":12928,"Ġrule":12929,"Ġlb":12930,"Ġlatin":12931,"Ġunlike":12932,"ipv":12933,"Ġtrap":12934,"Ġvolat":12935,"iteration":12936,"ĠXcode":12937,"compiling":12938,"comparison":12939,"Ġpaused":12940,"ddate":12941,"UTABLE":12942,"Ġkat":12943,"Ġkmeans":12944,"Ġnewfile":12945,"Income":12946,"Inexact":12947,"Ġ36":12948,"ĠReference":12949,"ĠRemoving":12950,"malloc":12951,"printables":12952,"iming":12953,"imgs":12954,"ĠDelete":12955,"ĠDetect":12956,"character":12957,"Ġhasn":12958,"aky":12959,"training":12960,"optionals":12961,"optionxform":12962,"formative":12963,"minc":12964,"bye":12965,"Ġsubmodules":12966,"'))":12967,"([])<":12968,"Ġcolwidth":12969,"Ġmock":12970,"Ġjest":12971,"Ġintpart":12972,"ĠExper":12973,"ĠInstead":12974,"Ġcalc":12975,"Control":12976,"IZED":12977,"OTCONN":12978,"Ġworld":12979,"Ġshallow":12980,"Ġendpoint":12981,"120":12982,"124":12983,"Ġdistin":12984,"ĠYapp":12985,"Ġfirstweekday":12986,"submodule":12987,"varargs":12988,"LOAD":12989,"ĠDecimals":12990,"wordchars":12991,"checking":12992,"Exp":12993,"distplot":12994,"closest":12995,"longopt":12996,"rounds":12997,"county":12998,"Ġclone":12999,"SCALE":13000,"msgid":13001,"Ġdocloc":13002,"Ġdocumented":13003,"monic":13004,"signals":13005,"ADMIN":13006,"thetas":13007,"Ġovers":13008,"Ġoverriding":13009,"Ġvalname":13010,"Ġstackslice":13011,"Ġpredictor":13012,"document":13013,"Ġserverthread":13014,"Projects":13015,"Ġnonlocal":13016,"Ġnonnegative":13017,"asta":13018,"------------------------------------------------":13019,"ĠTHO":13020,"ĠTHAT":13021,"Ġdirpath":13022,"Ġsupporting":13023,"latest":13024,"Datagram":13025,"ĠSearch":13026,"Ġquopri":13027,"1415":13028,"Ġbackslashes":13029,"dbg":13030,"Ġminimal":13031,"Ġmanqu":13032,"1111":13033,"Ġbuilddate":13034,"specially":13035,"showwarning":13036,"567":13037,"axs":13038,"Ġ78":13039,"HEIGHT":13040,"IALIAS":13041,"Ġpyc":13042,"Ġpyconfig":13043,"Ġarchs":13044,"cpu":13045,"centers":13046,"realm":13047,"Member":13048,"maskValueError":13049,"resta":13050,"Ġ10000":13051,"Ġunderstand":13052,"\\\\\\":13053,"priority":13054,"00000000":13055,"ĠPreprocess":13056,"later":13057,"overload":13058,"Ġchildpos":13059,"Ġobvious":13060,"Ġobsolete":13061,"monthdays":13062,"tryorder":13063,"Ġrounds":13064,"firstline":13065,"Ġalgorithms":13066,"completer":13067,"lappy":13068,"sigma":13069,"Ġleftmost":13070,"Ġ96":13071,"fsdecode":13072,"built":13073,"ĠCompare":13074,"ASOS":13075,"imputed":13076,"ragged":13077,"Ġremains":13078,"Ġprimitive":13079,"ðĿĳĸ":13080,"ðĿĳĺ":13081,"87000":13082,"PyPIRCCommand":13083,"sql":13084,"Ġidentifies":13085,"Learning":13086,"blit":13087,"Äħc":13088,"ĠGener":13089,"ĠUnixCCompiler":13090,"bigsection":13091,"pushbutton":13092,"ĠnetG":13093,"Ġdetections":13094,"Ġsigmoid":13095,"going":13096,"StateFIPS":13097,"999999":13098,"Ġcustomer":13099,"ĠNeeded":13100,"coins":13101,"driven":13102,"SOCKET":13103,"niu":13104,"Ġestimat":13105,"Ġordinal":13106,"indiaLocations":13107,"Ġassumes":13108,"landic":13109,"Ġmyoff":13110,")/(":13111,"Ġissues":13112,">################################################################<":13113,"lsgan":13114,"ĠDomain":13115,"IterationGuard":13116,"Ġreporting":13117,"ELLIPSIS":13118,"Subnormal":13119,"Ġrepet":13120,"Ġrcpttos":13121,"Ġplaced":13122,"},'<":13123,"asyncgens":13124,"tagged":13125,"Ġbotnet":13126,"ĠDiffer":13127,"radius":13128,"Ġneurons":13129,"Ġpickled":13130,"PovertyEst":13131,"ìĹĲ":13132,"Ġbgr":13133,"ĠDefaults":13134,"distances":13135,"APPLICATION":13136,"surrogates":13137,"MethodType":13138,"DistutilsError":13139,"DistutilsOptionError":13140,"ĠSuper":13141,"Ġeffective":13142,"ĠSpecify":13143,"Ġ\"'%":13144,"Canvas":13145,"equals":13146,"ĠLearning":13147,"Ġinvolve":13148,"Ġcombined":13149,"Ġlegal":13150,"ĠOPTION":13151,"munication":13152,"rypter":13153,"isticas":13154,"Ġepochs":13155,"Ġredund":13156,"AllAges":13157,"Ġrecommend":13158,"ĠOpenSSL":13159,"Ġyielding":13160,"jisx":13161,"ĢìĪĺ":13162,"Ģìŀ¥":13163,"Ġnti":13164,"ĠJanuary":13165,"GRP":13166,"ÑģÑĤ":13167,"ìĿĺ":13168,"Ġcategories":13169,"Ġcomes":13170,"ĠARCH":13171,"ĠRounded":13172,"ĠPosicao":13173,"Commodity":13174,"EMPTYSTRING":13175,"ĠEngine":13176,"ê°ľ":13177,"ĠCountVectorizer":13178,"ĠFeatures":13179,"Ġconsistency":13180,"OBJ":13181,"OBJECT":13182,"ANTIALIAS":13183,"Ġ=======================":13184,"ĠFormat":13185,"soleteHeaderDefect":13186,"Ġrotdig":13187,"ĠâĢŀ":13188,"02066":13189,"02063":13190,"ĠKMean":13191,"ĠKMeans":13192,"COUNT":13193,"COUNTY":13194,"GENERATOR":13195,"ĠNetmaskValueError":13196,"=======+=======+":13197,"HHIncome":13198,"Ġmerge":13199,"ĠTSADI":13200,"ĠcommodityErrors":13201,"ĠEXTENDED":13202,"Ġsurrogate":13203,"ĠUnetSkipConnectionBlock":13204,"EnvironGuard":13205,"villes":13206,"Ġpushed":13207,"Ġclicked":13208,"DIRECTORY":13209,"Ġcancellation":13210,"Ġinteresting":13211,"ĠProperly":13212,"ipynb":13213,"Ġslightly":13214,"PRECATED":13215,"ymbolTable":13216,"FLAPPY":13217,"selves":13218,"ĠìłĢìŀ¥":13219,"Ġmentioned":13220,"Ġdeployment":13221,"ĠdonnÃ©es":13222,"MONTH":13223,"aracteristicas":13224,"Ġtokentype":13225,"queror":13226,"backslashreplace":13227,"Ġintrospection":13228,"OpenKeyEx":13229,"MaintenanceForm":13230,"Ġframerate":13231,"codable":13232,"queeze":13233,"BIRDS":13234,"Floresta":13235,"MedHHIncome":13236,"Ġscoring":13237,"interspersed":13238,"ĠFancyGetopt":13239,"ĠPEGASOS":13240,"PovertyEstimate":13241,"'})<":13242,"'*(":13243,")._":13244,")()<":13245,")'.":13246,"*?":13247,"*\\":13248,"-*":13249,".'.":13250,"/{":13251,"/',":13252,"210":13253,"299":13254,"211":13255,"20000":13256,"949":13257,":\\\\":13258,">{":13259,">',<":13260,">'''":13261,"?,":13262,"Ab":13263,"Available":13264,"BA":13265,"Bo":13266,"BRO":13267,"BOD":13268,"Breakpoint":13269,"CHARACTER":13270,"Counter":13271,"DD":13272,"DONT":13273,"Go":13274,"GID":13275,"GCC":13276,"Ignore":13277,"JK":13278,"KT":13279,"LATE":13280,"My":13281,"Mark":13282,"MORE":13283,"OIN":13284,"Offset":13285,"Rect":13286,"RPC":13287,"Stem":13288,"Supported":13289,"TIES":13290,"ULE":13291,"VS":13292,"Valor":13293,"WITH":13294,"Watcher":13295,"WANT":13296,"WHITES":13297,"[\\":13298,"_:<":13299,"_',":13300,"bm":13301,"bcc":13302,"catch":13303,"clamp":13304,"closure":13305,"dw":13306,"epilogue":13307,"fre":13308,"fno":13309,"hy":13310,"hits":13311,"href":13312,"jecut":13313,"mall":13314,"mnop":13315,"nw":13316,"nothing":13317,"olo":13318,"pdf":13319,"patterns":13320,"qsize":13321,"qrst":13322,"rset":13323,"sdist":13324,"ud":13325,"uv":13326,"ufb":13327,"wxr":13328,"wxyz":13329,"xies":13330,"xrefs":13331,"zer":13332,"ztar":13333,"è¿":13334,"Ġmp":13335,"Ġqual":13336,"Ġroute":13337,"Ġ999":13338,"Ġatexit":13339,"secs":13340,"selections":13341,"Ġtilt":13342,"deli":13343,"depen":13344,"stub":13345,"Ġadapt":13346,"erarch":13347,"helo":13348,"Ġ'//":13349,"Ġcflags":13350,"alaw":13351,"Ġfinfo":13352,"Ġfcnt":13353,"Ġpragma":13354,"Ġrece":13355,"Ġrecall":13356,"Ġrequote":13357,"Ġever":13358,"Ġeye":13359,"Ġson":13360,"Ġ-(":13361,"Ġ-_":13362,"ract":13363,"rance":13364,"Ġinstructions":13365,"cen":13366,"ssi":13367,"ssock":13368,"coordin":13369,"covered":13370,"Ġdependent":13371,"loye":13372,"Ġdw":13373,"Ġdas":13374,"Ġ->\",":13375,"amente":13376,"uest":13377,"INPLACE":13378,"ĠSpec":13379,"ĠSHE":13380,"Ġisabs":13381,"Ġ({":13382,"ĠCap":13383,"ĠCNN":13384,"pty":13385,"ĠTermin":13386,"ridis":13387,"rieve":13388,"Ġtool":13389,"Ġtowards":13390,"ATCH":13391,"adjust":13392,"uns":13393,"unfinished":13394,"unseen":13395,"Ġ\"^":13396,"vendor":13397,"ĠDA":13398,"ĠDONT":13399,"ĠDAD":13400,"ĠDiv":13401,"ĠDummy":13402,"disk":13403,"ilTestCase":13404,"illegal":13405,"Ġcomo":13406,"Ġcoefs":13407,"Ġcounted":13408,"ĠAgree":13409,"valor":13410,"Ġ\"\"\"**":13411,"Ġ\"\"\"+<":13412,"__'<":13413,"__']":13414,"__')":13415,"isol":13416,"isidentifier":13417,"Ġexpens":13418,"('@":13419,"getreply":13420,"getpreferredencoding":13421,"intypes":13422,"Ġ120":13423,">#================================":13424,"Ġthought":13425,"()[:-":13426,"firm":13427,"ĠIGN":13428,"isect":13429,"isease":13430,"ĠWH":13431,"ĠWhere":13432,"ĠWays":13433,"ĠWHERE":13434,"ĠFac":13435,"ĠFloat":13436,"Ġascending":13437,"Ġordered":13438,"Ġdiffer":13439,"ĠBig":13440,"ĠBasic":13441,"ĠBUF":13442,"conversion":13443,"resolve":13444,"ĠPa":13445,"ĠPe":13446,"ĠPSF":13447,"Ġund":13448,"apped":13449,"Ġlearn":13450,"Ġlets":13451,"ĠEmail":13452,"ĠEvery":13453,"Ġlooked":13454,"Ġann":13455,"prepend":13456,"Ġdataclasses":13457,"ICATE":13458,"Ġgraphique":13459,"ĠMRO":13460,"ĠMain":13461,"andatory":13462,"Ġsemaphore":13463,"Ġ2007":13464,"Ġ2006":13465,"Ġ2008":13466,"Ġya":13467,"Ġyhat":13468,"Ġyellow":13469,"Ġallocated":13470,"anced":13471,"ambig":13472,"amiento":13473,"dirpath":13474,"ĠUD":13475,"ĠUsing":13476,"'<{":13477,"outfiles":13478,"ĠVT":13479,"ĠVER":13480,"shal":13481,"ĠGo":13482,"']=":13483,"Ġchrome":13484,"Ġchallenge":13485,"Ġheur":13486,"Ġheart":13487,"extfileobj":13488,"nores":13489,"Ġpreference":13490,"ILER":13491,"Ġrstrip":13492,"Ġlt":13493,"Ġunbound":13494,"Ġunfinished":13495,"assertRegex":13496,"Ġvstring":13497,"Ġviol":13498,"company":13499,"ddr":13500,"hobject":13501,"Ġcompname":13502,"strar":13503,"sizes":13504,"Ġnumerical":13505,"Ġtypename":13506,"0342":13507,"0104":13508,"0105":13509,"0119":13510,"0118":13511,"Include":13512,"Ġ314":13513,"Ġ327":13514,"viridis":13515,"ENABLE":13516,"typing":13517,"0412":13518,"0416":13519,"0419":13520,"0418":13521,"omor":13522,"Ġtimetuple":13523,"],'":13524,"ators":13525,"ĠDec":13526,"ario":13527,"Ġnumbering":13528,"Ġstrftime":13529,"HAH":13530,"Ġcurve":13531,"minutes":13532,"acters":13533,"Ġsubnet":13534,"')[":13535,"850":13536,"856":13537,"([\\":13538,"fast":13539,"Ġjulian":13540,"functype":13541,"funny":13542,"ĠExit":13543,"ĠInc":13544,"ĠInitial":13545,"Ġcontextlib":13546,"DEPRECATED":13547,"ĠKEY":13548,"Constructor":13549,"rcpt":13550,"quick":13551,"Ġdistinguish":13552,"varkw":13553,"Ġsourcematch":13554,"Ġ'.',":13555,"SEQU":13556,"Ġ500":13557,"2020":13558,"runner":13559,"runctx":13560,"OLD":13561,"Execut":13562,"Ġopener":13563,"dists":13564,"Ġwaits":13565,"Ġmatrice":13566,"kws":13567,"Ġmayor":13568,"corr":13569,"Ġ\"<\"":13570,"Ġ\"<%":13571,"xFFFFFFFF":13572,"LAY":13573,"Ġ\\(":13574,"Ġ'<{}":13575,"])],":13576,"Ġoverwrite":13577,"Ġoverview":13578,"FileHeader":13579,"FileException":13580,"temporary":13581,"Ġwritelines":13582,"Proc":13583,"ĠUnique":13584,"mailcap":13585,"shapeIndex":13586,"Ġ86":13587,"Ġturtleshape":13588,"mods":13589,"Ġadvert":13590,"Ġeventfun":13591,"ĠConstants":13592,"ĠSele":13593,"xxmodule":13594,"bitmap":13595,"colorstr":13596,"][\"":13597,"3412":13598,"Ġloads":13599,"Ġdiffs":13600,"130":13601,"Selection":13602,"Ġ'-')<":13603,"061":13604,"Ġclosefd":13605,"Ġindice":13606,"10000":13607,"Ġcompletes":13608,"230":13609,"daylight":13610,"''')<":13611,"Ġlongopts":13612,"Unicode":13613,"Undefined":13614,"cross":13615,"crolled":13616,"Ġcaused":13617,"Ġpycache":13618,"ĠBLOCKSIZE":13619,"Ġmodpkgs":13620,"environment":13621,"popleft":13622,"\")),<":13623,"Ġdebugged":13624,"CHR":13625,"sockets":13626,"oseVersion":13627,"869":13628,"Ġmarkers":13629,"manent":13630,"Ġunderline":13631,"\\\\.":13632,"protocols":13633,"globaltrace":13634,"Ġsums":13635,"ĠAnother":13636,"annotate":13637,"ĠPrevent":13638,"overwrite":13639,"overlap":13640,"override":13641,"Ġmailcap":13642,"gorithm":13643,"hashlib":13644,"Ġimplied":13645,"ĠTesting":13646,"Ġwaiters":13647,"Ġroom":13648,"destination":13649,"Ġsending":13650,"Ġfixup":13651,"ĠMean":13652,"eofs":13653,"excepthook":13654,"Ġnormalization":13655,"NOWAIT":13656,"ĠSetup":13657,"Ġshortopts":13658,"Ġpythonapi":13659,"flowing":13660,"={!":13661,"ginica":13662,"fillna":13663,"MessageDefect":13664,"CloseHandle":13665,"AddressHeader":13666,"doublecolon":13667,"Ġdetailed":13668,"BINPUT":13669,"culating":13670,"666":13671,"NotAvailable":13672,"Ġkeeping":13673,"ĠNOON":13674,"nltk":13675,"dispatcher":13676,"('/',":13677,"ĠPEM":13678,"polynomial":13679,"displayhook":13680,"StateError":13681,"padx":13682,"sitedir":13683,"Char":13684,"MENTS":13685,"Ġaussi":13686,"Ġcontroller":13687,"Ġ'\"':<":13688,"Ġannotate":13689,"goto":13690,"ittleEndianStructure":13691,"BOOL":13692,"Ġordinary":13693,"styles":13694,"jacent":13695,"PerAU":13696,"Ġindicated":13697,"certs":13698,"ĠSOFTWARE":13699,"Ġisoformat":13700,"bztar":13701,"Ġpeop":13702,"Ġrcpt":13703,"Timeout":13704,"multiply":13705,"Ġpkgutil":13706,"heapify":13707,"Ġprobability":13708,"stantiate":13709,"bplist":13710,"Ġdecla":13711,"remaining":13712,"Ġreasonable":13713,"Ġvisitor":13714,"SHAKE":13715,"ĠIOBase":13716,"consistent":13717,"Ġstaticmethod":13718,"marize":13719,"ĠBufferedWriter":13720,"ĠStackSummary":13721,"Move":13722,"}.{":13723,"scheduler":13724,"Ġpercentage":13725,"Ġinvocation":13726,"Ġcombination":13727,"ĠBININT":13728,"Overlapped":13729,"OverflowError":13730,"Completed":13731,"Calculate":13732,"samefile":13733,"}:{":13734,"IFIER":13735,"Ġmisses":13736,"directive":13737,"!!!!":13738,"Ġcoordinate":13739,"Ġtranslated":13740,"HANDSHAKE":13741,"Ġ1994":13742,"yphens":13743,"Ġrespons":13744,"SPECIAL":13745,"aiff":13746,"Ġspecs":13747,"Ġconsisting":13748,"Numeric":13749,"Ġpiece":13750,"bios":13751,"ĠCHAR":13752,"Ġpotentially":13753,"Ġholds":13754,"TMPFILE":13755,"Ġradius":13756,"FLOAT":13757,"ĠLicense":13758,"Ġcanvwidth":13759,"ĠTimeoutExpired":13760,"DOTALL":13761,"GetoptError":13762,"RawIOBase":13763,"helpers":13764,"ĠREADME":13765,"currentLineItem":13766,"PRIV":13767,"ĠÃ©lÃ©":13768,"attachment":13769,"ĠCalledProcessError":13770,"between":13771,"classed":13772,"asyncio":13773,"Ġdialect":13774,"ĠBdbQuit":13775,"Ġconjunto":13776,"longcmdstring":13777,"Ġulx":13778,"ĠManual":13779,"ĠModelo":13780,"LINES":13781,"Ġtwice":13782,"ĠPASO":13783,"Ġresizemode":13784,"wrong":13785,"Ġmonetary":13786,"Ġmeasure":13787,"ChildWatcher":13788,"VIEW":13789,"jklmnop":13790,"mboxMMDF":13791,"detalle":13792,"Ġexhausted":13793,"ĠWARRANTIES":13794,"timings":13795,"Ġmilli":13796,"ynamicClassAttribute":13797,"Ġtechnique":13798,"Failure":13799,"ĠContribut":13800,"CentralDir":13801,"MODULUS":13802,"ĠMANIFEST":13803,"Ġestimator":13804,"Ġrepetition":13805,"Ġredundant":13806,"BODY":13807,"qrstuv":13808,"Ġfcntl":13809,"ĠAgreement":13810,"Ġexpensive":13811,"ĠIGNORE":13812,"NotAvailableError":13813,"ĠContributor":13814,"qrstuvwxyz":13815,"!\")":13816,"$'<":13817,"(\"\"\"":13818,"(**":13819,")[-":13820,")(?":13821,"*[":13822,"+'":13823,"+')<":13824,"-',":13825,"/'":13826,"164":13827,"1007":13828,"550":13829,"=\",":13830,"=')<":13831,">#####":13832,"AI":13833,"BY":13834,"Best":13835,"Bind":13836,"BZIP":13837,"BINGET":13838,"CAP":13839,"Cache":13840,"DET":13841,"DND":13842,"Dob":13843,"EBUG":13844,"EINVAL":13845,"Filter":13846,"Gre":13847,"GAP":13848,"Gaussian":13849,"HD":13850,"HSV":13851,"Mat":13852,"MSC":13853,"MISSING":13854,"MESSAGE":13855,"Node":13856,"NUL":13857,"Null":13858,"Nie":13859,"Osc":13860,"PI":13861,"Pad":13862,"Private":13863,"PKG":13864,"PATTERN":13865,"QR":13866,"Sal":13867,"SAT":13868,"Space":13869,"Single":13870,"Th":13871,"TIL":13872,"Tire":13873,"Uh":13874,"UCE":13875,"Vir":13876,"Village":13877,"Writ":13878,"YAM":13879,"[%":13880,"]\")<":13881,"]))":13882,"`.":13883,"ah":13884,"aÅ¼":13885,"bmp":13886,"bos":13887,"bhi":13888,"cle":13889,"cations":13890,"csock":13891,"cards":13892,"fl":13893,"gc":13894,"gidx":13895,"gmtoff":13896,"gamma":13897,"hue":13898,"hib":13899,"iB":13900,"ios":13901,"iac":13902,"ickets":13903,"jrel":13904,"km":13905,"lor":13906,"lations":13907,"lzma":13908,"meros":13909,"ossible":13910,"pg":13911,"pandas":13912,"pwn":13913,"pats":13914,"pgsu":13915,"punctuation":13916,"rh":13917,"rules":13918,"rmtree":13919,"si":13920,"snan":13921,"tup":13922,"tpl":13923,"tÃ³":13924,"uk":13925,"upt":13926,"xs":13927,"yrillic":13928,"¬ì":13929,"°°":13930,"²Ķ":13931,"·®":13932,"¼Ð¸":13933,"Ã±":13934,"Ñĩ":13935,"å·®":13936,"ëĬ":13937,"Ġ))<":13938,"Ġíĸī":13939,"Ńìłľ":13940,"sess":13941,"serial":13942,"setenv":13943,"inclusive":13944,"recogn":13945,"Ġtruncated":13946,"orzyst":13947,"Ġ===":13948,"Ġapy":13949,"Ġaware":13950,"Ġaktualna":13951,"leap":13952,"Ġips":13953,"ern":13954,"helf":13955,"heses":13956,"heappop":13957,"Ġ''))<":13958,"Ġ''),<":13959,"Ġ')'<":13960,"Ġcel":13961,"Ġcrun":13962,"mem":13963,"Ġfancy":13964,"Ġptext":13965,"Ġptout":13966,"Ġpacz":13967,"Ġthemonth":13968,"Ġred":13969,"Ġrely":13970,"Ġrefold":13971,"Ġnan":13972,"Ġnest":13973,"Ġoctal":13974,"urod":13975,"Ġecho":13976,"Ġespecially":13977,"Ġsit":13978,"Ġsont":13979,"ĠsNaN":13980,"ĠLatin":13981,"Ġ---------":13982,"ingMixIn":13983,"ran":13984,"rape":13985,"racy":13986,"Ġbj":13987,"Ġbunch":13988,"celandic":13989,"rote":13990,"cological":13991,"Ġdeux":13992,"loves":13993,"Ġdd":13994,"Ġdisease":13995,"utro":13996,"utif":13997,"Ġmd":13998,"Ġml":13999,"Ġmart":14000,"ĠSanc":14001,"iler":14002,"Ġisfunction":14003,"Ġisjunk":14004,"lik":14005,"Ġ(--":14006,"Ġ('<":14007,"ĠCERT":14008,"ĠClasses":14009,"ĠCenter":14010,"Ġdefin":14011,"ETIME":14012,"ano":14013,"anci":14014,"ania":14015,"ptitle":14016,"oneno":14017,"ĠTelnet":14018,"rick":14019,"riori":14020,"unsafe":14021,"unconsumed":14022,"Ġ\"$":14023,"ITORY":14024,"dient":14025,"diabetes":14026,"ĠNB":14027,"ĠNext":14028,"ĠNull":14029,"illed":14030,"iltro":14031,"Ġcoerce":14032,"uly":14033,"ulÃ©e":14034,"ĠAST":14035,"ĠAjust":14036,"male":14037,"chg":14038,"chksum":14039,"childs":14040,"__\"):<":14041,"isation":14042,"iscellaneous":14043,"Ġextent":14044,"Ġnotified":14045,"('#":14046,"getters":14047,"linebuffer":14048,"Ġ150":14049,"Ġthousands":14050,"odata":14051,"Ġraze":14052,"Ġ+-------+-------+":14053,"Ġ+=======+=======+":14054,"ises":14055,"Ġcontro":14056,"ĠWILL":14057,"ĠWEIGHT":14058,"(\">":14059,"ender":14060,"ength":14061,"edParser":14062,"ĠFake":14063,"Ġaslist":14064,"iding":14065,"ĠRLock":14066,"Ġfileout":14067,"Ġorg":14068,"Ġdirc":14069,"ĠBl":14070,"ĠBea":14071,"ĠBIAS":14072,"ĠBINGET":14073,"Ġ[*":14074,"Ġarr":14075,"conver":14076,"contra":14077,"apted":14078,"osc":14079,"Ġleaving":14080,"ĠEst":14081,"ĠEval":14082,"tool":14083,"olar":14084,"eso":14085,"esz":14086,"RESH":14087,"Ġloves":14088,"Ġmetodo":14089,"preserve":14090,"ĠOE":14091,"ĠOCT":14092,"ĠOVER":14093,"ĠMM":14094,"ĠMOD":14095,"ysok":14096,"yscological":14097,"ageSexRace":14098,"owanie":14099,"Ġseleccion":14100,"Ġ2002":14101,"Ġ250":14102,"Ġalone":14103,"ĠUS":14104,"ĠUses":14105,"taken":14106,"ORITY":14107,"NDIFF":14108,"ĠVeh":14109,"dings":14110,"ship":14111,"share":14112,"ĠHand":14113,"Ġfromlines":14114,"keyencoding":14115,"Ġgetsource":14116,"noresize":14117,"Ġpreserved":14118,"Real":14119,"Repos":14120,"Refused":14121,"Ġrm":14122,"Ġunwrap":14123,"Ġunencoded":14124,"Ġunstructured":14125,"matizer":14126,"Ġtraces":14127,"Ġvan":14128,"Ġxs":14129,"parskip":14130,"colgroup":14131,"collapse":14132,"ĠXapp":14133,"compliant":14134,"Ġpare":14135,"hog":14136,"Ġtestdll":14137,"Ġcompiling":14138,"lenium":14139,"ĠktÃ³":14140,"0106":14141,"0142":14142,"0107":14143,"joint":14144,"Ġnewcount":14145,"Instruction":14146,"Ġ302":14147,"ĠRepair":14148,"ENOENT":14149,"Ġoutfp":14150,"0425":14151,"0401":14152,"0404":14153,"0422":14154,"0410":14155,"0420":14156,"0432":14157,"0415":14158,"0414":14159,"0411":14160,"0434":14161,"0413":14162,"0423":14163,"0417":14164,"0442":14165,"0430":14166,"0424":14167,"0421":14168,"0407":14169,"0429":14170,"0427":14171,"0428":14172,"0426":14173,"Ġpathnames":14174,"omb":14175,").'<":14176,"Ġtimeit":14177,"pools":14178,"aki":14179,"Ġsupposed":14180,"eczy":14181,"ledu":14182,"ledge":14183,"itionally":14184,"Ġdefaulting":14185,"Ġcursect":14186,"minus":14187,"minimum":14188,"byval":14189,"=\".":14190,"Ġsubclassed":14191,"Ġcollected":14192,"Ġcollapse":14193,"Ġ-->":14194,"STEM":14195,"Ġintral":14196,"ĠInexact":14197,"Ġupconv":14198,"notab":14199,"attery":14200,"numero":14201,"ĠKFold":14202,"splits":14203,"OTHER":14204,"Ġsha":14205,"Ġhaven":14206,"ributed":14207,"Ġmessagebox":14208,"defaultlocale":14209,"compiled":14210,"Ġformatvalue":14211,"Ġdistname":14212,"ĠYO":14213,"Ġfaire":14214,"stateName":14215,"ĠtrainY":14216,"cmdline":14217,"ĠStd":14218,"ĠStudio":14219,"Ġapriori":14220,"Example":14221,"Extension":14222,"Exped":14223,"Ġoptname":14224,"'.'<":14225,"Ġsync":14226,"logR":14227,"327":14228,"))),<":14229,"(_('":14230,"monday":14231,"monotonic":14232,"Ġcontainers":14233,"):]<":14234,"Ġinitially":14235,"ĠSEEK":14236,"Ġgenerates":14237,"Ġcompiles":14238,"Ġperiod":14239,"pointA":14240,"syscmd":14241,"Provide":14242,"Ġfinds":14243,"ĠpointB":14244,"Ġ8192":14245,"IFMT":14246,"ĠConfigParser":14247,"ressionError":14248,"DataLoader":14249,"ĠSelection":14250,"Ġstopword":14251,"ĠFORMAT":14252,"Ġ63":14253,"refer":14254,"colorbar":14255,"ĠJo":14256,"ĠJutro":14257,"(*((":14258,"Ġlocaltime":14259,"Ġroots":14260,"Head":14261,"showwarnmsg":14262,"rectly":14263,"Semaphore":14264,"topfd":14265,"tons":14266,"Ġvers":14267,"currently":14268,"gnes":14269,"Ġerrmsg":14270,"Ġ'_')<":14271,"srcname":14272,"Ġtoplevel":14273,"\");<":14274,"variables":14275,"Compressor":14276,"Ġinstalling":14277,"Ġlibfile":14278,"Ġlibpaths":14279,"KEYS":14280,"Ġignores":14281,"restore":14282,"ODO":14283,"interact":14284,"interpreter":14285,"WOBJ":14286,"egg":14287,"ego":14288,"ĠChild":14289,"angling":14290,"anguage":14291,"ĠPrevis":14292,"ĠDataProcess":14293,"BUF":14294,"Arr":14295,"Arrival":14296,"months":14297,"Ġparentheses":14298,"markobject":14299,"sslpipe":14300,"2116":14301,"Ġlocalename":14302,"Ġlocaleconv":14303,"ĠProfile":14304,"Ġdllwrap":14305,"fnmatch":14306,"ĠTools":14307,"0440":14308,"0441":14309,"0443":14310,"0444":14311,"0445":14312,"0446":14313,"0447":14314,"0448":14315,"0449":14316,"transports":14317,"ertificate":14318,"optimizers":14319,"2010":14320,"2015":14321,"suptitle":14322,"ĠComputed":14323,"ĠComparison":14324,"cursively":14325,"Ġ'#':<":14326,"Transpose":14327,"]]])<":14328,"PREDICT":14329,"parsers":14330,"ipedia":14331,"Ġpopular":14332,"Ġterminating":14333,"Ġterminates":14334,"Versions":14335,"Ġdocuments":14336,"ReadError":14337,"Leaky":14338,"('.',":14339,"ĠENABLE":14340,"yeon":14341,"ĠSMTPServer":14342,"pairwise":14343,"CPT":14344,"BININT":14345,"=%(":14346,"Optional":14347,"273":14348,"0435":14349,"0436":14350,"0437":14351,"0438":14352,"0439":14353,"ĠMAI":14354,"Resp":14355,"Ġfilterfunc":14356,"Ġshapes":14357,"ĠnetD":14358,"Ġspacing":14359,"Ġbitcoin":14360,"ĠInteractive":14361,"LINEBREAK":14362,"Ġsigcls":14363,"ĠMIMEtype":14364,"StringMap":14365,"Ġcapath":14366,"ĠAlways":14367,"ĠPossible":14368,"483":14369,"gradient":14370,"0451":14371,"0454":14372,"0457":14373,"Ġ'\\\\':<":14374,"pady":14375,"padded":14376,"nbits":14377,"Ġstrictly":14378,"Ġreadermode":14379,"ĠNeuron":14380,"ĠDefines":14381,"Ġtzname":14382,"badmodules":14383,"retval":14384,"niff":14385,"KeyError":14386,"Disposition":14387,"]+)\\":14388,"Ġuniquely":14389,"ÅĽÄĩ":14390,"Ġmytz":14391,"================================================":14392,
[...]
